<pad>	0
<unk>	0
.	-3.07182
▁the	-3.35753
s	-3.40264
,	-3.40998
▁of	-3.88044
▁to	-4.04264
▁and	-4.16848
'	-4.29279
▁a	-4.38576
▁in	-4.41563
▁I	-4.61218
▁	-4.68067
▁you	-4.90751
?	-5.00988
▁is	-5.0135
t	-5.01728
▁for	-5.03209
ing	-5.03585
▁that	-5.06966
-	-5.14045
▁-	-5.22533
▁on	-5.27668
▁The	-5.31369
▁be	-5.36874
ed	-5.38762
▁it	-5.42447
▁(	-5.52888
d	-5.54861
▁with	-5.55222
▁are	-5.65906
:	-5.7263
)	-5.75343
m	-5.75393
▁this	-5.80032
▁was	-5.81551
▁by	-5.82065
▁not	-5.84134
re	-5.84593
▁have	-5.90775
ly	-5.93552
e	-5.93854
!	-5.96787
▁as	-5.97627
▁or	-6.05984
y	-6.0713
▁from	-6.09426
▁at	-6.09882
▁You	-6.10037
▁me	-6.13529
n	-6.16284
...	-6.20205
▁we	-6.21098
▁will	-6.22344
er	-6.23117
▁an	-6.23343
/	-6.23894
▁A	-6.2662
al	-6.30477
▁can	-6.30679
▁your	-6.32514
▁It	-6.33163
▁all	-6.33467
ll	-6.41815
▁has	-6.45512
▁do	-6.47483
▁he	-6.50852
▁my	-6.54623
▁In	-6.55292
▁know	-6.59146
a	-6.59312
▁We	-6.59363
▁"	-6.60399
▁S	-6.61001
▁which	-6.62682
▁were	-6.66355
▁out	-6.66745
C	-6.67581
▁one	-6.69316
▁C	-6.69817
▁been	-6.70626
in	-6.71565
or	-6.72925
▁what	-6.74116
▁their	-6.76503
▁about	-6.77178
S	-6.77992
▁This	-6.78108
▁No	-6.78178
▁up	-6.78592
;	-6.79636
▁they	-6.80455
c	-6.8057
▁but	-6.82052
▁so	-6.8234
ve	-6.8301
r	-6.84449
es	-6.85587
▁What	-6.86447
▁don	-6.87133
▁like	-6.87462
h	-6.8822
▁more	-6.88681
▁He	-6.88893
▁there	-6.90233
▁also	-6.90234
▁no	-6.90655
▁just	-6.90936
▁And	-6.93432
▁its	-6.93511
▁had	-6.94059
▁time	-6.94966
▁would	-6.9587
▁other	-6.96141
▁here	-6.96935
▁should	-6.98824
▁his	-6.9966
▁o	-7.00598
▁get	-7.01112
▁right	-7.0113
▁who	-7.01141
▁if	-7.02744
A	-7.02833
o	-7.03303
▁E	-7.03642
▁1	-7.04373
b	-7.07083
▁him	-7.07502
▁her	-7.1006
▁our	-7.10994
l	-7.12527
▁Canada	-7.13292
"	-7.13506
▁us	-7.1452
ation	-7.15162
i	-7.16251
on	-7.1731
g	-7.18188
’	-7.19432
th	-7.20006
▁when	-7.21521
le	-7.21709
▁go	-7.22206
▁work	-7.2239
an	-7.22583
▁B	-7.23016
▁P	-7.23286
▁de	-7.23973
P	-7.24372
▁need	-7.24606
▁That	-7.2472
▁over	-7.25377
▁new	-7.25529
▁them	-7.26275
▁want	-7.27218
D	-7.2759
▁now	-7.28265
▁re	-7.28894
▁may	-7.2934
▁some	-7.29513
it	-7.29718
▁than	-7.2977
▁these	-7.30202
▁any	-7.30297
B	-7.30476
p	-7.3171
▁2	-7.31996
ar	-7.33316
▁see	-7.33643
▁But	-7.33987
M	-7.34213
T	-7.34213
▁only	-7.34392
u	-7.34782
▁think	-7.35306
▁under	-7.35379
I	-7.35422
▁information	-7.35694
▁people	-7.35957
▁into	-7.36074
▁must	-7.36871
▁T	-7.37019
▁D	-7.37283
▁So	-7.38186
ic	-7.38356
ur	-7.38897
▁two	-7.40201
E	-7.4037
▁she	-7.40422
O	-7.41054
▁p	-7.41333
ion	-7.41659
▁got	-7.42838
en	-7.4339
).	-7.44143
▁take	-7.45342
▁3	-7.4537
▁Mr	-7.47683
▁Commission	-7.48092
▁could	-7.4875
▁F	-7.49185
L	-7.49261
▁make	-7.49913
▁shall	-7.50113
▁M	-7.51352
▁use	-7.51415
▁where	-7.51597
▁back	-7.5184
il	-7.52026
▁did	-7.52234
▁made	-7.52333
▁L	-7.53573
▁first	-7.5383
▁4	-7.53916
▁European	-7.54177
▁way	-7.54325
F	-7.5467
ers	-7.55078
▁good	-7.5521
▁Oh	-7.55296
▁years	-7.56322
▁those	-7.56541
▁If	-7.56878
▁how	-7.5758
el	-7.57741
▁They	-7.58054
▁such	-7.58112
▁G	-7.60234
▁between	-7.61426
able	-7.61871
us	-7.61975
▁5	-7.62725
▁very	-7.62733
▁well	-7.6297
▁c	-7.63726
▁She	-7.64256
▁For	-7.65523
▁N	-7.67535
▁There	-7.68261
ity	-7.68742
▁going	-7.6883
▁come	-7.69182
▁Well	-7.69416
▁through	-7.69559
▁support	-7.69598
▁year	-7.70342
f	-7.70555
▁19	-7.71152
▁un	-7.71222
▁6	-7.71867
G	-7.71963
H	-7.72584
▁development	-7.72658
▁W	-7.73218
▁gonna	-7.73941
ro	-7.74129
▁number	-7.74471
▁Council	-7.74879
ate	-7.75059
▁report	-7.75144
▁To	-7.75433
▁down	-7.75456
▁Committee	-7.75548
▁said	-7.75813
at	-7.75958
k	-7.76443
ive	-7.77094
▁States	-7.78608
▁used	-7.78808
ra	-7.79997
▁help	-7.80216
▁say	-7.80377
▁O	-7.80409
ment	-7.80434
to	-7.81645
U	-7.82443
▁part	-7.82642
▁All	-7.83073
▁place	-7.83076
▁“	-7.83076
id	-7.83399
▁most	-7.84092
▁after	-7.84116
▁Canadian	-7.84465
▁Re	-7.84519
ance	-7.8481
▁10	-7.85059
ch	-7.85603
ter	-7.85721
ie	-7.85802
▁Do	-7.85838
ent	-7.85988
▁before	-7.8629
▁R	-7.86599
ri	-7.86741
▁How	-7.86758
▁man	-7.87067
st	-7.8767
▁countries	-7.87796
▁H	-7.87912
▁being	-7.882
▁because	-7.88607
ry	-7.88817
▁K	-7.89018
▁tell	-7.89063
▁Article	-7.89824
▁system	-7.90114
de	-7.90345
00	-7.91464
▁7	-7.91514
▁As	-7.9178
▁Yeah	-7.92332
te	-7.92459
▁life	-7.93309
▁public	-7.94179
(	-7.94853
ce	-7.95016
▁same	-7.9503
é	-7.95041
▁per	-7.95091
▁United	-7.95109
▁b	-7.95448
▁even	-7.95753
com	-7.96342
um	-7.96977
N	-7.97018
li	-7.97629
▁much	-7.9785
▁order	-7.97916
▁both	-7.97926
▁find	-7.98321
▁following	-7.98844
▁many	-7.99108
▁day	-7.99514
▁something	-7.99527
ir	-7.99638
▁then	-7.99696
se	-7.99724
▁off	-7.9974
▁didn	-8.00203
▁case	-8.00233
▁three	-8.00382
is	-8.00411
est	-8.00716
▁really	-8.00768
▁end	-8.01472
et	-8.01787
▁look	-8.01828
▁international	-8.01965
▁too	-8.02246
▁co	-8.02311
▁Member	-8.02467
age	-8.02588
la	-8.02816
W	-8.03004
▁each	-8.03189
”	-8.04084
lo	-8.04938
ine	-8.05907
▁8	-8.06783
un	-8.07263
▁mean	-8.0756
▁still	-8.0825
▁[	-8.08527
▁national	-8.08562
▁services	-8.08662
ca	-8.08763
▁set	-8.08824
R	-8.08923
▁°	-8.08943
as	-8.08976
▁important	-8.0919
2	-8.09216
▁am	-8.09911
▁during	-8.09947
▁process	-8.09958
▁name	-8.09979
▁9	-8.10081
▁world	-8.10147
ne	-8.10572
▁long	-8.1063
▁provide	-8.10637
ol	-8.11365
▁does	-8.11453
▁last	-8.11794
▁never	-8.1205
ul	-8.1274
▁against	-8.1306
na	-8.13363
4	-8.13445
ta	-8.1345
V	-8.13543
▁little	-8.136
v	-8.13611
▁within	-8.14212
]	-8.14855
▁human	-8.15386
▁health	-8.15594
▁Why	-8.16218
per	-8.16241
▁km	-8.16329
▁country	-8.16437
▁18	-8.1645
▁Don	-8.16827
▁women	-8.17197
up	-8.17343
ci	-8.17354
pe	-8.17402
▁home	-8.17817
▁own	-8.17819
▁V	-8.18303
▁give	-8.18647
▁let	-8.18952
▁On	-8.19014
."	-8.19429
co	-8.1946
ary	-8.20181
▁e	-8.20578
),	-8.20755
▁12	-8.21007
x	-8.21366
ies	-8.21451
ma	-8.21642
www	-8.21705
▁data	-8.21994
▁current	-8.22024
▁activities	-8.22417
▁government	-8.22621
w	-8.22621
▁love	-8.22792
ge	-8.23168
op	-8.23233
▁put	-8.23251
am	-8.2375
ad	-8.23822
▁found	-8.24165
▁water	-8.24287
▁period	-8.24408
▁20	-8.24457
▁million	-8.24591
ia	-8.24695
▁project	-8.24809
▁available	-8.24823
▁why	-8.25243
▁regard	-8.25447
em	-8.25822
be	-8.25912
▁When	-8.26137
▁high	-8.26337
▁d	-8.26397
▁Act	-8.26724
▁My	-8.26861
ant	-8.26978
▁policy	-8.27023
▁better	-8.27028
▁children	-8.27248
▁President	-8.27528
▁15	-8.28569
▁11	-8.28725
▁Yes	-8.28742
3	-8.29057
ut	-8.29305
▁without	-8.29332
▁different	-8.29563
▁Government	-8.29785
▁level	-8.29825
▁car	-8.29856
▁since	-8.2999
▁Hey	-8.30241
▁including	-8.30295
▁point	-8.3032
K	-8.30529
▁Come	-8.30854
▁service	-8.30922
▁m	-8.31017
▁Let	-8.3115
the	-8.31404
1	-8.31435
▁At	-8.31439
▁Now	-8.31586
▁market	-8.3197
z	-8.32054
▁De	-8.32806
▁These	-8.33177
ated	-8.33255
▁around	-8.33416
ist	-8.33462
▁Source	-8.33515
▁thing	-8.34006
5	-8.34067
.1	-8.34169
▁again	-8.34178
▁New	-8.3431
▁doing	-8.34346
▁Nations	-8.34354
▁care	-8.34487
0	-8.35328
▁economic	-8.35536
▁State	-8.35733
▁st	-8.35815
man	-8.35891
▁possible	-8.35939
▁research	-8.36124
▁rights	-8.36639
▁provided	-8.36685
▁General	-8.36832
▁social	-8.3698
▁God	-8.37274
▁issues	-8.37629
ting	-8.37662
▁great	-8.3769
me	-8.37747
▁control	-8.3822
▁An	-8.38443
▁pre	-8.38512
▁call	-8.38555
▁every	-8.38585
▁Okay	-8.38676
▁Just	-8.38938
▁area	-8.39199
▁t	-8.39206
▁14	-8.39262
▁decision	-8.40234
▁meeting	-8.40472
ty	-8.40745
▁course	-8.40782
▁law	-8.40971
and	-8.4103
vi	-8.41251
▁further	-8.41489
▁result	-8.41548
▁real	-8.41741
▁while	-8.41784
▁respect	-8.42228
▁f	-8.42236
▁believe	-8.42667
im	-8.42749
▁best	-8.42777
▁ensure	-8.42794
▁non	-8.42935
mo	-8.43157
▁working	-8.43386
ck	-8.43764
▁Where	-8.43849
▁Be	-8.43863
▁business	-8.4427
ous	-8.44455
ian	-8.44558
7	-8.44638
▁community	-8.44651
▁financial	-8.44651
▁present	-8.4488
▁always	-8.44919
▁management	-8.44929
ness	-8.44993
▁situation	-8.45188
▁second	-8.45239
son	-8.45376
tic	-8.45492
▁'	-8.45533
▁members	-8.45666
6	-8.45774
▁con	-8.46114
://	-8.46276
▁program	-8.46376
Y	-8.46494
9	-8.46576
▁group	-8.46577
▁another	-8.46838
ors	-8.47133
▁U	-8.4742
▁away	-8.47539
▁l	-8.47721
▁talk	-8.48192
▁With	-8.48491
▁change	-8.49007
▁family	-8.49029
▁anything	-8.49031
▁already	-8.49309
▁means	-8.49599
▁St	-8.49843
▁done	-8.49861
▁thought	-8.49869
▁Are	-8.50462
▁today	-8.50529
▁2006	-8.50597
▁La	-8.5068
▁Can	-8.50809
no	-8.51215
▁13	-8.51271
▁kind	-8.51295
▁Le	-8.51466
▁Who	-8.51603
▁leave	-8.51866
▁view	-8.51928
▁2004	-8.51947
▁next	-8.52155
ot	-8.52177
▁measures	-8.5219
ial	-8.52192
▁access	-8.5222
▁June	-8.52459
▁16	-8.52654
▁Community	-8.52733
▁http	-8.52808
go	-8.53023
▁Look	-8.53043
min	-8.53136
▁?	-8.53179
▁sure	-8.53187
▁security	-8.53344
EC	-8.53666
▁Not	-8.53963
▁might	-8.54508
▁given	-8.54785
▁However	-8.54807
▁taken	-8.54808
▁2005	-8.54813
▁resolution	-8.55131
con	-8.55179
▁action	-8.5526
▁plan	-8.55614
▁areas	-8.55756
▁night	-8.55846
▁30	-8.55883
▁money	-8.56283
▁December	-8.56297
▁full	-8.56352
ach	-8.56522
▁:	-8.5681
▁May	-8.56855
▁–	-8.5705
▁results	-8.5742
▁Ma	-8.57467
ling	-8.57535
▁review	-8.57964
▁Minister	-8.581
ow	-8.58263
▁old	-8.58284
▁2007	-8.58347
ho	-8.58452
▁products	-8.58559
▁please	-8.58635
▁Health	-8.58715
▁local	-8.58717
ver	-8.58847
▁fact	-8.58908
▁J	-8.59172
▁feel	-8.59637
▁example	-8.59643
▁few	-8.59653
▁role	-8.59715
▁Your	-8.59752
▁house	-8.59834
▁okay	-8.59955
▁increase	-8.60192
▁International	-8.60301
▁17	-8.60383
ab	-8.60545
▁sorry	-8.60895
ig	-8.60899
▁training	-8.61081
▁Europe	-8.61144
▁based	-8.61153
▁future	-8.6121
▁days	-8.61366
ha	-8.61633
▁required	-8.61668
▁risk	-8.61775
▁la	-8.61796
▁Report	-8.61864
▁session	-8.61899
▁One	-8.62113
▁person	-8.62199
ph	-8.62428
▁together	-8.62482
▁line	-8.62632
▁Thank	-8.62691
▁paragraph	-8.62806
▁meet	-8.62806
▁National	-8.62828
▁question	-8.63025
▁keep	-8.63126
▁Union	-8.63148
▁show	-8.6335
▁Go	-8.63468
mi	-8.63647
▁things	-8.63707
▁ever	-8.63789
▁less	-8.63992
▁Regulation	-8.64025
▁particular	-8.64155
ally	-8.64232
▁EU	-8.64272
▁basis	-8.64422
▁left	-8.64427
ite	-8.64429
▁implementation	-8.64448
ex	-8.64673
▁2003	-8.64796
▁general	-8.64811
▁total	-8.64956
▁pay	-8.65397
▁sector	-8.65443
ating	-8.65459
ical	-8.65705
▁become	-8.66073
ted	-8.66118
out	-8.66259
▁among	-8.66411
▁live	-8.66429
▁head	-8.66671
▁land	-8.66781
▁start	-8.66909
▁hand	-8.67018
▁told	-8.67079
ag	-8.6719
▁include	-8.67418
▁Ha	-8.67435
di	-8.67445
▁March	-8.67495
▁Good	-8.67749
▁2002	-8.67942
▁list	-8.68079
▁di	-8.68168
▁key	-8.68213
ard	-8.68505
▁Mar	-8.68539
▁25	-8.68564
line	-8.68863
▁necessary	-8.69096
▁trade	-8.69154
▁understand	-8.69473
▁application	-8.69553
▁five	-8.70215
bo	-8.70264
▁matter	-8.70267
▁legal	-8.70337
▁lot	-8.70434
ru	-8.70771
▁stay	-8.70831
ton	-8.70915
▁Co	-8.70916
▁dis	-8.71038
▁came	-8.7113
▁needs	-8.71166
▁subject	-8.71169
▁Dr	-8.7121
▁large	-8.71353
▁account	-8.71379
▁Al	-8.71474
tion	-8.71536
lu	-8.71853
▁Get	-8.71877
▁production	-8.71935
▁pro	-8.72028
▁whether	-8.72223
iv	-8.72229
▁light	-8.72253
▁resources	-8.72431
▁Group	-8.72575
_	-8.72597
▁date	-8.72629
▁conditions	-8.72648
ish	-8.72822
▁therefore	-8.7293
AL	-8.73303
▁sp	-8.73339
▁sub	-8.7334
▁free	-8.7345
▁approach	-8.73528
▁school	-8.73594
ized	-8.73643
less	-8.73944
▁Development	-8.7401
▁Parliament	-8.74029
The	-8.74077
▁months	-8.74302
▁special	-8.74346
▁section	-8.74369
sh	-8.74393
▁address	-8.74508
▁room	-8.74557
▁2000	-8.74628
▁problem	-8.74656
▁four	-8.74678
▁impact	-8.7473
▁won	-8.74774
▁cost	-8.7479
▁population	-8.75085
▁Mo	-8.75207
▁Con	-8.75294
--	-8.75394
▁political	-8.75448
▁open	-8.75462
▁power	-8.75476
ap	-8.75523
ac	-8.75646
▁specific	-8.75895
▁men	-8.76099
va	-8.7621
▁whole	-8.77072
▁0	-8.77243
▁least	-8.77295
ER	-8.77481
po	-8.77491
▁2008	-8.77519
▁until	-8.77659
▁cannot	-8.77711
▁Ro	-8.77795
▁small	-8.77833
▁face	-8.77837
▁appropriate	-8.78031
20	-8.78182
ven	-8.7838
10	-8.78395
▁♪	-8.78425
▁issue	-8.78475
▁21	-8.78605
▁check	-8.78781
▁Board	-8.78794
▁common	-8.78809
8	-8.78832
▁continue	-8.78841
om	-8.78923
les	-8.78964
▁team	-8.79204
▁related	-8.79325
▁education	-8.79353
▁rate	-8.79503
▁July	-8.79657
ti	-8.79746
mon	-8.7975
▁party	-8.7977
pa	-8.79855
ba	-8.8004
bi	-8.80266
▁air	-8.80266
­	-8.80299
▁clear	-8.80377
▁coming	-8.80398
▁seen	-8.80468
ang	-8.80541
▁Work	-8.80685
▁ch	-8.80777
▁field	-8.80846
.2	-8.8118
▁week	-8.81268
▁site	-8.81381
▁Me	-8.81429
▁THE	-8.81455
▁position	-8.8146
▁Di	-8.81473
mb	-8.81616
▁took	-8.81824
▁considered	-8.81833
▁child	-8.8184
▁groups	-8.81902
▁Did	-8.82019
rs	-8.82138
▁nothing	-8.82246
▁hard	-8.82248
ization	-8.82252
▁ex	-8.82275
▁Or	-8.8231
▁(1)	-8.82315
▁product	-8.82488
ga	-8.82531
he	-8.82646
▁yet	-8.82701
▁able	-8.82765
▁...	-8.82784
▁Ra	-8.828
▁post	-8.82809
▁deal	-8.82861
▁i	-8.8293
▁company	-8.83013
▁called	-8.83432
▁UN	-8.83517
vo	-8.8353
▁cent	-8.8366
▁amount	-8.84051
▁guy	-8.84057
▁form	-8.84461
do	-8.84488
▁draft	-8.846
▁com	-8.8463
AN	-8.84781
▁major	-8.84951
▁visit	-8.84974
▁Please	-8.84997
▁staff	-8.84997
▁First	-8.84997
▁24	-8.8516
▁Department	-8.85398
▁everything	-8.85399
▁Court	-8.854
▁quality	-8.85527
▁body	-8.85539
▁wanted	-8.8561
ence	-8.85619
▁22	-8.85654
▁value	-8.8571
▁turn	-8.85745
▁interest	-8.85847
▁requirements	-8.85879
▁big	-8.8589
ip	-8.86093
▁experience	-8.86223
act	-8.86245
▁established	-8.86578
▁play	-8.87009
▁Sa	-8.87175
we	-8.87328
▁Assembly	-8.87431
▁Convention	-8.87431
▁cases	-8.87556
▁certain	-8.87669
▁later	-8.87714
▁g	-8.8776
▁study	-8.87843
▁above	-8.87844
▁having	-8.87844
▁short	-8.87845
▁contract	-8.87932
ni	-8.88288
▁held	-8.88362
▁en	-8.88418
qui	-8.88526
▁r	-8.88656
▁document	-8.88672
▁September	-8.88704
▁31	-8.88781
ect	-8.88843
▁side	-8.88943
ide	-8.89121
▁November	-8.89128
▁mother	-8.89517
ten	-8.89928
ions	-8.90132
au	-8.90166
▁received	-8.90168
▁programme	-8.90232
▁various	-8.90348
▁industry	-8.90381
▁tax	-8.90609
tor	-8.90615
tro	-8.90648
▁Office	-8.9068
▁January	-8.91223
▁inter	-8.91228
▁projects	-8.9124
▁past	-8.91284
▁member	-8.91379
tra	-8.91391
J	-8.91684
▁organizations	-8.91746
ise	-8.91827
▁regional	-8.91952
▁page	-8.91954
▁v	-8.91986
▁Security	-8.92054
▁w	-8.92061
▁age	-8.92136
ud	-8.92276
▁taking	-8.92488
▁proposed	-8.92581
▁close	-8.92588
▁environment	-8.92785
▁bad	-8.92811
▁enough	-8.92922
▁mind	-8.92924
▁France	-8.92937
▁father	-8.93359
▁protection	-8.934
.3	-8.93409
▁force	-8.93591
IS	-8.93703
ual	-8.93901
▁apply	-8.93902
▁ask	-8.94063
▁October	-8.94228
▁vote	-8.94254
▁friend	-8.94454
▁accord	-8.94456
▁making	-8.9447
os	-8.94496
▁—	-8.94537
IC	-8.94603
▁%	-8.94664
▁April	-8.94668
01	-8.94692
▁guys	-8.94826
nd	-8.95081
▁wrong	-8.95111
▁contact	-8.95111
▁global	-8.95111
ative	-8.95275
ron	-8.95445
▁World	-8.95555
▁stop	-8.95599
▁job	-8.95808
▁heart	-8.95862
▁return	-8.95988
▁answer	-8.96002
▁once	-8.96126
▁region	-8.9649
▁costs	-8.96531
ight	-8.96739
▁move	-8.96974
▁went	-8.97118
▁23	-8.97165
▁performance	-8.97367
▁act	-8.97445
▁Ho	-8.97457
ction	-8.97565
▁police	-8.97808
▁doesn	-8.97859
▁building	-8.97896
▁far	-8.9792
50	-8.98005
▁bring	-8.98096
▁effective	-8.98112
▁agreement	-8.98163
▁death	-8.98307
▁hope	-8.98359
▁Of	-8.98373
▁young	-8.98531
▁Public	-8.98708
▁progress	-8.98723
▁food	-8.98822
▁OF	-8.98853
▁hold	-8.98916
▁sir	-8.98957
▁son	-8.98969
▁test	-8.99
end	-8.99042
▁design	-8.99169
▁Plan	-8.99244
11	-8.99332
▁idea	-8.99348
▁Man	-8.99512
▁individual	-8.99571
▁reflect	-8.99647
▁authorities	-8.99652
▁read	-8.9968
▁however	-8.9969
▁ma	-8.99703
▁someone	-8.99714
▁treatment	-8.9974
▁heard	-8.99773
▁request	-9.00057
.5	-9.00101
▁several	-9.00112
▁Because	-9.00119
▁language	-9.00144
ger	-9.00285
▁provides	-9.0029
▁consider	-9.00387
▁due	-9.00408
ub	-9.00751
▁Some	-9.00764
▁addition	-9.00773
▁Lo	-9.00786
▁Car	-9.00789
▁main	-9.00897
▁Mi	-9.00963
,000	-9.01039
▁personal	-9.01046
▁hear	-9.01057
land	-9.01117
▁state	-9.01137
▁table	-9.01246
▁provisions	-9.01383
▁budget	-9.01492
way	-9.01501
▁cooperation	-9.01526
▁mo	-9.01649
▁environmental	-9.01665
15	-9.01682
▁run	-9.01747
▁Then	-9.01818
▁Human	-9.02
▁lead	-9.02065
▁war	-9.02108
▁increased	-9.02109
▁See	-9.02168
▁wait	-9.02325
our	-9.02385
▁terms	-9.02394
▁_	-9.02443
▁2001	-9.02565
▁fine	-9.02601
.4	-9.02818
▁office	-9.02886
one	-9.02895
▁included	-9.03022
▁systems	-9.03116
ism	-9.03262
ff	-9.03325
ner	-9.03406
▁federal	-9.0343
▁minutes	-9.03449
▁Ba	-9.03493
▁trying	-9.0354
▁hours	-9.03599
▁>	-9.03611
▁reports	-9.03793
▁blood	-9.03913
▁Other	-9.03935
ory	-9.04155
ator	-9.04395
▁Secretary	-9.04399
▁remember	-9.04406
▁saw	-9.04469
▁His	-9.04534
▁significant	-9.04662
▁happened	-9.04829
▁focus	-9.04914
▁assessment	-9.04919
▁Here	-9.05082
gan	-9.05162
▁wish	-9.05279
▁Program	-9.0529
▁Bo	-9.05336
▁technical	-9.05376
▁Agency	-9.05433
▁questions	-9.05528
ations	-9.05592
▁met	-9.05752
▁looking	-9.05824
▁response	-9.05869
▁energy	-9.05917
ler	-9.06025
bu	-9.06125
▁private	-9.06421
▁final	-9.06596
▁city	-9.06619
▁text	-9.0685
▁French	-9.06861
▁capital	-9.06872
ING	-9.0691
▁third	-9.06971
gi	-9.0705
▁adopted	-9.07067
▁Our	-9.07078
lic	-9.07086
▁developed	-9.07254
pi	-9.07375
ier	-9.074
▁establish	-9.07422
▁dead	-9.07513
▁potential	-9.07865
▁27	-9.08015
▁girl	-9.08075
▁bar	-9.08295
▁changes	-9.08297
▁asked	-9.08398
tain	-9.0841
▁kill	-9.08455
▁below	-9.086
ful	-9.08778
gen	-9.08872
▁Information	-9.08877
▁After	-9.08877
▁1999	-9.09077
org	-9.09119
▁type	-9.09126
▁cut	-9.09264
▁prevent	-9.09327
fi	-9.09364
▁upon	-9.09654
▁share	-9.09668
ak	-9.09771
▁opinion	-9.09899
▁funding	-9.10129
io	-9.10175
▁happen	-9.10341
▁discussion	-9.10491
▁across	-9.10517
▁effect	-9.10678
▁By	-9.10683
▁capacity	-9.10933
▁responsible	-9.10933
▁alone	-9.10944
▁Su	-9.10954
▁model	-9.11049
▁levels	-9.11132
AR	-9.11386
▁framework	-9.11454
fa	-9.11524
▁involved	-9.11545
▁benefits	-9.11632
ward	-9.11681
ED	-9.11694
▁book	-9.11819
oc	-9.11831
▁file	-9.11992
▁para	-9.1204
▁allow	-9.12126
men	-9.12135
▁low	-9.122
ick	-9.12229
ile	-9.12275
▁improve	-9.12485
▁communities	-9.12504
AT	-9.12533
▁additional	-9.12821
ng	-9.12949
part	-9.13003
▁Com	-9.13006
▁growth	-9.1306
▁try	-9.1308
▁getting	-9.13264
▁Li	-9.13395
▁speak	-9.13442
▁nice	-9.13598
30	-9.13601
ES	-9.1376
ities	-9.13797
pl	-9.14046
▁Republic	-9.141
▁either	-9.141
▁activity	-9.14104
▁employment	-9.14105
▁export	-9.14113
▁ago	-9.14312
▁range	-9.14439
▁morning	-9.14637
ition	-9.14681
ever	-9.14688
pp	-9.14727
▁parties	-9.14748
▁Ex	-9.14813
che	-9.1482
▁persons	-9.14859
ign	-9.14904
pro	-9.14923
▁target	-9.15178
▁Fund	-9.15221
▁developing	-9.15241
ified	-9.15353
▁talking	-9.15367
▁along	-9.15651
ke	-9.15665
▁policies	-9.15721
▁referred	-9.15739
▁&	-9.15864
▁fall	-9.16031
▁fire	-9.16127
▁Rights	-9.16152
▁Y	-9.16159
▁rules	-9.16193
▁evidence	-9.16268
▁near	-9.16299
ral	-9.16388
▁bank	-9.16436
▁institutions	-9.16734
by	-9.16779
▁else	-9.16817
▁woman	-9.16817
▁six	-9.16818
▁often	-9.16861
▁le	-9.1687
▁moment	-9.1691
▁Pre	-9.1692
▁hell	-9.16993
▁Hi	-9.17152
for	-9.17275
▁Conference	-9.17376
ah	-9.17386
▁assistance	-9.17396
▁reported	-9.17605
▁soon	-9.17638
▁difficult	-9.17896
▁analysis	-9.17932
▁paper	-9.1794
▁safety	-9.17943
▁strong	-9.18017
19	-9.18203
▁Vi	-9.18389
▁Qu	-9.18474
▁court	-9.18487
▁known	-9.18538
▁record	-9.18632
▁cause	-9.18778
▁late	-9.1879
AS	-9.18795
ice	-9.18875
IN	-9.18884
▁figure	-9.19101
▁proposal	-9.19105
▁Maybe	-9.19166
ec	-9.19363
▁Po	-9.19466
qu	-9.19488
uc	-9.19524
▁sign	-9.1956
▁/	-9.19609
▁audit	-9.19622
ki	-9.19625
▁game	-9.1963
uch	-9.19637
▁actually	-9.19717
General	-9.19825
▁average	-9.2003
▁half	-9.20185
nt	-9.202
der	-9.20493
5%	-9.20604
▁technology	-9.2075
▁Annex	-9.2075
▁stage	-9.20829
▁Ne	-9.20854
▁price	-9.20875
▁Right	-9.20921
▁bit	-9.20975
▁living	-9.21325
▁single	-9.21327
▁structure	-9.21392
▁early	-9.21398
▁purpose	-9.21466
▁Pro	-9.21517
ure	-9.21647
▁needed	-9.21714
if	-9.21871
▁po	-9.21877
▁knowledge	-9.21903
▁knew	-9.21906
▁August	-9.21965
▁imp	-9.21975
▁programs	-9.22007
▁Service	-9.22066
▁expected	-9.22201
▁function	-9.22219
▁concerned	-9.22244
ture	-9.22313
▁develop	-9.22479
ee	-9.22596
ka	-9.22734
▁ready	-9.22774
▁Table	-9.22809
▁Take	-9.22852
▁February	-9.23127
▁standards	-9.23129
▁thank	-9.23151
▁cross	-9.23155
art	-9.23212
▁ground	-9.23229
OR	-9.23398
ric	-9.23424
▁saying	-9.23436
▁word	-9.23489
▁article	-9.23498
▁promote	-9.23658
▁investment	-9.23695
▁n	-9.23715
▁annual	-9.23728
RE	-9.23755
▁problems	-9.23764
▁income	-9.2378
▁forward	-9.23795
ster	-9.23904
▁equipment	-9.24249
▁demand	-9.2425
ld	-9.24256
time	-9.244
▁26	-9.24532
ina	-9.24555
▁media	-9.24577
▁ro	-9.24703
▁transport	-9.24773
▁Decision	-9.24844
▁society	-9.24844
▁submitted	-9.24856
▁efforts	-9.24974
cent	-9.25053
ack	-9.2512
od	-9.25237
dy	-9.25286
ious	-9.25304
05	-9.25312
of	-9.25313
▁particularly	-9.25332
▁higher	-9.25371
▁Centre	-9.25445
▁Z	-9.25484
▁reason	-9.25552
ring	-9.25557
▁1.	-9.25641
▁offer	-9.25732
▁Na	-9.25743
▁isn	-9.2576
▁wasn	-9.25819
▁28	-9.25827
gg	-9.25909
ability	-9.26019
▁Agreement	-9.26046
▁Research	-9.26046
▁relevant	-9.26046
X	-9.26066
▁US	-9.2627
▁trust	-9.26672
red	-9.26694
▁outside	-9.26795
▁Uh	-9.26885
▁event	-9.26983
my	-9.27213
▁yourself	-9.27261
▁legislation	-9.27882
▁longer	-9.27894
▁reference	-9.27917
▁High	-9.27921
▁protect	-9.27964
amp	-9.28036
▁50	-9.28126
▁limit	-9.28375
▁100	-9.28417
▁Bank	-9.28493
▁From	-9.28505
han	-9.2856
ship	-9.28589
▁direct	-9.28686
▁code	-9.28889
▁benefit	-9.28945
▁Management	-9.29113
▁relationship	-9.29118
▁(2)	-9.29367
▁door	-9.29439
▁recent	-9.29577
▁agenda	-9.29738
):	-9.29803
▁goods	-9.29847
ult	-9.29854
rn	-9.29977
▁sound	-9.29977
ium	-9.29998
▁organization	-9.30019
lan	-9.30115
▁Ch	-9.30116
j	-9.30359
▁Social	-9.30368
▁lost	-9.30407
br	-9.30417
▁die	-9.30479
▁cover	-9.3059
▁phone	-9.30682
▁sc	-9.30684
ef	-9.30713
▁pass	-9.3074
ize	-9.30938
▁sh	-9.30947
▁Ontario	-9.31
port	-9.31015
▁professional	-9.31041
▁maybe	-9.31196
ov	-9.31291
▁*	-9.3141
▁Jo	-9.31445
▁step	-9.31525
side	-9.31584
▁documents	-9.3163
▁evaluation	-9.31642
▁Ja	-9.31701
▁America	-9.31806
▁$	-9.31971
ev	-9.32
▁2009	-9.32058
▁procedure	-9.32191
▁ten	-9.32263
▁brought	-9.32278
▁aid	-9.32384
▁sent	-9.32417
▁road	-9.3251
13	-9.32768
▁send	-9.32779
▁department	-9.32832
que	-9.32894
▁ha	-9.32902
▁disease	-9.32923
▁opportunity	-9.32923
▁self	-9.3293
▁$1	-9.33006
▁break	-9.33033
03	-9.33064
▁credit	-9.33083
term	-9.3321
▁2010	-9.33234
▁rates	-9.33518
cu	-9.33519
▁standard	-9.33522
▁Directive	-9.33573
▁basic	-9.33576
▁k	-9.33656
▁vi	-9.33675
▁listen	-9.33691
▁rest	-9.33694
da	-9.33725
ern	-9.33742
▁friends	-9.33876
▁du	-9.33877
ug	-9.34118
▁official	-9.34174
▁item	-9.34181
▁civil	-9.34204
▁rather	-9.34231
▁top	-9.34252
▁letter	-9.34366
▁follow	-9.34391
▁consideration	-9.34434
▁town	-9.34501
▁IN	-9.34521
▁Fa	-9.34558
▁South	-9.34674
▁link	-9.34676
▁bo	-9.34678
ue	-9.34724
ification	-9.3477
▁contribution	-9.34883
▁itself	-9.34885
▁clean	-9.34885
▁property	-9.34891
▁nature	-9.34891
▁Part	-9.34895
▁strengthen	-9.34911
AC	-9.3493
ments	-9.34942
▁true	-9.34971
vis	-9.35101
ny	-9.3515
led	-9.3522
Q	-9.35289
▁concerning	-9.35437
▁reporting	-9.3546
▁companies	-9.35546
▁similar	-9.35546
▁centre	-9.35547
ax	-9.3559
▁reform	-9.35603
-1	-9.35604
▁identified	-9.3561
▁conflict	-9.3563
▁gave	-9.35633
▁AND	-9.3566
▁says	-9.35878
.6	-9.35921
▁greater	-9.3607
▁makes	-9.36075
▁Africa	-9.36078
lock	-9.36204
▁Special	-9.36213
▁Treaty	-9.36213
▁especially	-9.36213
▁John	-9.36263
▁employees	-9.36336
▁ship	-9.36434
fe	-9.36571
av	-9.36765
all	-9.36804
▁peace	-9.36806
▁killed	-9.3682
▁Economic	-9.36884
▁crime	-9.36886
▁though	-9.36895
ound	-9.36992
▁published	-9.37013
▁reduce	-9.3717
▁receive	-9.37172
▁Bar	-9.37347
LE	-9.37366
uck	-9.37477
see	-9.3754
▁probably	-9.3756
▁walk	-9.37562
▁uh	-9.37567
▁baby	-9.37571
▁complete	-9.37584
ft	-9.37585
mer	-9.37666
▁objectives	-9.37799
▁eat	-9.3784
ox	-9.37847
▁Ca	-9.37877
▁Date	-9.38139
val	-9.38204
▁identify	-9.3824
▁planning	-9.38243
▁Section	-9.38251
ute	-9.3838
▁front	-9.38397
▁space	-9.38449
▁!	-9.38574
▁2.	-9.38581
▁29	-9.38787
hi	-9.38865
▁natural	-9.38925
▁studies	-9.38925
▁pretty	-9.38925
▁internal	-9.38928
lt	-9.38945
▁ba	-9.38947
▁month	-9.38986
▁contribute	-9.3913
str	-9.39207
ai	-9.39304
ink	-9.3932
▁serious	-9.39353
▁pe	-9.39374
▁term	-9.394
▁Since	-9.39615
▁doctor	-9.39615
▁message	-9.39616
▁content	-9.39616
▁North	-9.39639
▁paid	-9.39639
▁Like	-9.39642
▁parents	-9.39707
ass	-9.39725
▁representative	-9.3976
▁gas	-9.39876
wi	-9.39931
▁remain	-9.40039
ep	-9.40059
▁Har	-9.40135
▁programmes	-9.40214
▁happy	-9.40309
▁culture	-9.40309
▁website	-9.40309
▁medical	-9.40311
▁II	-9.40374
▁(1	-9.4061
▁mission	-9.40926
▁beginning	-9.41009
▁debate	-9.41011
▁Have	-9.41031
▁plans	-9.41091
fer	-9.41121
ants	-9.41296
ade	-9.41375
.7	-9.41393
▁words	-9.41468
pt	-9.41473
IT	-9.41574
wa	-9.41714
▁authority	-9.41751
▁fight	-9.41796
▁Pa	-9.41842
▁Any	-9.41856
▁Even	-9.41887
▁Air	-9.41993
▁2011	-9.4204
ries	-9.42055
▁existing	-9.42085
▁Ka	-9.42115
▁status	-9.42164
▁presented	-9.42215
und	-9.42341
▁trans	-9.42414
▁transfer	-9.42419
12	-9.42487
▁Th	-9.42494
▁j	-9.42523
ber	-9.42531
▁points	-9.42534
▁lie	-9.42545
25	-9.42573
mm	-9.42889
▁station	-9.42943
year	-9.42943
▁limited	-9.42951
▁purposes	-9.42961
based	-9.42961
▁EC	-9.43077
▁guess	-9.43137
▁participation	-9.43159
▁fully	-9.432
▁recommendations	-9.4325
▁version	-9.43282
▁prepared	-9.43297
17	-9.43345
▁affect	-9.43395
".	-9.43455
▁create	-9.43467
▁Ga	-9.43504
▁boy	-9.4366
▁success	-9.43689
▁original	-9.43775
▁picture	-9.43855
▁easy	-9.43856
▁sense	-9.43856
▁foreign	-9.43858
▁brother	-9.43858
▁1998	-9.43897
/2	-9.43908
▁others	-9.4393
▁pick	-9.43941
▁regions	-9.44133
▁practice	-9.44151
▁enter	-9.44207
▁Ri	-9.44221
▁monitoring	-9.44228
▁partners	-9.44311
▁operations	-9.44443
RA	-9.44452
▁1,	-9.44453
▁sea	-9.44493
▁hit	-9.44523
▁essential	-9.4458
▁responsibility	-9.4458
▁British	-9.4458
▁exchange	-9.44582
▁et	-9.44614
▁committee	-9.44624
▁lower	-9.44885
▁h	-9.44911
▁notice	-9.44929
▁learn	-9.4493
▁mine	-9.44992
og	-9.45024
cl	-9.45039
▁Services	-9.45106
&	-9.45117
▁travel	-9.45294
▁almost	-9.4531
▁violence	-9.4531
▁wife	-9.4531
▁carried	-9.45311
ord	-9.45329
▁card	-9.45397
▁poor	-9.45461
▁Gr	-9.4555
▁material	-9.45662
▁sa	-9.45776
▁sleep	-9.46045
▁choice	-9.46045
▁history	-9.46124
▁agreements	-9.46248
▁directly	-9.46362
▁depend	-9.46435
40	-9.46493
cr	-9.46512
▁times	-9.46588
▁anti	-9.46599
▁board	-9.4662
den	-9.46686
▁Organization	-9.46786
▁towards	-9.46868
▁cultural	-9.46956
tri	-9.4719
▁X	-9.47205
cy	-9.47241
▁add	-9.47306
▁Dur	-9.47352
0,000	-9.47444
▁Pe	-9.47528
▁species	-9.47532
▁Policy	-9.47532
▁yeah	-9.47535
▁buy	-9.47536
pos	-9.4755
▁University	-9.47554
▁safe	-9.47575
▁stand	-9.47678
SC	-9.47712
▁thinking	-9.47732
▁initiatives	-9.47745
▁gotta	-9.47769
▁Her	-9.47806
▁gr	-9.48054
▁drive	-9.48054
ct	-9.48162
BAR	-9.48189
▁American	-9.48271
▁Project	-9.48284
▁providing	-9.48284
▁Whil	-9.48321
▁Wait	-9.48324
▁according	-9.48376
day	-9.4847
▁maintain	-9.48596
▁network	-9.48749
▁El	-9.48834
▁workers	-9.4886
14	-9.48928
▁designed	-9.49037
▁criminal	-9.49042
▁military	-9.49042
▁positive	-9.49042
▁attention	-9.49042
▁couple	-9.49042
▁labour	-9.49046
▁pressure	-9.4905
▁importance	-9.49077
▁mark	-9.49083
▁thus	-9.49092
▁oil	-9.49151
ay	-9.4918
▁decided	-9.49263
▁War	-9.49306
cc	-9.49369
ze	-9.49403
▁claim	-9.49472
▁base	-9.49532
▁previous	-9.49538
18	-9.49553
▁active	-9.4961
za	-9.49637
ose	-9.4965
04	-9.49718
▁enjoy	-9.49805
▁applied	-9.49805
▁location	-9.49806
▁partnership	-9.49813
▁hi	-9.49822
08	-9.49868
▁RE	-9.49882
▁shit	-9.49895
▁wouldn	-9.49901
▁Programme	-9.4994
▁bi	-9.50122
▁class	-9.5018
▁art	-9.50446
▁According	-9.50574
▁Education	-9.50574
▁People	-9.50574
▁wanna	-9.50575
▁sex	-9.50662
▁approved	-9.50669
▁Sha	-9.50817
▁40	-9.50845
fo	-9.50969
07	-9.51032
▁reach	-9.51169
fin	-9.51174
ATION	-9.51197
EN	-9.51236
▁rec	-9.51347
▁Affairs	-9.5135
▁opportunities	-9.5135
▁attack	-9.51352
over	-9.51404
▁fuck	-9.51501
▁Law	-9.51545
▁concern	-9.51598
▁2012	-9.51636
98	-9.51656
ging	-9.51677
row	-9.51748
▁grant	-9.51773
ome	-9.51817
ath	-9.51904
▁kid	-9.51985
▁decisions	-9.52088
▁commercial	-9.52131
▁economy	-9.52131
▁behind	-9.52131
▁survey	-9.52131
▁appeal	-9.52131
RI	-9.52157
▁se	-9.52159
▁everyone	-9.52169
her	-9.52175
▁OK	-9.52271
ey	-9.52308
lar	-9.52323
*	-9.52369
▁seem	-9.52407
press	-9.5243
rate	-9.52503
▁3.	-9.52509
60	-9.52593
▁condition	-9.52756
▁Action	-9.52813
▁couldn	-9.52924
▁lack	-9.53002
▁started	-9.53231
▁events	-9.53383
▁haven	-9.53477
ley	-9.5377
CE	-9.53835
ST	-9.53958
▁materials	-9.54128
lin	-9.54297
▁themselves	-9.54512
▁myself	-9.54512
▁Number	-9.5453
use	-9.54533
▁Two	-9.54557
▁refer	-9.5456
▁eyes	-9.54565
ology	-9.54759
02	-9.54777
▁includes	-9.55213
▁assist	-9.55255
▁competition	-9.55318
▁strategy	-9.55318
▁Women	-9.55319
▁located	-9.55319
▁multi	-9.55321
▁investigation	-9.55324
▁distribution	-9.55336
▁billion	-9.55372
▁Am	-9.55438
▁flow	-9.55442
▁fair	-9.55461
▁ho	-9.55491
ily	-9.5553
▁effects	-9.55652
▁agreed	-9.55659
▁conduct	-9.55686
▁fun	-9.55708
ther	-9.55907
▁Se	-9.55951
ET	-9.56043
▁Director	-9.56089
▁promise	-9.56135
▁tonight	-9.56154
ins	-9.56192
▁Will	-9.56275
tin	-9.56316
09	-9.56347
▁factors	-9.56399
TA	-9.56425
▁comes	-9.56564
▁Gu	-9.56743
▁fucking	-9.56818
▁engine	-9.56951
int	-9.56954
▁search	-9.56958
lia	-9.56992
▁Aboriginal	-9.57001
▁procedures	-9.57107
▁successful	-9.57141
▁gone	-9.57305
off	-9.57369
▁determine	-9.57388
istic	-9.5741
▁hands	-9.57432
▁Ju	-9.57539
ail	-9.57605
▁seek	-9.5771
3)	-9.57756
▁criteria	-9.57778
▁task	-9.57779
▁domestic	-9.57783
▁Internet	-9.57784
▁balance	-9.57795
▁1996	-9.57818
chi	-9.57825
▁chance	-9.57864
▁Lu	-9.57877
▁primary	-9.57903
▁continued	-9.57924
ker	-9.57944
▁Per	-9.58035
▁wind	-9.58122
ire	-9.58143
06	-9.5817
ili	-9.58379
▁(19	-9.58389
▁noted	-9.58402
▁exercise	-9.58407
▁likely	-9.58416
▁--	-9.58514
ble	-9.58555
▁Un	-9.58613
▁Hello	-9.58613
▁image	-9.58642
PP	-9.58675
▁watch	-9.58794
▁mass	-9.58821
▁concerns	-9.58828
▁African	-9.5887
▁cons	-9.58952
);	-9.59112
▁save	-9.59181
▁fish	-9.59233
form	-9.59279
▁author	-9.59357
▁proposals	-9.59362
16	-9.59404
▁administrative	-9.59451
▁black	-9.59451
▁became	-9.59452
▁inside	-9.5948
pri	-9.59657
ular	-9.5968
▁source	-9.59688
▁import	-9.59784
In	-9.59826
▁completed	-9.59935
nch	-9.59952
▁count	-9.60061
▁understanding	-9.60224
▁tomorrow	-9.60299
▁seven	-9.60331
▁1997	-9.60339
▁1995	-9.60343
▁anyone	-9.60422
▁statement	-9.60447
net	-9.60514
EEC	-9.60579
▁patients	-9.60633
▁Commissioner	-9.60677
▁Sub	-9.60688
▁traditional	-9.60715
kin	-9.608
▁correct	-9.60933
RO	-9.6094
ised	-9.61148
▁ne	-9.61172
▁issued	-9.61182
▁works	-9.61193
▁TO	-9.61195
▁communication	-9.61257
▁rule	-9.61314
61	-9.61342
▁Tell	-9.61389
ned	-9.61442
▁accept	-9.61465
▁welcome	-9.61622
▁Canadians	-9.61624
ets	-9.6173
log	-9.61748
▁th	-9.61811
▁participants	-9.6188
▁Ki	-9.61881
▁Under	-9.61955
▁character	-9.62015
▁applicable	-9.62015
▁track	-9.62034
▁broad	-9.62037
▁mis	-9.621
▁overall	-9.62111
ssociated	-9.62116
▁solution	-9.62153
▁Germany	-9.62212
▁funds	-9.62254
▁Sp	-9.62276
▁lay	-9.62303
59	-9.62365
▁tried	-9.62398
▁goes	-9.62409
ou	-9.6242
95	-9.62442
▁release	-9.62495
▁added	-9.62548
▁require	-9.62606
▁Sam	-9.62727
▁charge	-9.62749
▁ta	-9.62778
▁EUR	-9.62851
▁context	-9.62885
▁favour	-9.62885
▁hospital	-9.62885
▁reduction	-9.62885
▁host	-9.6298
▁operation	-9.63
old	-9.63017
▁individuals	-9.63028
▁park	-9.63095
fl	-9.63218
0%	-9.63334
east	-9.63338
▁central	-9.63383
cing	-9.63406
▁Min	-9.63464
▁note	-9.63506
ole	-9.63598
gue	-9.63729
▁applicant	-9.63762
▁delegation	-9.63762
▁Executive	-9.63764
▁yes	-9.63775
pha	-9.63796
▁priority	-9.63808
▁Time	-9.63816
▁Lord	-9.63842
▁movement	-9.63943
▁commitment	-9.63975
▁actions	-9.64012
▁Ad	-9.64018
gra	-9.64106
light	-9.64151
▁aim	-9.64203
▁types	-9.64215
▁regular	-9.6438
▁music	-9.64462
▁sw	-9.64589
▁prior	-9.64592
21	-9.64596
▁died	-9.64606
▁requested	-9.64633
▁sustainable	-9.64653
▁connection	-9.64699
▁English	-9.64767
▁Code	-9.64788
az	-9.64887
ake	-9.64899
▁Thanks	-9.64958
sen	-9.64965
aw	-9.64978
▁waste	-9.65032
▁expect	-9.65084
▁achieve	-9.65103
par	-9.65131
▁Note	-9.65271
▁provision	-9.653
▁prices	-9.65354
let	-9.65358
▁trip	-9.65369
▁Although	-9.6554
▁approval	-9.6554
▁families	-9.6554
▁device	-9.6554
▁Nothing	-9.65551
▁House	-9.65555
ray	-9.6568
king	-9.6574
▁principle	-9.65808
,"	-9.66022
▁conducted	-9.66048
▁indicate	-9.66052
ID	-9.66052
▁etc	-9.66094
▁entire	-9.66149
▁dog	-9.66165
49	-9.66263
▁unit	-9.66433
▁behalf	-9.66441
▁avoid	-9.66442
bb	-9.66496
22	-9.66502
▁gun	-9.66515
▁story	-9.66518
▁plant	-9.66569
har	-9.66619
car	-9.66622
▁method	-9.66737
ux	-9.66769
tory	-9.6685
▁weeks	-9.66989
uff	-9.67013
▁star	-9.67164
.”	-9.67228
PS	-9.67255
▁stated	-9.67284
▁lives	-9.67325
▁computer	-9.6735
▁industrial	-9.67353
eg	-9.67388
▁hotel	-9.67398
▁More	-9.6755
▁size	-9.67553
▁discussed	-9.67686
▁partner	-9.67761
▁former	-9.67892
/1	-9.68005
lf	-9.68077
tu	-9.68173
▁relat	-9.68206
ana	-9.68243
▁meetings	-9.68251
Z	-9.68265
▁Official	-9.68267
▁crisis	-9.68267
▁murder	-9.68267
▁separate	-9.68268
▁hurt	-9.68269
29	-9.68407
▁intended	-9.68445
▁takes	-9.68465
▁begin	-9.68536
ps	-9.68601
Re	-9.68691
▁Environment	-9.68709
▁girls	-9.68805
▁weight	-9.6886
des	-9.68881
▁Home	-9.69049
▁Over	-9.6908
▁Du	-9.69122
elle	-9.69124
can	-9.6918
▁Jesus	-9.69194
work	-9.69203
▁students	-9.69206
▁quite	-9.69268
▁Miss	-9.6932
▁justice	-9.69363
▁agree	-9.69372
ON	-9.69381
▁gl	-9.69496
▁Party	-9.69531
▁Fe	-9.69677
len	-9.6972
▁Mrs	-9.69774
▁independent	-9.69786
▁enable	-9.69792
nic	-9.69884
▁learning	-9.70029
ement	-9.70072
▁Ab	-9.70093
▁supply	-9.70128
▁Sorry	-9.70129
▁priorities	-9.70139
▁initial	-9.70146
▁stuff	-9.70153
▁shot	-9.7016
97	-9.7027
ob	-9.70311
▁Q	-9.70337
▁im	-9.70534
96	-9.70603
▁practices	-9.70685
ible	-9.70737
71	-9.70823
▁agencies	-9.71071
▁exactly	-9.71071
▁floor	-9.71071
▁secret	-9.71074
▁conference	-9.71086
▁percent	-9.71095
▁Review	-9.71105
▁majority	-9.71181
▁values	-9.71287
▁Dad	-9.71323
▁2013	-9.71408
▁sha	-9.71485
▁Da	-9.71517
▁OJ	-9.71561
▁reasons	-9.71579
▁Mc	-9.71596
▁processes	-9.71645
▁mom	-9.71768
SE	-9.71771
▁implement	-9.71787
▁representatives	-9.71831
▁En	-9.71861
▁nuclear	-9.72024
▁speed	-9.72028
▁gender	-9.72029
▁inform	-9.72063
▁piece	-9.72144
▁shows	-9.72287
▁waiting	-9.72379
CC	-9.7238
▁news	-9.7238
▁equal	-9.72387
cul	-9.72434
▁indicated	-9.72437
▁carry	-9.72484
▁sit	-9.72507
▁created	-9.72543
▁matters	-9.72597
ping	-9.72607
hose	-9.72608
pen	-9.72646
▁=	-9.72676
bit	-9.72768
▁sources	-9.72927
▁beautiful	-9.72985
▁Central	-9.72985
▁dream	-9.72986
▁Chief	-9.7299
▁mandate	-9.73001
▁leg	-9.73031
▁departments	-9.73122
▁rise	-9.73128
▁Park	-9.73268
ane	-9.73625
▁wants	-9.73664
▁covered	-9.73691
▁worked	-9.73767
fr	-9.73844
▁System	-9.73956
▁damage	-9.73956
▁freedom	-9.73956
▁Great	-9.73958
▁written	-9.73958
▁China	-9.73991
▁Justice	-9.73997
▁white	-9.74014
▁Quebec	-9.74015
ump	-9.74031
▁box	-9.74047
▁Paris	-9.74156
▁delivery	-9.74163
▁Sea	-9.74163
▁na	-9.74362
▁produce	-9.74423
mar	-9.74427
▁red	-9.74464
▁drug	-9.74542
▁Inter	-9.74773
0)	-9.74776
▁object	-9.74863
▁forest	-9.7488
▁Bas	-9.74892
▁Pi	-9.74922
▁photo	-9.74932
▁Ministry	-9.74936
▁conclusion	-9.74936
▁himself	-9.74936
▁sufficient	-9.74936
▁HIV	-9.74937
▁film	-9.74939
▁debt	-9.74946
▁stock	-9.7496
▁series	-9.74968
▁West	-9.74983
▁Use	-9.75066
▁setting	-9.75083
▁Most	-9.75128
▁touch	-9.75129
▁Give	-9.7515
▁Ms	-9.75156
ko	-9.75177
▁worth	-9.75282
nce	-9.75285
▁bed	-9.7533
▁port	-9.75333
▁des	-9.75336
▁fa	-9.75342
DE	-9.7541
▁ball	-9.75433
▁explain	-9.75463
eu	-9.75501
▁vehicle	-9.75562
▁tools	-9.75566
ook	-9.75586
ib	-9.75588
▁methods	-9.75594
▁objective	-9.75619
▁cell	-9.75778
▁payment	-9.75905
▁Federal	-9.75927
▁facilities	-9.75927
▁guide	-9.75927
▁perfect	-9.75927
▁interview	-9.75939
▁fuel	-9.75943
▁hour	-9.75944
▁supposed	-9.76049
▁Ge	-9.76098
▁publication	-9.76135
▁approximate	-9.76135
▁www	-9.7626
▁build	-9.76273
▁lo	-9.76278
ept	-9.76333
mail	-9.76395
▁concept	-9.76413
▁encourage	-9.76535
▁difference	-9.76604
▁ahead	-9.76797
▁Institute	-9.76927
▁worry	-9.76927
▁sample	-9.76932
▁Parties	-9.76973
cha	-9.76999
nes	-9.77
▁Pat	-9.77039
▁throughout	-9.77065
▁defined	-9.7709
▁addressed	-9.77201
AP	-9.77343
23	-9.77368
▁assess	-9.77413
jo	-9.77425
90	-9.77474
▁regulations	-9.7754
-2	-9.77573
ong	-9.77581
▁initiative	-9.77664
▁German	-9.77707
▁Tra	-9.77799
arch	-9.77882
-19	-9.77893
▁respond	-9.77898
▁char	-9.77936
▁Association	-9.77937
▁consumer	-9.77937
▁York	-9.7794
▁committed	-9.77946
▁kept	-9.77946
▁Listen	-9.77974
▁follows	-9.77998
rop	-9.78017
▁000	-9.78032
▁Trade	-9.78109
▁ways	-9.78214
(1)	-9.7826
▁mu	-9.78303
▁dad	-9.78419
▁Mon	-9.78428
▁obtain	-9.78496
ram	-9.7857
=	-9.78658
ung	-9.78665
%)	-9.78818
▁factor	-9.78859
ient	-9.78867
rk	-9.78886
▁Global	-9.78957
▁advice	-9.78957
▁alternative	-9.78957
▁crazy	-9.78957
▁Business	-9.78957
▁bodies	-9.78957
▁stress	-9.78959
35	-9.78989
▁degree	-9.78996
▁Bu	-9.79005
No	-9.7901
▁compared	-9.79055
▁feeling	-9.7907
▁contains	-9.79117
air	-9.7922
▁contained	-9.79263
▁seems	-9.7932
▁cur	-9.79341
US	-9.79397
▁joint	-9.79552
▁press	-9.79583
.8	-9.79595
du	-9.79672
▁sites	-9.79692
▁serve	-9.797
▁rat	-9.79714
ock	-9.79753
▁option	-9.79755
▁requires	-9.798
▁nor	-9.79812
▁60	-9.79902
▁choose	-9.79988
▁loss	-9.79996
46	-9.80015
▁1990	-9.80035
ok	-9.80037
▁contributions	-9.80038
▁construction	-9.80039
▁radio	-9.80044
▁fear	-9.80045
▁tri	-9.80103
▁sur	-9.80164
rew	-9.80226
▁Mom	-9.80227
▁critical	-9.80256
ran	-9.80274
▁drink	-9.80371
rd	-9.80378
▁mentioned	-9.80395
bl	-9.80436
ari	-9.80444
▁consult	-9.80489
▁round	-9.80511
▁guarantee	-9.80637
You	-9.80658
▁applications	-9.80681
▁followed	-9.80715
000	-9.80864
▁led	-9.80902
▁Br	-9.80908
▁fast	-9.80959
▁submit	-9.8101
▁CO	-9.81018
▁advantage	-9.8103
▁definition	-9.8103
▁extreme	-9.8103
▁physical	-9.81031
▁creation	-9.81032
▁strategic	-9.81043
▁slow	-9.81071
▁Total	-9.81071
ham	-9.81071
▁boat	-9.81277
▁amended	-9.81311
▁described	-9.81319
▁micro	-9.8134
▁details	-9.81415
▁changed	-9.81436
▁suit	-9.81535
▁app	-9.81588
low	-9.81653
▁Trans	-9.81754
▁increasing	-9.81816
fu	-9.81878
lon	-9.81961
▁seat	-9.81987
▁occur	-9.82071
▁poverty	-9.82082
▁Secretariat	-9.82082
▁female	-9.82082
▁double	-9.82084
▁truth	-9.82121
▁administration	-9.82127
▁Stop	-9.82185
▁Ta	-9.82253
▁amendments	-9.82395
26	-9.82402
▁Indian	-9.82424
▁raised	-9.82445
▁fixed	-9.82457
▁expressed	-9.82462
▁enhance	-9.82527
▁measure	-9.82597
32	-9.8262
▁facilitate	-9.82724
OS	-9.8282
92	-9.82916
▁win	-9.82928
▁$2	-9.83078
▁consultation	-9.83096
▁began	-9.83111
▁provincial	-9.83146
▁circumstances	-9.83146
▁operating	-9.83146
▁pursuan	-9.83146
▁simply	-9.83146
▁village	-9.83146
▁display	-9.83152
▁fr	-9.83214
▁camp	-9.83231
▁consist	-9.83236
▁assets	-9.83324
▁direction	-9.83333
▁whatever	-9.83378
▁formal	-9.83446
▁influence	-9.83476
CH	-9.83479
▁2014	-9.83511
▁Call	-9.83679
meter	-9.83761
ably	-9.8389
▁clearly	-9.83891
II	-9.83904
▁hu	-9.83942
cal	-9.8409
ya	-9.84202
▁external	-9.84221
▁married	-9.84221
▁video	-9.84222
▁voice	-9.84222
▁bio	-9.84224
▁throw	-9.84232
▁selection	-9.84298
IR	-9.84304
▁Che	-9.84329
▁establishment	-9.8436
▁store	-9.84371
▁items	-9.8438
▁cool	-9.84414
We	-9.84466
▁citizens	-9.84482
78	-9.84495
ological	-9.84532
▁suggest	-9.84533
ify	-9.84537
▁scale	-9.84556
▁elements	-9.84574
▁fit	-9.84605
▁deliver	-9.84616
▁load	-9.84745
IA	-9.84758
ists	-9.84904
isation	-9.85053
▁signed	-9.85103
▁prove	-9.85107
▁parts	-9.85143
▁eye	-9.85258
▁minute	-9.85265
▁machine	-9.8527
▁web	-9.85276
▁daughter	-9.85308
▁entitled	-9.85308
▁trouble	-9.85308
▁scheme	-9.85308
▁judge	-9.85309
▁street	-9.8531
▁sister	-9.85317
▁planned	-9.85337
▁Italy	-9.85351
▁wide	-9.85453
▁draw	-9.85537
▁Ni	-9.85691
▁recently	-9.85774
▁users	-9.85783
▁determined	-9.85824
▁Ar	-9.85842
▁Many	-9.8588
ix	-9.85882
▁accepted	-9.85894
▁Ah	-9.85907
▁reduced	-9.8594
▁forms	-9.85953
▁allowed	-9.8627
▁laws	-9.86271
CA	-9.86366
▁pain	-9.86392
▁shoot	-9.86408
▁victims	-9.86425
▁season	-9.86443
▁collection	-9.86477
▁prevention	-9.86537
▁hot	-9.86555
▁interested	-9.86557
▁train	-9.86573
gar	-9.86807
▁produced	-9.86846
▁Christ	-9.8685
▁Wi	-9.86855
▁risks	-9.8691
van	-9.86952
▁adopt	-9.8699
82	-9.87032
▁]	-9.8712
yl	-9.87243
▁write	-9.8728
▁generally	-9.87308
▁Every	-9.87505
▁Protocol	-9.87518
▁infrastructure	-9.87518
▁giving	-9.87519
▁fundamental	-9.8752
▁simple	-9.87521
▁running	-9.87522
▁consistent	-9.87558
▁aspects	-9.87579
view	-9.87603
▁manner	-9.87613
▁replaced	-9.87708
▁deep	-9.87715
▁comments	-9.87716
▁steps	-9.87757
tive	-9.8802
▁online	-9.88078
izing	-9.88124
hu	-9.88134
une	-9.88166
▁recognize	-9.88251
▁achieved	-9.88253
ase	-9.88271
▁aware	-9.88361
-20	-9.88377
▁remains	-9.88399
▁fat	-9.88528
▁lose	-9.88559
ris	-9.88583
▁par	-9.8862
▁offers	-9.88642
▁negative	-9.88642
▁Columbia	-9.88642
▁Kingdom	-9.88642
▁Tribunal	-9.88642
▁accident	-9.88642
▁Support	-9.88642
▁volume	-9.88642
▁extent	-9.88643
▁phase	-9.88647
illa	-9.88687
ME	-9.88704
▁gain	-9.88796
▁estimated	-9.88827
8)	-9.88917
▁claims	-9.89046
▁Sir	-9.89262
CO	-9.89309
77	-9.89333
▁raise	-9.8939
▁principles	-9.89438
▁affected	-9.89447
▁normal	-9.89568
▁East	-9.89701
ja	-9.89754
▁personnel	-9.89779
▁presence	-9.89781
▁trend	-9.89791
▁negotiations	-9.89791
▁Inc	-9.89798
▁fi	-9.89818
rap	-9.89854
▁province	-9.8987
▁artist	-9.89928
▁bus	-9.89969
ik	-9.90091
58	-9.90144
duct	-9.90189
▁award	-9.90191
MA	-9.90331
▁skills	-9.9043
CI	-9.90444
52	-9.90471
▁supported	-9.9049
▁challenges	-9.90587
▁Art	-9.90612
uring	-9.90816
ND	-9.90839
een	-9.90913
▁adequate	-9.90928
▁concentration	-9.90928
▁temperature	-9.90928
▁entry	-9.90931
▁discover	-9.90932
▁modern	-9.90933
▁aircraft	-9.90938
▁join	-9.90953
▁1994	-9.90967
▁sport	-9.90987
ged	-9.91038
▁observed	-9.91039
▁Document	-9.91052
▁wall	-9.91089
▁instruments	-9.91146
▁cold	-9.91192
▁band	-9.91365
▁ran	-9.91393
▁forget	-9.91449
▁obtained	-9.9145
tan	-9.91484
▁informed	-9.91493
▁attend	-9.91656
▁shown	-9.91676
▁advance	-9.917
▁Up	-9.91906
▁Hu	-9.91999
▁manage	-9.92003
▁records	-9.92004
▁threat	-9.92029
▁permit	-9.92072
▁Would	-9.92091
▁agricultural	-9.92091
▁dialogue	-9.92091
▁Therefore	-9.92091
▁title	-9.92092
▁ga	-9.92096
UN	-9.92107
33	-9.92133
▁adoption	-9.92164
▁al	-9.92276
▁Read	-9.92323
▁mid	-9.92325
▁Regulations	-9.92343
related	-9.92345
▁Land	-9.92412
▁Mor	-9.92427
▁introduced	-9.92452
▁Fi	-9.92528
▁jobs	-9.9261
▁released	-9.92615
UR	-9.92675
▁reached	-9.92787
▁miss	-9.93028
q	-9.93229
91	-9.93231
xcuse	-9.93266
▁climate	-9.93267
▁strategies	-9.93267
▁Second	-9.93267
▁pilot	-9.93267
▁thousand	-9.93267
▁anymore	-9.93268
▁electronic	-9.93269
▁summer	-9.93274
45	-9.9328
▁window	-9.93294
▁somebody	-9.93296
▁transition	-9.93312
▁Island	-9.93351
▁sick	-9.93354
51	-9.93361
▁Ottawa	-9.93383
rc	-9.93475
▁detailed	-9.9349
▁interests	-9.93527
▁Rule	-9.93566
▁kids	-9.93567
▁cr	-9.93788
▁implemented	-9.93839
ese	-9.93896
▁origin	-9.939
ney	-9.93953
TER	-9.93957
200	-9.94023
1/	-9.94052
gc	-9.94095
▁cru	-9.94395
▁prison	-9.94399
▁participate	-9.94433
▁maintenance	-9.94458
▁purchase	-9.94458
▁surprise	-9.94458
▁licence	-9.94458
▁defend	-9.94459
▁Help	-9.94461
▁su	-9.94483
▁flight	-9.94486
▁regime	-9.94515
ici	-9.94522
cho	-9.94602
▁laid	-9.94611
wo	-9.94639
▁Only	-9.94801
▁selected	-9.94843
▁operational	-9.94913
lip	-9.9495
nder	-9.9502
▁path	-9.95228
87	-9.95237
31	-9.95249
▁ability	-9.95386
72	-9.95397
▁except	-9.95521
▁closed	-9.9554
▁behaviour	-9.95662
▁husband	-9.95662
▁maximum	-9.95662
▁insurance	-9.95662
▁doubt	-9.95666
▁stakeholders	-9.95669
▁operate	-9.95675
▁Arab	-9.95687
zz	-9.95743
▁pack	-9.95772
▁integrated	-9.95786
matic	-9.95813
▁requests	-9.95823
hen	-9.9597
▁improvement	-9.96024
62	-9.961
▁completely	-9.96138
TH	-9.96216
▁wood	-9.96247
▁Environmental	-9.96297
▁Ru	-9.96311
▁playing	-9.96392
▁perform	-9.96432
▁va	-9.96432
▁born	-9.96464
pect	-9.9655
63	-9.96623
ara	-9.96658
▁35	-9.96704
▁minimum	-9.96882
▁subsequent	-9.96882
▁pension	-9.96886
▁mistake	-9.96886
▁emissions	-9.96904
▁earth	-9.9693
▁bear	-9.96936
▁states	-9.96959
▁huh	-9.97001
▁compliance	-9.97005
limina	-9.97034
▁useful	-9.97116
▁Very	-9.97116
▁pa	-9.97168
▁science	-9.97174
▁heat	-9.97231
▁challenge	-9.97245
board	-9.97249
▁Officer	-9.97353
▁reading	-9.97392
▁goal	-9.97572
▁calling	-9.9761
34	-9.97646
ique	-9.97763
AD	-9.97786
AM	-9.97793
▁offered	-9.9785
▁exist	-9.97905
▁Um	-9.9805
▁looks	-9.98056
▁south	-9.98111
▁variety	-9.98116
▁middle	-9.98117
▁exceed	-9.98117
▁Japan	-9.98117
▁usually	-9.98117
▁YOU	-9.98121
▁Contract	-9.98125
▁dangerous	-9.98129
66	-9.98135
▁mix	-9.98139
▁Saint	-9.98147
▁preparation	-9.98148
▁package	-9.98152
▁rich	-9.9817
▁Paul	-9.98191
▁Web	-9.98236
▁quarter	-9.98296
mission	-9.98323
▁Once	-9.98386
▁counter	-9.98405
▁registered	-9.98418
(2)	-9.98476
▁sun	-9.98493
▁Non	-9.98493
▁firm	-9.98518
▁extra	-9.98644
▁discuss	-9.98723
▁Hav	-9.98816
TE	-9.98842
▁granted	-9.98851
IL	-9.98897
▁Mu	-9.98907
▁thanks	-9.98971
rac	-9.99128
PA	-9.99137
▁da	-9.99196
▁hate	-9.99228
▁appear	-9.99297
MP	-9.9933
▁arrangements	-9.9935
▁revenue	-9.99366
▁combat	-9.99371
put	-9.99428
▁2015	-9.99438
▁Sch	-9.99447
▁markets	-9.99453
▁spent	-9.99502
oo	-9.99507
▁Regional	-9.99544
▁Russian	-9.9955
▁quickly	-9.9958
▁Out	-9.99601
NA	-9.99777
▁TV	-9.9978
37	-9.99787
70	-9.99832
▁leading	-9.9984
uk	-9.99845
▁treat	-9.99887
ju	-9.99968
▁monitor	-9.99978
▁Ben	-9.99992
gh	-10.0008
▁recommend	-10.0008
2007	-10.0015
▁Pri	-10.0021
cle	-10.0026
tim	-10.003
▁farm	-10.0031
hold	-10.0055
▁Product	-10.0057
▁eight	-10.006
69	-10.0061
▁innovation	-10.0063
▁senior	-10.0063
▁witness	-10.0063
▁improving	-10.0063
▁eligible	-10.0064
▁leaving	-10.0064
▁funny	-10.0065
▁match	-10.0065
▁Euro	-10.0066
▁emergency	-10.0067
▁Open	-10.0069
▁tree	-10.007
▁hair	-10.0071
▁sectors	-10.0073
▁Finally	-10.0074
▁Bi	-10.0074
2)	-10.0078
▁fe	-10.0078
▁invited	-10.008
▁immediately	-10.008
▁scope	-10.0084
pre	-10.0085
▁net	-10.0087
▁Last	-10.009
▁Put	-10.0105
▁networks	-10.0113
▁resource	-10.0117
▁regulation	-10.0119
27	-10.0128
▁print	-10.013
▁express	-10.0135
▁youth	-10.0146
ama	-10.0153
▁Force	-10.0153
▁units	-10.0155
ii	-10.0159
▁fishing	-10.0163
▁Mer	-10.0173
ino	-10.0187
▁beyond	-10.0191
▁sometimes	-10.0192
▁abuse	-10.0195
▁block	-10.0198
▁CH	-10.0199
rist	-10.0204
▁discrimination	-10.0211
▁manufacturer	-10.0216
▁via	-10.0219
°	-10.0229
▁files	-10.0237
▁Wa	-10.0237
IP	-10.0239
▁spending	-10.0241
▁payments	-10.0242
graph	-10.0242
47	-10.0245
93	-10.0253
acy	-10.0261
TS	-10.027
44	-10.0271
80	-10.0272
▁fix	-10.0281
?"	-10.0293
▁Sure	-10.0295
▁caused	-10.0298
▁Region	-10.0303
▁Israel	-10.0303
iti	-10.0314
ea	-10.0315
▁complex	-10.0317
▁(3)	-10.0319
▁birth	-10.0321
▁straight	-10.0321
▁Communication	-10.0321
▁campaign	-10.0321
▁stupid	-10.0321
▁annex	-10.0322
▁surface	-10.0322
▁sugar	-10.0322
▁workshop	-10.0322
mate	-10.0322
▁lawyer	-10.0322
▁reserve	-10.0324
▁1993	-10.0326
▁bill	-10.0342
▁calls	-10.0342
—	-10.036
mark	-10.0367
▁arm	-10.0369
▁officers	-10.0378
▁governments	-10.0378
▁Make	-10.0393
41	-10.0402
:30	-10.0409
28	-10.0416
▁fell	-10.0427
▁200	-10.0431
▁solutions	-10.0432
88	-10.0437
SP	-10.044
▁govern	-10.0444
▁traffic	-10.0452
▁Division	-10.0453
▁although	-10.0453
▁attempt	-10.0453
▁chemical	-10.0453
▁pattern	-10.0453
▁technologies	-10.0453
▁vessel	-10.0453
▁Standard	-10.0453
▁rural	-10.0453
▁moving	-10.0453
▁Meeting	-10.0453
▁refuse	-10.0453
▁34	-10.0457
▁exception	-10.0469
▁weapons	-10.0469
▁45	-10.0473
▁tra	-10.0477
▁catch	-10.0485
▁fla	-10.0486
$	-10.0491
▁belong	-10.0496
▁recommended	-10.0501
83	-10.0513
▁clients	-10.0515
spite	-10.0516
▁hat	-10.0517
▁arms	-10.0525
▁relation	-10.0527
▁notes	-10.053
shed	-10.0535
▁boys	-10.0537
▁decide	-10.0547
5)	-10.0564
▁Follow	-10.0586
▁brief	-10.0586
▁earlier	-10.0586
▁guidelines	-10.0586
▁den	-10.0587
▁Another	-10.0587
▁warm	-10.0588
▁Prime	-10.0589
▁rock	-10.0593
late	-10.0594
not	-10.0628
▁90	-10.0631
94	-10.0632
level	-10.0637
▁map	-10.0643
ek	-10.0644
99	-10.0654
▁client	-10.0658
EL	-10.0664
▁cap	-10.0669
▁positions	-10.0669
24	-10.067
▁Bra	-10.0679
▁forces	-10.0689
ria	-10.0694
57	-10.0699
af	-10.0703
ky	-10.072
▁Safety	-10.0721
▁applies	-10.0721
▁database	-10.0721
▁hundred	-10.0721
▁incident	-10.0721
▁dinner	-10.0721
▁fiscal	-10.0721
▁dress	-10.0722
▁burn	-10.0722
▁leadership	-10.0722
▁Western	-10.0723
▁Col	-10.0723
▁shut	-10.0727
▁gives	-10.0727
76	-10.073
you	-10.0731
▁Fuck	-10.0733
▁format	-10.0743
▁dance	-10.075
ough	-10.076
grade	-10.0766
▁testing	-10.0779
▁growing	-10.0782
ference	-10.0785
hood	-10.0817
▁Does	-10.0827
ery	-10.083
ace	-10.0837
▁San	-10.0846
▁user	-10.0848
▁Transport	-10.0852
iz	-10.0857
▁Assessment	-10.0858
▁association	-10.0858
▁comprehensive	-10.0858
▁constitute	-10.0858
▁David	-10.0858
▁sweet	-10.0858
▁finance	-10.0858
AIDS	-10.086
▁felt	-10.086
▁Ver	-10.086
▁awareness	-10.0861
▁appointment	-10.0861
▁Haiti	-10.0862
▁unique	-10.0863
▁Asia	-10.0864
▁Mission	-10.0873
▁generation	-10.0875
▁generate	-10.0877
▁trial	-10.0884
▁aren	-10.0891
▁Ko	-10.0907
▁euro	-10.0916
CR	-10.0934
▁patient	-10.0943
MENT	-10.0949
SA	-10.095
▁finish	-10.0951
law	-10.0951
tel	-10.0953
▁Abou	-10.0967
▁Ste	-10.0967
▁continues	-10.0971
▁officer	-10.0973
▁(2	-10.0974
bel	-10.0978
▁ser	-10.0979
IF	-10.0983
▁City	-10.0997
▁registration	-10.0997
▁software	-10.0997
▁33	-10.0998
▁Protection	-10.0999
▁enforcement	-10.0999
mous	-10.0999
▁wonder	-10.0999
▁sexual	-10.1
cause	-10.1001
▁president	-10.1001
▁Jack	-10.1006
▁officials	-10.1008
RC	-10.1012
▁male	-10.1014
▁III	-10.1018
▁efficient	-10.1024
ped	-10.1027
▁nu	-10.1036
▁pr	-10.1039
▁differences	-10.1043
What	-10.1046
ani	-10.1049
▁App	-10.1054
▁ME	-10.1073
book	-10.1077
▁describe	-10.1102
▁sell	-10.1104
89	-10.1106
aging	-10.1109
▁opening	-10.1109
▁dear	-10.1111
she	-10.1113
▁actual	-10.1116
HO	-10.1116
▁obligations	-10.1117
▁Russia	-10.1117
▁Resources	-10.1121
6/	-10.1123
▁wine	-10.113
▁offices	-10.113
▁experts	-10.1136
▁evening	-10.1136
▁negotiat	-10.1136
▁Financial	-10.1138
▁Journal	-10.1138
▁afraid	-10.1138
▁financing	-10.1138
▁specified	-10.1138
▁permanent	-10.1138
▁breath	-10.1138
stream	-10.1139
▁River	-10.1143
▁desire	-10.1143
▁acid	-10.1143
▁percentage	-10.1143
▁secure	-10.1156
▁animals	-10.116
▁spoke	-10.1165
▁employer	-10.1166
▁Fl	-10.1168
▁skin	-10.1168
▁border	-10.118
▁amounts	-10.1191
▁hearing	-10.1195
▁processing	-10.1203
▁finally	-10.1214
▁dose	-10.1221
▁select	-10.1226
TION	-10.1232
▁expenditure	-10.1233
▁element	-10.1236
ich	-10.1239
lat	-10.1241
▁update	-10.1242
▁FOR	-10.125
▁Fr	-10.1259
▁starting	-10.1279
▁district	-10.1281
▁length	-10.1281
▁guest	-10.1281
coming	-10.1282
▁ongoing	-10.1283
▁proceedings	-10.1283
▁Panel	-10.1284
▁integration	-10.1286
head	-10.1286
lau	-10.1287
▁harm	-10.1288
▁sort	-10.1289
▁Ti	-10.1289
▁Thus	-10.1291
▁appointed	-10.1297
▁highest	-10.1303
4/	-10.1304
▁CF	-10.1306
ches	-10.1315
ental	-10.132
▁Unit	-10.1323
▁roll	-10.1323
▁Was	-10.133
▁mg	-10.1333
▁Comm	-10.1334
▁director	-10.1335
▁Dan	-10.1336
ada	-10.1344
▁valid	-10.1351
▁tool	-10.1362
▁effectively	-10.1365
long	-10.137
▁implementing	-10.138
▁amendment	-10.1387
▁pen	-10.1395
74	-10.1395
▁manufacture	-10.1398
RS	-10.1405
▁relative	-10.1406
▁statements	-10.1416
▁Strategy	-10.1426
▁Thursday	-10.1426
▁Which	-10.1426
▁passenger	-10.1426
▁writing	-10.1426
▁proportion	-10.1426
▁withdraw	-10.1426
▁shift	-10.1426
▁cash	-10.1426
▁everybody	-10.1427
▁blow	-10.1431
▁handle	-10.1432
▁drop	-10.1434
▁auto	-10.1448
▁Food	-10.1448
position	-10.1449
▁largest	-10.145
▁Form	-10.1484
▁grow	-10.1485
PE	-10.1494
He	-10.1495
▁educational	-10.1497
▁relations	-10.1502
48	-10.151
atic	-10.1515
AB	-10.152
▁fund	-10.1523
▁India	-10.154
vin	-10.154
3%	-10.1547
mple	-10.1551
▁fo	-10.1553
▁Iraq	-10.1556
▁election	-10.1568
shi	-10.1569
▁Communities	-10.1573
▁perspective	-10.1573
▁territory	-10.1573
▁century	-10.1573
%	-10.1573
▁honey	-10.1574
▁legislative	-10.1574
▁foot	-10.1575
▁submission	-10.1575
▁Cha	-10.1576
▁sentence	-10.1576
▁duty	-10.1579
▁Key	-10.1581
▁Today	-10.1581
▁Peter	-10.1582
ette	-10.1587
▁Got	-10.159
▁ON	-10.1593
▁languages	-10.1594
win	-10.1603
▁Press	-10.1607
▁nation	-10.1607
▁Er	-10.1614
85	-10.1614
▁Bill	-10.1616
39	-10.1622
▁Val	-10.1634
house	-10.1636
▁suggested	-10.1636
▁union	-10.1642
born	-10.1645
▁missing	-10.1658
▁Dar	-10.1664
▁presentation	-10.1671
▁Case	-10.1683
▁schedule	-10.1683
ez	-10.1688
▁effort	-10.169
▁custom	-10.1697
86	-10.1698
53	-10.17
gui	-10.17
tis	-10.1701
je	-10.1704
ush	-10.1706
rick	-10.1713
water	-10.172
responsibilities	-10.1722
▁Representative	-10.1722
▁perhaps	-10.1722
▁practical	-10.1722
▁fruit	-10.1723
▁compensation	-10.1723
▁regulatory	-10.1723
▁household	-10.1724
▁Add	-10.1725
▁Data	-10.1727
▁named	-10.173
▁violation	-10.1731
▁sk	-10.1736
▁played	-10.1741
▁findings	-10.1742
▁consultations	-10.1742
▁gold	-10.1746
▁Mac	-10.1748
ncy	-10.1749
▁ideas	-10.1751
▁deposit	-10.1755
ett	-10.176
▁Tri	-10.1769
own	-10.177
▁Te	-10.177
▁SO	-10.1778
▁ju	-10.1784
▁island	-10.1788
RD	-10.179
▁lines	-10.1794
73	-10.1795
▁AS	-10.1798
▁broadcast	-10.1808
▁Cor	-10.1809
2009	-10.1819
▁helping	-10.182
▁articles	-10.1823
zi	-10.1827
▁extend	-10.1828
▁sal	-10.1838
▁substance	-10.1844
▁indicators	-10.1845
▁instrument	-10.1845
▁employee	-10.1846
▁sold	-10.1847
▁asking	-10.185
▁requirement	-10.1853
▁owner	-10.1861
▁strength	-10.1868
▁detect	-10.1868
▁NO	-10.187
▁combination	-10.1874
▁guidance	-10.1874
▁Science	-10.1874
▁Keep	-10.1874
▁Control	-10.1874
▁medium	-10.1874
▁apartment	-10.1874
▁George	-10.1874
▁instance	-10.1874
▁dark	-10.1875
▁spread	-10.1875
▁governance	-10.1878
▁directive	-10.1884
▁sales	-10.1885
▁instruction	-10.1885
▁Tax	-10.1892
▁topic	-10.1894
▁concluded	-10.1897
▁gap	-10.1898
place	-10.1922
ini	-10.1929
▁drugs	-10.1935
▁IT	-10.1935
▁holding	-10.1938
▁containing	-10.1939
ending	-10.1952
cut	-10.1956
▁views	-10.196
▁ill	-10.1967
ended	-10.1969
▁Head	-10.197
43	-10.1975
▁pull	-10.1984
▁career	-10.1987
▁contain	-10.1991
▁commitments	-10.1993
poli	-10.1994
▁bra	-10.1996
▁animal	-10.2004
▁god	-10.201
▁meant	-10.2011
▁Nor	-10.2014
▁recommendation	-10.2014
▁loan	-10.2015
zo	-10.2018
▁experienced	-10.2021
▁comment	-10.2022
▁Audit	-10.2025
▁driving	-10.2028
▁intervention	-10.2028
▁Friday	-10.2028
▁mountain	-10.2028
▁symbol	-10.2028
▁error	-10.2028
▁vision	-10.2028
▁gather	-10.2028
▁glass	-10.2029
▁wonderful	-10.203
▁collective	-10.2031
▁Notice	-10.2034
▁score	-10.2037
68	-10.2038
▁north	-10.204
stitution	-10.2041
▁Mal	-10.2053
▁ring	-10.2054
▁dry	-10.2058
IM	-10.2072
==	-10.2075
"?	-10.208
▁parent	-10.2092
▁80	-10.2099
▁accounts	-10.2105
▁bag	-10.2105
like	-10.211
▁aimed	-10.2111
▁expenses	-10.2111
aire	-10.2118
▁rid	-10.2118
▁emerg	-10.2124
▁interesting	-10.2124
gri	-10.2129
get	-10.2137
▁Ac	-10.2142
▁plants	-10.2146
▁Cost	-10.2153
▁quick	-10.2157
ential	-10.2159
▁CON	-10.2161
▁mad	-10.2162
▁component	-10.2164
▁communications	-10.2165
point	-10.2173
▁foundation	-10.2181
▁proceed	-10.2182
MS	-10.2184
▁Brussels	-10.2184
▁Employment	-10.2184
▁extension	-10.2184
▁medicine	-10.2184
▁television	-10.2184
▁Police	-10.2184
▁fresh	-10.2184
▁quiet	-10.2184
▁horse	-10.2184
▁Turkey	-10.2184
▁failure	-10.2185
▁expertise	-10.2185
▁commission	-10.2186
▁Authority	-10.2186
▁Free	-10.219
▁hang	-10.2192
▁components	-10.2203
ancy	-10.2205
▁anyway	-10.2207
new	-10.2208
▁Four	-10.2208
▁clinical	-10.221
▁beat	-10.2215
▁tests	-10.2218
▁options	-10.2219
▁HE	-10.2222
81	-10.2238
84	-10.2249
▁managed	-10.2262
▁feed	-10.2295
ita	-10.2297
42	-10.2298
38	-10.2298
▁passed	-10.2299
ime	-10.2299
▁primar	-10.232
▁metal	-10.2323
▁sum	-10.2323
▁mechanism	-10.2328
▁Hold	-10.2331
▁spirit	-10.2341
▁substantial	-10.2342
▁Spanish	-10.2343
▁industries	-10.2343
▁jurisdiction	-10.2343
▁occasion	-10.2343
▁promotion	-10.2343
▁statistics	-10.2343
▁Palestinian	-10.2343
▁undertaking	-10.2343
▁Question	-10.2343
▁Could	-10.2343
▁programming	-10.2344
▁Also	-10.2344
▁agency	-10.2344
▁reducing	-10.2344
ulation	-10.2344
▁Evaluation	-10.2346
▁highlight	-10.2347
▁Water	-10.2348
▁Room	-10.2349
▁inspection	-10.235
▁settlement	-10.2353
▁alive	-10.2353
▁te	-10.2353
▁undertaken	-10.2354
▁announced	-10.2354
79	-10.2354
▁powers	-10.2363
▁represent	-10.2364
▁AM	-10.2369
▁exp	-10.2375
ré	-10.2378
▁lesson	-10.2382
▁schools	-10.239
pu	-10.2394
▁recognized	-10.2398
▁listed	-10.2401
▁wa	-10.2421
▁zone	-10.2423
▁meaning	-10.2431
▁cop	-10.2441
back	-10.2444
▁Je	-10.2455
▁shared	-10.2467
▁si	-10.2492
▁75	-10.2493
▁remaining	-10.2494
▁regulat	-10.2495
▁ST	-10.2497
55	-10.2498
▁eco	-10.2499
▁2001,	-10.2502
▁Through	-10.2504
▁category	-10.2504
▁coordinate	-10.2504
▁restaurant	-10.2504
▁Before	-10.2504
▁Children	-10.2504
▁Foreign	-10.2504
▁chosen	-10.2504
▁Everything	-10.2504
▁reaction	-10.2504
▁damn	-10.2504
▁revised	-10.2504
▁click	-10.2506
▁strange	-10.2506
▁Joint	-10.2506
6)	-10.2506
▁urge	-10.2509
ware	-10.2512
▁Gen	-10.2515
▁Lake	-10.252
ille	-10.2537
▁dated	-10.2543
under	-10.2551
▁King	-10.2558
acc	-10.2561
▁acts	-10.257
▁Red	-10.2579
ency	-10.2586
▁Han	-10.2591
▁significantly	-10.2593
▁core	-10.2613
gn	-10.262
▁confirm	-10.2622
▁fail	-10.2634
▁32	-10.2659
▁invest	-10.2661
1)	-10.2662
▁victim	-10.2665
▁student	-10.2665
▁Amendment	-10.2668
▁Declaration	-10.2668
▁currency	-10.2668
▁receiving	-10.2668
▁Deputy	-10.2668
▁bought	-10.2668
▁Annual	-10.2668
▁characteristics	-10.2668
▁Appeal	-10.2668
▁constant	-10.2668
▁heavy	-10.2668
▁duties	-10.2669
▁daily	-10.2669
▁Father	-10.267
▁Northern	-10.267
▁airport	-10.2672
▁returned	-10.2673
▁motor	-10.2673
LI	-10.2674
▁master	-10.2674
▁proud	-10.2674
8%	-10.2677
gate	-10.2679
▁Constitution	-10.268
▁reasonable	-10.2685
▁ver	-10.2686
▁institutional	-10.2686
ivity	-10.2687
▁Find	-10.2688
▁Figure	-10.2689
▁organized	-10.269
PO	-10.2697
▁leaders	-10.2698
▁refugee	-10.27
▁center	-10.2701
▁Bur	-10.2716
▁Day	-10.2721
▁served	-10.2731
TC	-10.2732
ATE	-10.2735
▁showed	-10.2738
▁delivered	-10.2738
▁businesses	-10.2739
▁stone	-10.2739
–	-10.2742
▁tend	-10.2745
▁customers	-10.2757
▁500	-10.2764
hr	-10.2772
ties	-10.2777
2%	-10.278
▁arrest	-10.2788
▁Statistics	-10.2797
▁dollars	-10.2809
▁prohibit	-10.2816
▁London	-10.2834
▁Wednesday	-10.2834
▁convention	-10.2834
▁experiment	-10.2834
▁marriage	-10.2834
▁promoting	-10.2834
▁typical	-10.2834
▁wrote	-10.2834
▁Year	-10.2834
▁housing	-10.2835
▁distance	-10.2835
▁Three	-10.2835
▁dispute	-10.2835
▁worse	-10.2835
▁popular	-10.2835
▁consumption	-10.2835
▁remind	-10.2835
▁democratic	-10.2836
▁expert	-10.2836
▁Guide	-10.2838
▁Corporation	-10.284
▁route	-10.284
▁otherwise	-10.2841
▁designated	-10.2843
▁Phil	-10.2845
▁nine	-10.2846
HR	-10.2853
▁copy	-10.2859
script	-10.2859
▁Back	-10.2863
▁highly	-10.2867
▁Area	-10.2868
▁achievement	-10.287
▁Mont	-10.287
▁Post	-10.2871
OD	-10.2873
iff	-10.2874
▁sale	-10.2882
▁approaches	-10.2888
▁Par	-10.2896
dia	-10.2901
verage	-10.2912
▁(4)	-10.2915
▁List	-10.2933
building	-10.2937
iness	-10.2938
/3	-10.2946
▁remained	-10.2946
▁contribut	-10.2947
▁adapt	-10.2958
▁protected	-10.2961
lam	-10.2963
▁fighting	-10.2991
▁input	-10.3001
▁Atlantic	-10.3004
▁efficiency	-10.3004
▁facility	-10.3004
▁involving	-10.3004
▁Industry	-10.3004
▁Record	-10.3004
▁School	-10.3004
▁Toronto	-10.3004
▁humanitarian	-10.3004
▁river	-10.3004
▁gentlemen	-10.3004
▁Captain	-10.3005
▁marine	-10.3005
▁green	-10.3005
▁categories	-10.3006
▁Shi	-10.3007
▁Life	-10.3007
▁super	-10.3007
▁Grand	-10.301
▁1991	-10.3011
▁stability	-10.3011
▁expression	-10.3021
▁recovery	-10.3021
▁Nice	-10.3024
▁measurement	-10.3025
▁reality	-10.3035
▁documentation	-10.3036
stat	-10.3044
▁researchers	-10.3046
▁1992	-10.3046
▁happening	-10.3048
DI	-10.305
▁lying	-10.3052
AG	-10.3054
▁extended	-10.3056
7%	-10.3059
▁advanced	-10.3061
▁36	-10.3065
▁performed	-10.3069
rant	-10.3078
oh	-10.3078
▁pan	-10.308
making	-10.309
CP	-10.3093
36	-10.3096
ji	-10.3104
▁earn	-10.3108
cast	-10.3108
▁older	-10.312
EU	-10.3122
2008	-10.3128
▁prepare	-10.3137
▁propose	-10.3138
gin	-10.3144
▁recorded	-10.3145
▁Access	-10.3147
▁Site	-10.3149
▁Chi	-10.3151
ida	-10.3153
▁demonstrate	-10.3155
una	-10.3155
▁careful	-10.3158
uit	-10.3161
night	-10.3163
▁ice	-10.3165
▁flu	-10.3171
▁Develop	-10.3172
▁Measure	-10.3176
▁appreciate	-10.3176
▁argument	-10.3176
▁built	-10.3176
▁concrete	-10.3176
▁examination	-10.3176
▁excellent	-10.3176
▁supplement	-10.3176
▁Furthermore	-10.3176
▁comply	-10.3176
▁patent	-10.3176
▁Church	-10.3176
▁Italian	-10.3177
▁description	-10.3177
▁chair	-10.3177
▁exposure	-10.3177
▁Prince	-10.3177
▁Green	-10.3178
▁residents	-10.3179
▁renew	-10.3179
▁Korea	-10.318
▁focused	-10.318
▁fool	-10.318
▁race	-10.3183
▁Common	-10.3191
▁outcome	-10.3191
cla	-10.3192
▁Long	-10.3193
▁cities	-10.3195
▁complaints	-10.3204
75	-10.3225
▁confirmed	-10.3225
199	-10.3228
▁leader	-10.3236
aries	-10.3237
▁allows	-10.3238
▁song	-10.3248
pend	-10.3249
EX	-10.3252
▁Page	-10.3255
▁seed	-10.3256
craft	-10.3263
▁screen	-10.3286
▁managers	-10.3287
▁spend	-10.3295
omic	-10.331
▁Cr	-10.3311
▁placed	-10.3314
2002	-10.3325
▁CC	-10.3325
▁38	-10.3331
cher	-10.3335
▁bitch	-10.3338
▁minister	-10.335
▁weak	-10.3351
1%	-10.3351
▁Energy	-10.3352
▁Netherlands	-10.3352
▁declaration	-10.3352
▁holiday	-10.3352
▁yesterday	-10.3352
▁complement	-10.3352
▁digital	-10.3352
▁instead	-10.3352
▁amazing	-10.3352
▁Syria	-10.3352
▁movie	-10.3352
▁Legal	-10.3352
▁Something	-10.3352
▁warning	-10.3352
▁competent	-10.3352
▁transmission	-10.3353
▁vital	-10.3353
▁weather	-10.3353
▁Chairman	-10.3353
▁saving	-10.3354
▁finger	-10.3355
▁membership	-10.3356
▁Recommendation	-10.3356
burg	-10.3358
▁Frank	-10.3366
▁camera	-10.3372
rum	-10.3377
▁healthy	-10.3378
▁Both	-10.3379
▁PM	-10.3393
▁opened	-10.3399
▁elections	-10.3399
▁signal	-10.3411
▁historical	-10.3414
4%	-10.3415
Com	-10.3423
▁Pay	-10.3426
vel	-10.3431
▁Statement	-10.3432
▁log	-10.3434
room	-10.3435
MO	-10.344
▁provisional	-10.3451
▁functions	-10.346
▁closely	-10.3461
lov	-10.3462
▁learned	-10.3464
▁Bri	-10.3469
▁wage	-10.348
print	-10.3482
▁goals	-10.3492
▁loved	-10.3497
▁Char	-10.3501
It	-10.3513
▁fill	-10.3514
▁heading	-10.3524
read	-10.3525
rib	-10.3529
▁corporate	-10.353
▁subsection	-10.353
▁CIHR	-10.353
▁summary	-10.353
▁Should	-10.353
▁colour	-10.353
▁interpretation	-10.353
▁GDP	-10.353
▁creating	-10.353
▁blue	-10.353
▁heaven	-10.353
▁tired	-10.3531
▁smart	-10.3531
▁producers	-10.3531
▁Change	-10.3531
▁kiss	-10.3531
▁urgent	-10.3532
▁whom	-10.3534
▁solve	-10.3534
▁Alberta	-10.3535
64	-10.3535
▁respondent	-10.3537
nstitutional	-10.3538
▁adjustment	-10.354
▁pool	-10.354
▁ECU	-10.3541
rie	-10.3544
non	-10.3549
▁terrorism	-10.3555
▁turned	-10.3556
▁obligation	-10.356
▁examined	-10.3562
▁whi	-10.3562
hop	-10.3565
plan	-10.357
▁300	-10.3571
lay	-10.3574
▁candidates	-10.3578
▁shape	-10.3581
▁expenditures	-10.359
▁armed	-10.3594
pan	-10.3595
▁players	-10.3602
lk	-10.3613
ati	-10.3636
▁Forces	-10.3641
▁collect	-10.365
▁Mark	-10.3653
▁linked	-10.3657
last	-10.3663
▁improved	-10.3665
unk	-10.3667
▁institution	-10.3681
▁Jan	-10.3682
ura	-10.3691
▁VI	-10.3699
▁competitive	-10.371
▁Delegation	-10.3712
▁Michael	-10.3712
▁accomplish	-10.3712
▁certificate	-10.3712
▁recipient	-10.3712
▁statistical	-10.3712
▁transparency	-10.3712
▁urban	-10.3712
▁Defence	-10.3712
▁Additional	-10.3712
▁smoke	-10.3712
▁Leave	-10.3712
▁honor	-10.3712
▁forecast	-10.3712
▁Next	-10.3712
▁telephone	-10.3712
▁distinct	-10.3712
▁Cooperation	-10.3713
▁severe	-10.3713
▁Ireland	-10.3713
▁advise	-10.3713
▁Moreover	-10.3714
▁terrorist	-10.3714
▁formula	-10.3717
▁sitting	-10.3717
▁delay	-10.372
▁temp	-10.372
▁output	-10.3731
▁teacher	-10.376
▁driver	-10.3769
▁treated	-10.3779
system	-10.3805
(3)	-10.3812
4)	-10.3814
phone	-10.3816
zone	-10.3823
▁certainly	-10.3832
▁appears	-10.3833
UM	-10.3836
eth	-10.3837
▁marketing	-10.3856
▁mention	-10.3862
▁charges	-10.3865
▁teachers	-10.3867
dependent	-10.3875
▁consequences	-10.3888
▁settle	-10.3896
▁Agriculture	-10.3897
▁Brazil	-10.3897
▁Framework	-10.3897
▁Mexico	-10.3897
▁confidence	-10.3897
▁imagine	-10.3897
▁volunteer	-10.3897
▁burden	-10.3897
▁absence	-10.3897
▁defence	-10.3897
▁relax	-10.3897
▁smell	-10.3897
▁WIPO	-10.3897
▁Training	-10.3897
▁scientific	-10.3899
▁pipe	-10.3899
▁rail	-10.39
▁Wind	-10.39
▁Stay	-10.3903
▁grand	-10.3903
▁civilian	-10.3904
▁Tele	-10.3907
▁shop	-10.3908
▁IV	-10.391
▁elector	-10.3912
▁mechanisms	-10.3914
▁Name	-10.3915
▁latest	-10.3917
▁Six	-10.3921
▁retain	-10.3924
▁COM	-10.3924
imp	-10.3927
oke	-10.3934
▁Main	-10.3941
▁tr	-10.3942
▁closer	-10.3944
▁agent	-10.3948
▁Forum	-10.3952
oma	-10.3963
▁feet	-10.3965
▁vehicles	-10.3966
▁amend	-10.3968
▁employed	-10.3978
▁none	-10.398
▁charged	-10.3982
▁Av	-10.3987
[	-10.3993
▁cry	-10.3994
▁sin	-10.3998
▁mainly	-10.4004
gr	-10.4005
▁dig	-10.4015
▁talked	-10.4022
▁firms	-10.4025
ENT	-10.4038
▁register	-10.404
▁fees	-10.4042
▁cat	-10.4046
▁habitat	-10.4055
▁provinces	-10.4071
rin	-10.4073
gree	-10.4078
65	-10.4082
▁compli	-10.4084
▁Gi	-10.4085
▁division	-10.4086
▁identity	-10.4086
▁prosecut	-10.4086
▁recognition	-10.4086
▁servant	-10.4086
▁Network	-10.4086
▁binding	-10.4086
▁Third	-10.4086
▁infection	-10.4086
▁ladies	-10.4086
▁Advisor	-10.4086
▁Spain	-10.4086
▁decade	-10.4086
▁strike	-10.4086
▁Sunday	-10.4087
▁coordination	-10.4087
▁photograph	-10.4087
▁numer	-10.4087
▁plus	-10.4088
▁Hotel	-10.4088
▁fellow	-10.4089
▁pal	-10.4089
▁Order	-10.4092
▁weekend	-10.4092
▁rare	-10.4092
▁pray	-10.41
▁Description	-10.4105
▁journalist	-10.4106
▁transportation	-10.4111
▁greatest	-10.4112
▁profit	-10.4121
▁substances	-10.4123
▁Really	-10.4129
▁secondary	-10.4139
▁ban	-10.4142
▁Bro	-10.4143
▁larger	-10.4144
▁wear	-10.4146
▁speaking	-10.4147
EE	-10.4149
▁acknowledge	-10.4156
loc	-10.4166
toxic	-10.417
phi	-10.4172
even	-10.4178
wood	-10.4187
Add	-10.419
▁rank	-10.4191
▁dealing	-10.4218
▁Bell	-10.4222
▁exists	-10.4222
▁Yo	-10.4225
NG	-10.4228
▁PRO	-10.4233
▁um	-10.4233
AF	-10.4234
▁cit	-10.4275
▁Company	-10.4278
▁Saturday	-10.4278
▁Summary	-10.4278
▁Summit	-10.4278
▁Further	-10.4278
▁Museum	-10.4278
▁disappear	-10.4278
▁twice	-10.4278
▁Status	-10.4278
▁Black	-10.4278
▁pursue	-10.4278
▁Finance	-10.4278
▁ensuring	-10.4278
▁predict	-10.4278
▁profile	-10.4278
▁church	-10.4279
▁laugh	-10.4279
▁memory	-10.4279
ssurance	-10.4279
▁truck	-10.4281
▁Drug	-10.4283
▁Angel	-10.4283
▁Reference	-10.4284
▁wake	-10.4285
▁root	-10.4286
▁stick	-10.4288
▁effectiveness	-10.4288
▁mile	-10.4292
▁offence	-10.4295
▁$5	-10.4301
▁treaty	-10.4314
▁scared	-10.4316
▁fourth	-10.4319
▁cook	-10.4323
ora	-10.4327
▁feature	-10.4334
▁represented	-10.4334
-12	-10.4343
▁becoming	-10.4345
▁organisations	-10.439
▁Bay	-10.4391
oun	-10.4393
hand	-10.4415
▁agents	-10.4431
▁watching	-10.4431
▁Kar	-10.4433
▁accounting	-10.4449
▁resolve	-10.4457
▁outcomes	-10.4459
................	-10.4474
▁bottom	-10.4474
▁coffee	-10.4474
▁comparison	-10.4474
▁determining	-10.4474
▁harvest	-10.4474
▁identification	-10.4474
▁installation	-10.4474
▁possibility	-10.4474
▁recruit	-10.4474
▁religious	-10.4474
▁religion	-10.4474
▁ticket	-10.4474
▁club	-10.4474
▁steal	-10.4475
bri	-10.4475
▁Peace	-10.4476
▁Robert	-10.4476
▁atmosphere	-10.4479
▁understood	-10.4479
▁bomb	-10.4479
▁Click	-10.448
▁soil	-10.4481
▁lady	-10.4481
▁nobody	-10.4482
▁stole	-10.4484
▁spot	-10.4488
▁mail	-10.4492
▁king	-10.4492
▁square	-10.4493
▁respectively	-10.4494
▁brain	-10.4496
▁engaged	-10.4501
▁loans	-10.4506
▁Bull	-10.451
▁boss	-10.451
▁style	-10.4513
▁broke	-10.4515
▁launched	-10.452
▁button	-10.454
▁cells	-10.4542
▁deem	-10.4542
ball	-10.4543
▁cycle	-10.4558
▁bringing	-10.4561
▁hero	-10.4564
▁pop	-10.4569
ville	-10.4575
▁reviewed	-10.4575
tech	-10.4578
▁ya	-10.4579
▁sad	-10.4605
▁features	-10.4616
ography	-10.4618
▁BE	-10.4624
▁launch	-10.4628
awn	-10.4629
rmal	-10.463
▁decrease	-10.4635
▁moved	-10.4647
▁immediate	-10.4648
ano	-10.4652
▁fee	-10.4652
▁gen	-10.4659
▁van	-10.4662
7/	-10.4662
etween	-10.4671
▁favor	-10.4673
▁municipal	-10.4673
▁Class	-10.4674
▁Technology	-10.4674
▁alcohol	-10.4674
▁attitude	-10.4674
▁availability	-10.4674
▁collaboration	-10.4674
▁equivalent	-10.4674
▁innovative	-10.4674
▁neither	-10.4674
▁receipt	-10.4674
▁supplies	-10.4674
▁battle	-10.4674
▁consolidat	-10.4674
▁graduat	-10.4674
▁Bureau	-10.4674
▁multiple	-10.4674
▁White	-10.4674
▁storage	-10.4674
▁explore	-10.4674
▁Doctor	-10.4674
▁decline	-10.4674
▁northern	-10.4676
▁taste	-10.4676
▁cancer	-10.4677
▁Romania	-10.4677
▁glad	-10.468
▁colon	-10.4682
▁Latin	-10.4682
▁AT	-10.4685
▁representation	-10.4692
▁Israeli	-10.4702
▁drawn	-10.4713
▁busy	-10.4716
well	-10.4725
▁failed	-10.4731
▁$3	-10.4756
▁statu	-10.4757
▁estimates	-10.4757
▁acting	-10.477
▁west	-10.4775
PR	-10.4777
▁ideal	-10.4789
load	-10.4794
with	-10.48
-8	-10.48
▁killer	-10.4803
▁mode	-10.481
▁que	-10.4823
▁filed	-10.4828
ees	-10.4846
▁37	-10.4851
life	-10.4853
resident	-10.4855
▁Item	-10.4856
▁Permanent	-10.4878
▁Survey	-10.4878
▁Switzerland	-10.4878
▁evaluate	-10.4878
▁principal	-10.4878
▁sensitive	-10.4878
▁worried	-10.4878
▁honour	-10.4878
▁modified	-10.4878
▁repair	-10.4878
▁Staff	-10.4878
▁William	-10.4878
▁speech	-10.4878
▁Civil	-10.4879
▁changing	-10.4879
▁escape	-10.4879
▁corner	-10.4879
▁Type	-10.4879
▁barrier	-10.4879
▁James	-10.4879
▁scene	-10.4879
▁introduction	-10.4879
▁genetic	-10.488
▁occurred	-10.4881
▁weird	-10.4881
▁background	-10.4882
▁anybody	-10.4884
▁anywhere	-10.4884
▁proof	-10.4884
▁panel	-10.4885
▁Market	-10.4885
▁winter	-10.4887
▁Jean	-10.4888
▁equality	-10.4891
▁Master	-10.4891
▁Prepar	-10.4893
▁Port	-10.4899
▁accessible	-10.4899
Cause	-10.49
pul	-10.4907
▁coast	-10.4907
▁attached	-10.4912
lib	-10.4915
▁removed	-10.4915
▁index	-10.4916
▁Ph	-10.4921
zer	-10.4926
▁helped	-10.4935
▁arrested	-10.4936
▁mon	-10.495
▁measured	-10.4954
▁participat	-10.497
▁Ya	-10.497
take	-10.4974
▁transactions	-10.4976
▁strongly	-10.4978
Co	-10.4979
▁Cam	-10.4984
▁involves	-10.4985
PL	-10.4996
▁manager	-10.5005
▁achiev	-10.5008
▁drinking	-10.5009
▁command	-10.5019
2006	-10.5022
pr	-10.5029
UST	-10.5039
wide	-10.504
ij	-10.504
ena	-10.5043
▁ear	-10.5044
▁Gar	-10.5047
DS	-10.5048
▁tru	-10.5051
umber	-10.5054
SR	-10.5058
▁fly	-10.5079
▁danger	-10.5085
cap	-10.5085
▁Afghanistan	-10.5087
▁Customs	-10.5087
▁Treasur	-10.5087
▁Tuesday	-10.5087
▁Welcome	-10.5087
▁continuous	-10.5087
▁council	-10.5087
▁easily	-10.5087
▁occupation	-10.5087
▁subparagraph	-10.5087
▁Austria	-10.5087
▁Chamber	-10.5087
▁Watch	-10.5087
▁lunch	-10.5087
▁carbon	-10.5087
▁Sometimes	-10.5087
▁split	-10.5087
▁strict	-10.5087
▁latter	-10.5087
▁convert	-10.5087
▁Risk	-10.5087
▁Monday	-10.5088
▁repeat	-10.5088
▁capture	-10.5088
▁disaster	-10.5088
▁rough	-10.5089
▁sharing	-10.5089
▁electricity	-10.509
▁hunt	-10.5092
▁spring	-10.5093
▁standing	-10.5094
▁motion	-10.5095
▁wire	-10.5096
▁enterprises	-10.5099
▁represents	-10.5105
▁broken	-10.5109
▁elected	-10.5113
▁suffering	-10.5125
▁thereof	-10.5127
▁stable	-10.513
IG	-10.5151
▁55	-10.5167
▁monthly	-10.5169
gel	-10.5174
▁organisation	-10.5177
▁label	-10.5184
▁skill	-10.5194
asp	-10.5194
9%	-10.5202
national	-10.521
6%	-10.5212
▁39	-10.5222
communi	-10.523
▁Hol	-10.5231
▁Care	-10.5232
tude	-10.5235
fil	-10.5237
LY	-10.5241
▁AD	-10.5247
fish	-10.5254
▁periodic	-10.5257
MB	-10.526
▁Fo	-10.5263
▁owe	-10.5276
▁construct	-10.5292
Le	-10.5295
▁wild	-10.53
▁Australia	-10.53
▁Chinese	-10.53
▁abandon	-10.53
▁agriculture	-10.53
▁celebrate	-10.53
▁colleague	-10.53
▁combined	-10.53
▁judicial	-10.53
▁supplier	-10.53
▁tariff	-10.53
▁Budget	-10.53
▁afternoon	-10.53
▁suspect	-10.53
▁Actually	-10.53
▁Contact	-10.53
▁investigate	-10.53
▁NGO	-10.53
▁adverse	-10.53
▁color	-10.53
▁estate	-10.53
▁Indeed	-10.5301
▁introduce	-10.5301
▁magic	-10.5301
▁shoe	-10.5301
▁Branch	-10.5301
▁railway	-10.5301
▁fault	-10.5302
▁integrity	-10.5304
▁Media	-10.5306
▁covering	-10.5308
▁specifically	-10.531
▁crop	-10.5315
▁Allah	-10.5316
▁bless	-10.5322
▁tele	-10.5323
▁offering	-10.5325
▁tie	-10.5326
▁Whereas	-10.5329
▁Wow	-10.533
▁rejected	-10.5341
▁teaching	-10.5356
▁recall	-10.5357
▁tender	-10.537
-3	-10.5383
▁CN	-10.5388
▁Deb	-10.5392
▁Joe	-10.5396
/10	-10.5397
range	-10.5411
▁flat	-10.5413
▁license	-10.5414
field	-10.5424
▁01	-10.5426
▁Sho	-10.5431
2.3	-10.5432
▁entered	-10.5438
WA	-10.5442
▁Account	-10.5445
▁soldiers	-10.5446
▁remove	-10.5478
▁examine	-10.5479
-5	-10.5485
RT	-10.5502
▁bro	-10.5516
▁Building	-10.5517
▁Implementation	-10.5517
▁Pacific	-10.5517
▁Resolution	-10.5517
▁communicate	-10.5517
▁continuing	-10.5517
▁ourselves	-10.5517
▁satellite	-10.5517
▁secretariat	-10.5517
▁universal	-10.5517
▁mobile	-10.5517
▁remote	-10.5517
▁chief	-10.5517
▁stories	-10.5517
▁honest	-10.5517
▁switch	-10.5517
▁evil	-10.5517
▁Iran	-10.5517
▁famous	-10.5518
▁birthday	-10.5518
▁Eastern	-10.5519
▁jump	-10.5519
▁chapter	-10.5519
▁Ltd	-10.5522
▁showing	-10.5524
▁1989	-10.5524
▁capable	-10.5525
▁push	-10.5527
AY	-10.5529
▁coverage	-10.5533
▁Mag	-10.5533
▁lucky	-10.554
▁Never	-10.5543
▁putting	-10.5545
▁Sco	-10.5547
▁SU	-10.5558
▁attribut	-10.556
OJ	-10.5575
▁suggestion	-10.558
arian	-10.5582
▁involve	-10.5582
▁MO	-10.5585
And	-10.559
▁finished	-10.559
▁Fine	-10.5593
▁adults	-10.5598
IVE	-10.5601
▁70	-10.5602
▁disc	-10.561
eather	-10.5614
▁PO	-10.5617
tract	-10.5628
▁qua	-10.5634
▁soul	-10.5641
▁marked	-10.5652
▁beach	-10.5656
▁customer	-10.5656
round	-10.5661
free	-10.5664
DR	-10.567
IES	-10.5681
▁Tel	-10.5692
ella	-10.5696
VE	-10.5699
▁Bon	-10.5699
▁BC	-10.5708
▁Cat	-10.5717
▁recover	-10.5718
▁luck	-10.5723
▁faith	-10.5734
operative	-10.5736
▁Administration	-10.5739
▁Appendix	-10.5739
▁Richard	-10.5739
▁democracy	-10.5739
▁extensive	-10.5739
▁immigrant	-10.5739
▁rapporteur	-10.5739
▁detention	-10.5739
▁easier	-10.5739
▁Foundation	-10.5739
▁Results	-10.5739
▁crucial	-10.5739
▁Family	-10.5739
▁preparing	-10.5739
▁ocean	-10.5739
▁intention	-10.5739
▁Christmas	-10.5739
▁Earth	-10.5739
▁Madam	-10.574
▁tourism	-10.574
▁Louis	-10.574
▁solid	-10.574
▁Center	-10.574
▁till	-10.574
▁biological	-10.5741
▁bird	-10.5741
▁existence	-10.5742
▁Print	-10.5742
▁caught	-10.5743
▁internet	-10.5743
▁Team	-10.5744
▁conform	-10.5745
▁Someone	-10.5745
▁powerful	-10.5746
▁consent	-10.5751
▁difficulties	-10.5751
▁operators	-10.5752
▁mental	-10.5756
NS	-10.5762
▁pill	-10.5776
▁pure	-10.5787
ridge	-10.5789
▁Mary	-10.579
▁comm	-10.5799
▁plane	-10.5807
▁regularly	-10.5807
▁previously	-10.5818
ison	-10.5825
▁container	-10.583
▁Star	-10.5831
aster	-10.5831
▁fulfill	-10.5833
▁fan	-10.5839
▁believed	-10.5849
ACE	-10.585
▁transaction	-10.5859
▁Bru	-10.5862
osis	-10.5869
ifying	-10.587
ART	-10.587
This	-10.5875
uri	-10.5884
ION	-10.5898
▁Say	-10.5903
2011	-10.5909
▁restrict	-10.592
▁expand	-10.5923
▁Ray	-10.5926
▁paint	-10.5928
▁replace	-10.5931
▁observations	-10.5932
▁realize	-10.5935
governmental	-10.5938
▁Pan	-10.594
TM	-10.5956
▁Investment	-10.5966
▁Manitoba	-10.5966
▁Revenue	-10.5966
▁Washington	-10.5966
▁appropriation	-10.5966
▁diversity	-10.5966
▁pregnant	-10.5966
▁quantity	-10.5966
▁structural	-10.5966
▁suicide	-10.5966
▁ethnic	-10.5966
▁explanation	-10.5966
▁yield	-10.5966
▁Labour	-10.5966
▁precise	-10.5966
▁indication	-10.5966
▁Specific	-10.5966
▁counsel	-10.5967
▁snow	-10.5967
▁Street	-10.5967
▁Royal	-10.5967
▁Shut	-10.5967
▁carrier	-10.5967
▁Turn	-10.5969
apital	-10.5971
▁kick	-10.5971
PDF	-10.5974
▁trick	-10.5977
▁suitable	-10.5977
▁Draft	-10.5983
itz	-10.5984
aving	-10.5984
▁delete	-10.5987
▁manual	-10.5988
▁portion	-10.5992
▁imposed	-10.5993
▁kg	-10.5995
▁tub	-10.5995
▁guard	-10.5998
▁02	-10.6001
▁lived	-10.6006
▁army	-10.6008
▁Whatever	-10.6011
▁decreased	-10.6011
▁expanded	-10.6013
▁keeping	-10.6013
▁increasingly	-10.6025
euro	-10.6029
face	-10.6029
▁taxes	-10.6029
▁demonstrated	-10.6032
▁wave	-10.6033
-03	-10.6037
▁pot	-10.6044
▁Ow	-10.6048
▁encouraged	-10.6057
▁missed	-10.606
▁41	-10.607
▁Gal	-10.6082
▁Nova	-10.6088
right	-10.6108
▁Coll	-10.6112
▁Fran	-10.6135
▁nose	-10.6147
▁destroy	-10.6153
article	-10.6157
uv	-10.6159
down	-10.6162
▁Start	-10.6173
▁Govern	-10.6174
ographic	-10.6176
FR	-10.618
▁mal	-10.6185
list	-10.6199
▁Previous	-10.6199
▁Bulgaria	-10.6199
▁Criminal	-10.6199
▁Egypt	-10.6199
▁Initiative	-10.6199
▁Professor	-10.6199
▁completion	-10.6199
▁exclusive	-10.6199
▁university	-10.6199
▁Agenda	-10.6199
▁pleasure	-10.6199
▁slightly	-10.6199
▁biggest	-10.6199
▁mutual	-10.6199
▁voting	-10.6199
▁commit	-10.6199
▁Scott	-10.62
▁indigenous	-10.62
▁preced	-10.62
▁Child	-10.62
▁brand	-10.6202
▁wound	-10.6203
▁involvement	-10.6203
▁somewhere	-10.6205
▁proper	-10.6206
case	-10.6207
oli	-10.6209
▁crew	-10.6211
▁Mm	-10.6211
CN	-10.6212
▁flowers	-10.6217
▁allowance	-10.6217
▁UK	-10.6221
▁assigned	-10.6224
▁considerable	-10.6224
▁accountability	-10.6225
ibility	-10.6226
▁peaceful	-10.6227
uel	-10.6237
▁relatively	-10.6242
▁connected	-10.6242
▁destroyed	-10.6246
▁(5	-10.6247
bar	-10.6255
▁pig	-10.6259
▁Tu	-10.6266
▁Forest	-10.6269
▁funded	-10.6274
▁rain	-10.6276
▁rev	-10.6299
▁estimate	-10.6301
For	-10.6302
▁enhanced	-10.6308
▁lend	-10.6315
how	-10.6316
rgen	-10.6317
▁techniques	-10.6326
/12/	-10.6334
nin	-10.6351
key	-10.6352
▁Arm	-10.6352
▁carrying	-10.6362
▁85	-10.6368
▁publish	-10.6391
▁reject	-10.6391
▁Run	-10.6397
▁define	-10.6398
▁Sit	-10.6399
▁rapid	-10.641
frame	-10.6428
▁arrange	-10.6432
trategic	-10.6434
▁neighbor	-10.6437
▁pharmac	-10.6437
▁Procedure	-10.6437
▁Publish	-10.6437
▁college	-10.6437
▁emphasis	-10.6437
▁manufacturing	-10.6437
▁monetary	-10.6437
▁procurement	-10.6437
▁protocol	-10.6437
▁struggle	-10.6437
▁illegal	-10.6437
▁regret	-10.6437
▁borrow	-10.6437
▁climb	-10.6437
▁mouth	-10.6437
▁Paragraph	-10.6437
▁Content	-10.6437
▁chain	-10.6438
▁derive	-10.6438
▁torture	-10.6438
▁Import	-10.6438
▁Remember	-10.6439
▁shock	-10.6439
▁bridge	-10.6441
▁Point	-10.6441
▁deserve	-10.6442
▁terrible	-10.6443
▁Charter	-10.6443
▁huge	-10.6443
Yes	-10.6445
▁indeed	-10.6446
depth	-10.6452
▁tight	-10.6453
lim	-10.6454
▁absolutely	-10.6454
▁wedding	-10.6457
▁hydro	-10.6459
▁hide	-10.6464
▁properly	-10.6465
▁dimension	-10.6465
▁scar	-10.6469
town	-10.6474
wan	-10.6476
▁Nation	-10.6484
▁thereby	-10.6487
▁collected	-10.6498
▁filled	-10.6499
▁pleased	-10.6503
▁poll	-10.6509
▁ski	-10.6513
▁appeared	-10.6526
▁detail	-10.6545
▁Ven	-10.6558
▁Cap	-10.656
NO	-10.6561
▁participated	-10.657
anda	-10.6575
rated	-10.6582
▁reli	-10.6588
>	-10.6588
▁adult	-10.6593
dding	-10.6602
just	-10.6631
▁totally	-10.6645
▁intend	-10.6652
▁Creat	-10.6657
nia	-10.6657
west	-10.6658
▁integr	-10.6662
▁informal	-10.6665
▁ratio	-10.6666
▁attract	-10.6678
▁Application	-10.6681
▁Partnership	-10.6681
▁Schedule	-10.6681
▁Society	-10.6681
▁Sustainable	-10.6681
▁Temperature	-10.6681
▁appellant	-10.6681
▁disclosure	-10.6681
▁impossible	-10.6681
▁incorporated	-10.6681
▁judgment	-10.6681
▁unemployment	-10.6681
▁Geneva	-10.6681
▁Sweden	-10.6681
▁hurry	-10.6681
▁eliminate	-10.6681
▁gift	-10.6681
▁duration	-10.6681
▁prospect	-10.6681
▁Position	-10.6681
▁entities	-10.6681
▁Damn	-10.6681
▁technological	-10.6682
▁mobility	-10.6682
▁tested	-10.6682
/2004	-10.6682
▁liter	-10.6682
▁Japanese	-10.6682
▁warrant	-10.6683
▁Queen	-10.6683
▁composition	-10.6683
▁stopped	-10.6684
▁Christian	-10.6686
▁permission	-10.6688
▁1980	-10.669
▁blog	-10.6691
▁Paper	-10.6691
rma	-10.6693
gov	-10.6693
▁Rapporteur	-10.6696
▁boot	-10.6697
▁obviously	-10.6702
▁declared	-10.6705
rine	-10.6705
▁distributed	-10.6707
▁restore	-10.6709
FF	-10.6712
▁rose	-10.6714
▁arrived	-10.6715
▁Chair	-10.672
▁mm	-10.6726
▁150	-10.6736
▁43	-10.6742
▁killing	-10.6755
ku	-10.6755
▁65	-10.6755
▁sec	-10.6757
▁48	-10.6763
▁Pass	-10.6778
▁Ze	-10.6789
▁relate	-10.6791
▁saved	-10.6797
▁neighbour	-10.6797
▁explained	-10.6797
▁gene	-10.6799
ew	-10.6802
▁47	-10.6815
▁Test	-10.6817
▁(5)	-10.6828
56	-10.6837
▁Big	-10.6857
PT	-10.6859
▁DI	-10.686
other	-10.687
▁connect	-10.687
▁56	-10.6879
person	-10.6891
▁assume	-10.6892
2010	-10.6901
lement	-10.6913
berg	-10.692
▁57	-10.6929
▁Administrative	-10.6931
▁Current	-10.6931
▁Kosovo	-10.6931
▁Nevertheless	-10.6931
▁Pakistan	-10.6931
▁Unfortunately	-10.6931
▁convince	-10.6931
▁familiar	-10.6931
▁mortality	-10.6931
▁pollution	-10.6931
▁significance	-10.6931
▁succeed	-10.6931
▁territories	-10.6931
▁twenty	-10.6931
▁vulnerable	-10.6931
▁Heritage	-10.6931
▁Proposal	-10.6931
▁liquid	-10.6931
▁concentrate	-10.6931
▁prescribed	-10.6931
▁sought	-10.6931
▁Option	-10.6931
▁enemy	-10.6931
▁Berlin	-10.6931
▁comprise	-10.6931
▁Several	-10.6931
▁allocation	-10.6931
▁marry	-10.6931
▁Internal	-10.6931
▁voluntary	-10.6931
▁Countries	-10.6932
▁Issue	-10.6932
▁sharp	-10.6932
▁relief	-10.6932
▁surveillance	-10.6932
▁temporary	-10.6933
▁excessive	-10.6933
▁Full	-10.6933
▁comfortable	-10.6934
▁worldwide	-10.6935
▁salary	-10.6936
▁lab	-10.6937
▁uncle	-10.694
▁Cuba	-10.6941
rank	-10.6945
▁lake	-10.6946
▁Super	-10.6947
pot	-10.6947
▁Dec	-10.6949
▁Roman	-10.6952
▁Sun	-10.6959
▁sail	-10.696
ico	-10.698
▁Pen	-10.6983
▁Grant	-10.6987
▁Given	-10.6987
▁Move	-10.7003
▁Stan	-10.7012
Go	-10.7015
▁prefer	-10.7017
▁formed	-10.7018
▁GO	-10.7024
▁Vol	-10.7037
1999	-10.7042
▁poly	-10.7049
ule	-10.7059
run	-10.706
▁Bye	-10.7065
▁sponsor	-10.7071
▁USA	-10.7078
▁maintained	-10.7087
economic	-10.7095
direct	-10.7099
gua	-10.71
▁Love	-10.7104
▁Hall	-10.7107
▁Ok	-10.7122
ALL	-10.7128
▁salt	-10.713
▁42	-10.7133
▁conclude	-10.7148
▁seal	-10.7157
▁teach	-10.7165
▁forced	-10.7179
▁hazard	-10.7185
▁Perhaps	-10.7187
▁Prevention	-10.7187
▁accommodation	-10.7187
▁audience	-10.7187
▁bastard	-10.7187
▁deficit	-10.7187
▁disabilities	-10.7187
▁implications	-10.7187
▁newspaper	-10.7187
▁possibly	-10.7187
▁recognise	-10.7187
▁survive	-10.7187
▁tobacco	-10.7187
▁Charlie	-10.7187
▁herself	-10.7187
▁signature	-10.7187
▁allocated	-10.7187
▁continent	-10.7187
▁fisheries	-10.7187
▁translation	-10.7187
▁Quality	-10.7187
▁Study	-10.7187
▁Ocean	-10.7187
▁WTO	-10.7187
▁Guidelines	-10.7188
▁[...]	-10.7188
▁protest	-10.7188
▁inflation	-10.7188
▁Pension	-10.7188
▁substanti	-10.7189
▁restrictions	-10.7189
▁calm	-10.719
▁Everyone	-10.719
▁Travel	-10.7191
▁transferred	-10.7192
▁bullet	-10.7193
▁Top	-10.7193
html	-10.7195
▁tough	-10.7195
fall	-10.7196
▁plate	-10.7202
wise	-10.7202
▁assure	-10.7203
▁Road	-10.7206
▁authorized	-10.7208
▁vary	-10.7213
▁refin	-10.7215
RES	-10.7218
▁Men	-10.7218
▁Nick	-10.7219
▁accused	-10.7219
▁aged	-10.7224
▁Matt	-10.7224
▁classes	-10.7226
▁vol	-10.7227
▁entirely	-10.7265
preme	-10.7272
▁64	-10.7278
▁formation	-10.7302
/2006	-10.7311
▁smaller	-10.7326
▁EN	-10.7329
▁Del	-10.7341
worth	-10.7358
stone	-10.7366
word	-10.7375
▁candidate	-10.7381
▁04	-10.7383
lecommunications	-10.7388
fold	-10.7392
▁kit	-10.7401
▁Van	-10.7412
where	-10.7413
▁53	-10.7419
▁raw	-10.742
fur	-10.7435
link	-10.7436
▁None	-10.7438
▁Brunswick	-10.7451
▁Federation	-10.7451
▁Professional	-10.7451
▁anniversary	-10.7451
▁dedicated	-10.7451
▁excited	-10.7451
▁girlfriend	-10.7451
▁landscape	-10.7451
▁qualification	-10.7451
▁residence	-10.7451
▁survival	-10.7451
▁invitation	-10.7451
▁garden	-10.7451
▁interaction	-10.7451
▁Detail	-10.7451
▁Website	-10.7451
▁steel	-10.7451
▁retail	-10.7451
▁lift	-10.7451
▁angry	-10.7451
▁tank	-10.7451
ploy	-10.7452
▁joke	-10.7453
jack	-10.7453
▁Country	-10.7453
▁complainant	-10.7455
roactive	-10.7455
▁Check	-10.7456
▁outstanding	-10.7456
▁email	-10.7459
▁deadline	-10.746
▁budgetary	-10.7466
zy	-10.7481
elling	-10.7482
▁calculated	-10.7485
▁Light	-10.749
▁Real	-10.75
▁player	-10.751
▁(6)	-10.7519
▁updated	-10.7524
▁seriously	-10.7555
▁notification	-10.757
▁assessed	-10.7574
▁planet	-10.758
**	-10.7585
GR	-10.7598
lab	-10.76
enny	-10.7603
ford	-10.7613
product	-10.7626
including	-10.7628
para	-10.7639
ois	-10.7651
▁Ten	-10.766
▁44	-10.7711
▁Rose	-10.7712
stood	-10.7717
▁Lieutenant	-10.7721
▁thorough	-10.7721
▁Greece	-10.7721
▁Middle	-10.7721
▁Newfoundland	-10.7721
▁affairs	-10.7721
▁definitely	-10.7721
▁destination	-10.7721
▁divided	-10.7721
▁economies	-10.7721
▁guilty	-10.7721
▁platform	-10.7721
▁studied	-10.7721
▁Fisheries	-10.7721
▁fifth	-10.7721
▁fraud	-10.7721
▁segment	-10.7721
▁Address	-10.7721
▁Continu	-10.7721
▁advisor	-10.7721
▁eggs	-10.7721
▁Crime	-10.7722
▁kidding	-10.7722
▁opposition	-10.7722
▁Agent	-10.7722
▁Visit	-10.7722
▁Belgium	-10.7723
▁blame	-10.7723
▁therapy	-10.7723
▁corruption	-10.7723
▁screw	-10.7723
▁Anyway	-10.7726
▁determination	-10.7726
▁merit	-10.7727
▁Poland	-10.7727
▁edit	-10.7727
▁excuse	-10.7728
▁1988	-10.773
▁controlled	-10.7731
▁iron	-10.7732
▁Mother	-10.7732
▁Play	-10.7733
▁Martin	-10.7736
▁respective	-10.7739
▁frequently	-10.7739
▁edge	-10.7739
▁rapidly	-10.7751
▁carefully	-10.7766
▁Fact	-10.7769
▁tourist	-10.777
(1	-10.7774
▁bone	-10.7784
▁corresponding	-10.7785
▁normally	-10.7785
▁scheduled	-10.7793
▁Added	-10.7807
▁unto	-10.781
ider	-10.7812
▁Mike	-10.7813
▁screening	-10.7824
▁citizen	-10.7838
▁Line	-10.7842
▁Five	-10.7861
▁tradition	-10.7862
▁pose	-10.7869
▁imported	-10.7871
▁Earl	-10.7874
body	-10.7877
▁FR	-10.7907
▁pur	-10.7908
▁400	-10.7924
▁Bring	-10.7925
▁critic	-10.7926
2012	-10.7937
otic	-10.7984
▁shower	-10.7992
▁afford	-10.7994
▁Author	-10.7994
▁Luxembourg	-10.7999
▁Natural	-10.7999
▁Nuclear	-10.7999
▁Private	-10.7999
▁Technical	-10.7999
▁Yukon	-10.7999
▁buddy	-10.7999
▁consensus	-10.7999
▁frequency	-10.7999
▁multilateral	-10.7999
▁quantities	-10.7999
▁surplus	-10.7999
▁valuable	-10.7999
▁Release	-10.7999
▁Supplement	-10.7999
▁museum	-10.7999
▁questionnaire	-10.7999
▁routine	-10.7999
▁Trust	-10.7999
▁Speak	-10.7999
▁blind	-10.7999
▁summit	-10.7999
▁Field	-10.7999
▁swear	-10.7999
▁heritage	-10.7999
▁alleged	-10.7999
▁excluded	-10.7999
▁properties	-10.7999
▁stimulat	-10.7999
▁intelligence	-10.7999
▁entity	-10.8
▁ownership	-10.8
▁persist	-10.8001
▁spiritual	-10.8001
▁Charles	-10.8001
▁Close	-10.8003
▁minority	-10.8003
▁Judg	-10.8005
▁filing	-10.8005
▁Price	-10.8009
▁trail	-10.8012
▁farmers	-10.8012
▁actors	-10.8015
▁prop	-10.802
▁Too	-10.8022
hou	-10.8025
▁Basic	-10.8026
class	-10.8028
▁Rome	-10.8031
azi	-10.8038
▁assumed	-10.8043
▁preserve	-10.8051
▁initiat	-10.8064
▁Pop	-10.8072
▁Want	-10.8073
▁actively	-10.8098
▁wearing	-10.8101
▁Cast	-10.8115
800	-10.8116
▁limitation	-10.8126
▁Boy	-10.8134
▁selling	-10.8135
▁54	-10.8135
Islamic	-10.8138
▁correspond	-10.8146
employed	-10.8151
▁NOT	-10.8163
▁drawing	-10.817
operation	-10.8187
quality	-10.8204
fully	-10.8213
locate	-10.8224
▁engage	-10.8239
▁attach	-10.824
▁Him	-10.824
▁arrive	-10.8245
▁asset	-10.826
▁Ken	-10.826
▁analys	-10.827
▁exploit	-10.8276
▁minor	-10.8282
▁compete	-10.8283
exclud	-10.8284
▁Benefit	-10.8284
▁accurate	-10.8284
▁acquisition	-10.8284
▁bilateral	-10.8284
▁complicated	-10.8284
▁conservation	-10.8284
▁encounter	-10.8284
▁expansion	-10.8284
▁obstacle	-10.8284
▁qualified	-10.8284
▁reservation	-10.8284
▁sacrifice	-10.8284
▁taxpayer	-10.8284
▁Concern	-10.8284
▁England	-10.8284
▁Example	-10.8284
▁Insurance	-10.8284
▁uniform	-10.8284
▁Request	-10.8284
▁Senior	-10.8284
▁[1]	-10.8284
▁modification	-10.8284
nutrition	-10.8284
▁Culture	-10.8284
▁THAT	-10.8284
▁THIS	-10.8284
▁false	-10.8284
▁injury	-10.8284
▁incentive	-10.8285
wheel	-10.8285
▁Political	-10.8285
▁narrow	-10.8285
▁Phase	-10.8285
▁grave	-10.8286
▁Norway	-10.8287
▁taught	-10.8287
htm	-10.8287
▁contrary	-10.8287
▁forgot	-10.8288
▁Level	-10.8288
▁complaint	-10.8289
▁hook	-10.8289
▁copies	-10.829
▁radiation	-10.829
▁systematic	-10.8292
▁Interest	-10.8295
▁mill	-10.8295
▁trace	-10.8297
▁accompanied	-10.8299
▁Directorate	-10.83
▁Transportation	-10.8301
▁pump	-10.8303
▁coal	-10.8303
▁arise	-10.8304
▁sight	-10.8304
▁Show	-10.8306
iii	-10.8314
▁geographical	-10.8323
▁sand	-10.8326
▁musical	-10.8346
▁mono	-10.836
▁geo	-10.8371
▁accordingly	-10.8389
amine	-10.839
/2005	-10.8391
▁joined	-10.8401
bert	-10.8413
▁hole	-10.8428
page	-10.8438
▁manag	-10.844
/04/	-10.8445
▁0.0	-10.8459
▁ride	-10.8473
ité	-10.8482
▁Vice	-10.8485
2013	-10.8485
▁tip	-10.8485
▁gate	-10.8491
▁bath	-10.8506
▁End	-10.8513
hab	-10.8516
▁differ	-10.8526
▁weapon	-10.8542
▁1.1	-10.8545
▁Steve	-10.856
▁slo	-10.8562
▁undertake	-10.8568
▁admit	-10.8576
▁Disclosure	-10.8578
▁Presidency	-10.8578
▁Register	-10.8578
▁Saskatchewan	-10.8578
▁Studies	-10.8578
▁Subject	-10.8578
▁Ukraine	-10.8578
▁congratulate	-10.8578
▁custody	-10.8578
▁empty	-10.8578
▁journey	-10.8578
▁kitchen	-10.8578
▁necessarily	-10.8578
▁ordinary	-10.8578
▁privacy	-10.8578
▁satisfied	-10.8578
▁ultimate	-10.8578
▁Process	-10.8578
▁serving	-10.8578
▁revision	-10.8579
▁Until	-10.8579
▁Sector	-10.8579
▁Senate	-10.8579
▁Clear	-10.8579
▁nurse	-10.8579
▁cheap	-10.8579
▁peacekeeping	-10.8579
▁Leban	-10.8579
▁Standing	-10.8579
▁Everybody	-10.8579
▁Crown	-10.8579
▁executive	-10.8579
▁wealth	-10.858
▁devote	-10.858
▁Value	-10.858
▁facing	-10.8581
▁foster	-10.8581
▁everywhere	-10.8581
▁crack	-10.8581
▁Auto	-10.8581
▁southern	-10.8582
▁forgive	-10.8583
▁grew	-10.8584
▁bond	-10.8586
▁moral	-10.8587
▁Forget	-10.8588
▁NRC	-10.8588
▁grab	-10.859
▁1987	-10.859
ethyl	-10.8594
▁acceptable	-10.8596
▁50%	-10.8597
▁suck	-10.8598
▁transit	-10.8601
▁alter	-10.8602
▁coach	-10.8614
▁suffered	-10.8617
onne	-10.8628
▁Max	-10.863
▁widely	-10.8652
road	-10.8654
▁dro	-10.8663
▁Guy	-10.8665
▁Off	-10.8667
/2003	-10.8668
/2008	-10.867
▁Hill	-10.8676
▁guaranteed	-10.8691
▁facilitat	-10.8697
▁representing	-10.8702
▁Young	-10.8709
▁broadcasting	-10.8709
▁consulted	-10.8712
▁administer	-10.8743
2014	-10.8744
door	-10.8746
ike	-10.8752
ken	-10.8777
▁PR	-10.8802
▁Step	-10.8803
enne	-10.8816
▁adjust	-10.882
scale	-10.8831
▁invite	-10.8843
▁Tak	-10.8846
owned	-10.8861
▁Similar	-10.8881
Vancouver	-10.8881
▁Activities	-10.8881
▁Consumer	-10.8881
▁boyfriend	-10.8881
▁clothes	-10.8881
▁column	-10.8881
▁default	-10.8881
▁discharge	-10.8881
▁execution	-10.8881
▁fashion	-10.8881
▁flood	-10.8881
▁furniture	-10.8881
▁library	-10.8881
▁universities	-10.8881
▁College	-10.8881
▁delegate	-10.8881
▁organised	-10.8881
▁penalty	-10.8881
▁clause	-10.8882
▁refund	-10.8882
▁Greek	-10.8882
▁protein	-10.8882
▁Session	-10.8882
▁milk	-10.8882
▁slave	-10.8882
▁beauty	-10.8882
▁disorder	-10.8882
▁Montreal	-10.8882
▁Expert	-10.8882
▁organic	-10.8882
▁Edward	-10.8882
▁Scotia	-10.8882
▁Population	-10.8882
▁Still	-10.8882
▁Index	-10.8882
▁Simon	-10.8883
▁Relations	-10.8883
▁dissemination	-10.8884
▁supervision	-10.8885
▁History	-10.8886
▁illness	-10.8886
▁reproducti	-10.8887
▁permitted	-10.8887
▁metres	-10.8888
▁download	-10.889
▁exploitation	-10.889
▁renewable	-10.889
▁1985	-10.8891
▁Publications	-10.8891
▁1970	-10.8893
▁specialized	-10.8895
▁workplace	-10.8896
▁interim	-10.89
▁assumption	-10.8902
▁Lind	-10.8914
▁acquired	-10.8916
▁Relat	-10.8925
▁parliamentar	-10.8935
▁Fish	-10.8945
▁faster	-10.8947
▁wishes	-10.8954
▁server	-10.8956
▁accession	-10.8959
▁quota	-10.8959
▁Locat	-10.8962
▁Anti	-10.8978
▁painting	-10.8978
▁pour	-10.898
▁addresses	-10.898
▁height	-10.8983
▁attended	-10.9005
verse	-10.9009
▁trained	-10.9012
▁cable	-10.9013
war	-10.9018
▁welcomed	-10.9022
▁licensee	-10.9027
▁cycl	-10.9062
▁Photo	-10.9076
▁Mel	-10.9083
border	-10.9101
from	-10.9104
space	-10.9104
second	-10.9106
trans	-10.9116
blo	-10.9117
market	-10.9118
▁Arch	-10.9133
▁electric	-10.9134
▁Bob	-10.9148
▁suppose	-10.9155
▁approve	-10.9155
▁obvious	-10.9167
▁operator	-10.9176
▁enterprise	-10.9176
▁possess	-10.9186
▁inspect	-10.919
▁cease	-10.9191
tergovernmental	-10.9193
compatible	-10.9194
occupied	-10.9194
▁District	-10.9194
▁Employee	-10.9194
▁Hospital	-10.9194
▁Millennium	-10.9194
▁Performance	-10.9194
▁Portugal	-10.9194
▁Province	-10.9194
▁compromise	-10.9194
▁destruction	-10.9194
▁independence	-10.9194
▁smoking	-10.9194
▁tissue	-10.9194
▁Student	-10.9194
▁confess	-10.9194
▁Denmark	-10.9194
▁Czech	-10.9194
▁headquarters	-10.9194
▁pocket	-10.9194
▁fleet	-10.9194
▁abroad	-10.9194
▁innocent	-10.9194
▁gross	-10.9194
▁crash	-10.9194
▁outlined	-10.9195
▁Blue	-10.9195
▁storm	-10.9195
▁minorities	-10.9195
▁Though	-10.9196
▁Farm	-10.9196
▁unknown	-10.9197
▁Honey	-10.9197
▁Think	-10.9198
▁classified	-10.9198
▁grass	-10.9199
▁bright	-10.9199
▁engagement	-10.92
▁revolution	-10.9201
▁1984	-10.9203
▁1986	-10.9204
▁bigger	-10.9204
▁verify	-10.9205
▁sake	-10.9209
▁Feel	-10.9212
▁Yet	-10.9214
▁Governor	-10.9219
makers	-10.9221
▁observer	-10.9222
▁pair	-10.9222
▁Term	-10.9225
▁dynamic	-10.9237
▁threatened	-10.9238
▁adjusted	-10.9242
▁aspect	-10.9254
▁10%	-10.9258
▁rent	-10.9259
▁passion	-10.9263
▁Map	-10.9272
▁factory	-10.9279
▁adapted	-10.9281
▁hall	-10.9284
▁organizational	-10.9288
▁pulled	-10.929
olic	-10.9293
▁Asian	-10.9294
▁quote	-10.9307
▁Award	-10.9311
▁tea	-10.9311
▁Liv	-10.9316
▁Try	-10.933
ennis	-10.9333
metric	-10.9337
▁sheet	-10.9338
▁expir	-10.9338
▁classic	-10.9407
pass	-10.9408
group	-10.9424
▁Hand	-10.9426
▁tape	-10.9468
media	-10.9471
How	-10.9475
▁Final	-10.9491
▁CAN	-10.9506
emocratic	-10.9514
▁oppos	-10.9514
▁EUROPE	-10.9517
▁Response	-10.9517
▁advocate	-10.9517
▁arrival	-10.9517
▁certification	-10.9517
▁distinguish	-10.9517
▁flexibility	-10.9517
▁gradual	-10.9517
▁illustrate	-10.9517
▁magazine	-10.9517
▁rehabilitation	-10.9517
▁territorial	-10.9517
▁apparent	-10.9517
▁bottle	-10.9517
▁liberal	-10.9517
▁drunk	-10.9517
▁module	-10.9517
▁variation	-10.9517
▁ecological	-10.9517
▁UNDP	-10.9517
spiration	-10.9517
▁utiliz	-10.9517
▁macro	-10.9517
▁seminar	-10.9517
▁Certain	-10.9517
▁Wood	-10.9517
▁spouse	-10.9517
▁Henry	-10.9517
raising	-10.9517
▁rational	-10.9517
▁drag	-10.9517
▁reply	-10.9517
▁gear	-10.9518
▁desert	-10.9518
aught	-10.9518
▁emission	-10.9519
▁Britain	-10.9519
▁psycho	-10.9519
▁Update	-10.9519
▁Search	-10.9519
dominant	-10.9519
▁Kim	-10.952
▁perception	-10.952
▁Daddy	-10.952
▁equity	-10.9521
▁closing	-10.9521
▁somewhat	-10.9522
▁complexity	-10.9528
▁lamp	-10.9529
▁Nobody	-10.953
▁1.2	-10.9532
▁calculation	-10.9535
▁Hmm	-10.9537
▁HAS	-10.9539
EUR	-10.9547
▁ECB	-10.9549
EST	-10.9555
▁flag	-10.9558
▁moon	-10.9572
▁Jess	-10.9572
horn	-10.9593
▁cup	-10.9598
▁vast	-10.9601
▁correction	-10.9601
play	-10.9605
after	-10.962
▁Fire	-10.9626
lder	-10.9632
▁stronger	-10.9634
ultural	-10.9668
(1)(	-10.969
AGE	-10.97
▁reader	-10.9707
lop	-10.9712
specific	-10.9757
actic	-10.9811
▁impose	-10.9815
▁threaten	-10.9821
month	-10.9825
▁quit	-10.9829
▁Consider	-10.9835
▁branch	-10.984
▁Indonesia	-10.985
▁Limited	-10.985
▁Morocco	-10.985
▁Treatment	-10.985
▁compound	-10.985
▁discipline	-10.985
▁embarrass	-10.985
▁emotional	-10.985
▁expensive	-10.985
▁explicit	-10.985
▁flexible	-10.985
▁inclusion	-10.985
▁intellectual	-10.985
▁possibilities	-10.985
▁scenario	-10.985
▁threshold	-10.985
▁virtual	-10.985
▁chicken	-10.985
▁disturb	-10.985
▁Estimate	-10.985
▁manifest	-10.985
▁breast	-10.985
▁petition	-10.985
▁vacation	-10.985
▁Physic	-10.985
▁insulin	-10.985
▁crowd	-10.985
▁Sarah	-10.985
▁strain	-10.985
▁visual	-10.985
▁zero	-10.985
▁bathroom	-10.985
▁virus	-10.985
▁domain	-10.985
▁wildlife	-10.985
▁overcome	-10.985
▁priest	-10.985
▁Version	-10.985
▁trading	-10.9851
▁greenhouse	-10.9851
▁Planning	-10.9851
▁reinforce	-10.9851
▁SMEs	-10.9851
▁western	-10.9852
▁captain	-10.9853
▁favorite	-10.9853
▁Income	-10.9853
▁Adoption	-10.9853
▁jail	-10.9854
▁dispose	-10.9854
hether	-10.9855
▁piss	-10.9855
rou	-10.9856
▁roof	-10.9856
▁authorization	-10.9856
▁contrast	-10.9857
▁odd	-10.986
▁strip	-10.9861
▁arrangement	-10.9861
▁edition	-10.9865
▁Alex	-10.9868
▁tower	-10.9869
▁easter	-10.9869
interpret	-10.9873
▁claimant	-10.9877
▁assistant	-10.9879
▁chest	-10.9883
▁revealed	-10.9884
▁argued	-10.9888
▁producer	-10.9892
▁initiated	-10.9906
▁taxation	-10.9914
hour	-10.9918
▁restricted	-10.9919
▁noise	-10.9931
ception	-10.9939
▁Transfer	-10.9955
▁Marc	-10.9968
hmm	-10.9976
▁ye	-11.0021
▁tab	-11.0046
▁historic	-11.0072
0.00	-11.0073
▁1.3	-11.009
Direct	-11.0092
EPA	-11.0099
Tech	-11.0101
special	-11.0102
first	-11.0102
course	-11.0105
▁organiz	-11.0142
ILL	-11.0149
▁acquire	-11.0155
▁argue	-11.0156
losing	-11.0158
3.2	-11.0163
▁XI	-11.018
volution	-11.0184
emorandum	-11.0195
▁Assistance	-11.0195
▁California	-11.0195
▁Montréal	-11.0195
▁ceremony	-11.0195
▁diamond	-11.0195
▁entrance	-11.0195
▁laboratory	-11.0195
▁perpetrat	-11.0195
▁retirement	-11.0195
▁welfare	-11.0195
▁widespread	-11.0195
▁concert	-11.0195
▁Major	-11.0195
▁disposal	-11.0195
▁lecture	-11.0195
▁Learning	-11.0195
▁injured	-11.0195
▁Soviet	-11.0195
▁Serbia	-11.0195
▁Swiss	-11.0195
▁dumping	-11.0195
▁Windows	-11.0195
▁creative	-11.0195
▁liability	-11.0195
▁bunch	-11.0195
▁offender	-11.0195
▁smile	-11.0195
▁Know	-11.0195
▁rescue	-11.0195
▁Better	-11.0195
▁Task	-11.0195
▁Stephen	-11.0195
▁compil	-11.0195
▁confidential	-11.0196
▁bedroom	-11.0196
▁transmitted	-11.0197
▁trafficking	-11.0197
▁Danny	-11.0197
▁resume	-11.0197
▁Reserve	-11.0198
▁classification	-11.0199
▁reliable	-11.0202
shirt	-11.0206
▁consequence	-11.0212
▁prisoners	-11.0213
▁exhibition	-11.0215
lag	-11.0216
▁sustained	-11.0219
▁Round	-11.0223
▁Huh	-11.0226
▁gang	-11.0228
▁Seven	-11.0228
▁wider	-11.0231
▁Army	-11.0232
▁ACP	-11.0236
▁stem	-11.0238
▁Select	-11.0249
▁habit	-11.0255
▁Letter	-11.0261
/11/201	-11.0276
▁realized	-11.0278
▁caus	-11.031
▁commander	-11.0312
▁marginal	-11.0345
emia	-11.0353
________________	-11.0354
▁enabl	-11.0366
▁Para	-11.037
▁epi	-11.0379
▁5.1	-11.0387
▁margin	-11.0399
▁fulfil	-11.0401
▁$4	-11.0418
▁introduc	-11.0438
▁suffer	-11.0439
http	-11.0449
Yeah	-11.0459
▁calculat	-11.0484
▁Old	-11.0491
ground	-11.0497
cription	-11.0504
▁Count	-11.0529
ELL	-11.0535
ONE	-11.0541
▁transform	-11.0543
ARD	-11.0546
ntegrated	-11.055
▁Lisbon	-11.0552
▁affirm	-11.0552
▁apologize	-11.0552
▁biennium	-11.0552
▁breakfast	-11.0552
▁diabetes	-11.0552
▁installed	-11.0552
▁nervous	-11.0552
▁separation	-11.0552
▁symptoms	-11.0552
▁vegetable	-11.0552
▁Analysis	-11.0552
▁Colonel	-11.0552
▁Effective	-11.0552
▁consequent	-11.0552
▁plastic	-11.0552
▁plenty	-11.0552
▁situated	-11.0552
▁thirty	-11.0552
▁throat	-11.0552
▁trigger	-11.0552
▁Exactly	-11.0552
▁blank	-11.0552
▁audio	-11.0552
▁postpone	-11.0552
▁worst	-11.0552
▁Anything	-11.0552
▁Historic	-11.0552
▁contest	-11.0552
▁Besides	-11.0552
▁inherit	-11.0552
▁Easy	-11.0552
▁Armenia	-11.0552
▁Small	-11.0553
▁joy	-11.0553
▁producing	-11.0553
▁diplomatic	-11.0553
▁Model	-11.0554
▁Talk	-11.0555
▁Against	-11.0555
▁ought	-11.0555
▁referring	-11.0556
▁contra	-11.0557
▁Export	-11.0558
▁injection	-11.0559
▁Promotion	-11.0559
▁Walk	-11.056
▁lung	-11.056
▁upset	-11.0562
▁2016	-11.0564
▁stuck	-11.0565
▁Santa	-11.0568
▁charity	-11.0569
▁massive	-11.057
▁DNA	-11.0571
▁Production	-11.0573
▁Congo	-11.0574
▁visitors	-11.0575
▁symp	-11.0576
▁Beau	-11.0578
▁Jim	-11.0578
▁Book	-11.0583
▁90%	-11.0588
▁tonne	-11.0589
▁Week	-11.0591
▁losses	-11.0593
▁chat	-11.0596
▁elect	-11.0602
▁grown	-11.0606
▁payable	-11.0607
▁chlor	-11.0614
onald	-11.0629
▁specialist	-11.0647
▁4.2	-11.0649
▁electrical	-11.0653
▁rape	-11.0669
ANCE	-11.0699
called	-11.0703
tensi	-11.0731
▁Zo	-11.0735
▁thin	-11.0745
▁Bou	-11.0747
▁equ	-11.0763
▁extract	-11.078
▁entrepreneur	-11.0813
▁$10	-11.0826
American	-11.083
service	-11.083
Article	-11.083
European	-11.083
Canada	-11.083
credit	-11.0833
(4)	-11.0837
COM	-11.0844
▁preserv	-11.0855
tribution	-11.0874
INE	-11.0877
▁accus	-11.0881
▁absolute	-11.0895
▁exhibit	-11.09
serve	-11.0901
▁yo	-11.091
awa	-11.0913
onstruction	-11.0917
▁punish	-11.0917
Electronic	-11.0922
disciplinar	-11.0922
▁ANNEX	-11.0922
▁Assistant	-11.0922
▁Congratulations	-11.0922
▁Infrastructure	-11.0922
▁academic	-11.0922
▁advertising	-11.0922
▁condemn	-11.0922
▁disarmament	-11.0922
▁immigration	-11.0922
▁inhabitants	-11.0922
▁literature	-11.0922
▁pregnancy	-11.0922
▁relevance	-11.0922
▁transparent	-11.0922
▁Covenant	-11.0922
▁Electric	-11.0922
▁Introduction	-11.0922
▁ridiculous	-11.0922
▁sequence	-11.0922
▁Provision	-11.0922
▁Vienna	-11.0922
▁smooth	-11.0922
▁Arctic	-11.0922
▁Georgia	-11.0922
▁album	-11.0922
▁eventually	-11.0922
▁CRTC	-11.0922
▁Fifth	-11.0922
▁composed	-11.0922
▁Honour	-11.0922
▁Hurry	-11.0922
▁incredibl	-11.0922
▁ethical	-11.0922
▁Election	-11.0922
▁metaboli	-11.0922
▁assembly	-11.0922
▁disclose	-11.0922
▁belief	-11.0922
▁equipped	-11.0922
▁orientation	-11.0922
▁partially	-11.0922
▁EIB	-11.0922
▁ruling	-11.0923
▁Francis	-11.0923
▁safeguard	-11.0923
▁Power	-11.0923
▁Club	-11.0923
▁Exchange	-11.0923
▁begun	-11.0923
▁decorat	-11.0923
▁commune	-11.0923
▁Eurostat	-11.0923
▁dropped	-11.0923
▁cataly	-11.0924
▁pitch	-11.0924
▁poison	-11.0924
▁resistance	-11.0925
▁awful	-11.0925
▁evolution	-11.0926
▁productivity	-11.0926
▁Local	-11.0927
lves	-11.0928
▁Unless	-11.093
▁magn	-11.0931
▁semi	-11.0931
▁Ooh	-11.0932
▁Contribution	-11.0933
▁Things	-11.0933
▁lease	-11.0934
ARY	-11.0939
▁Enter	-11.0939
ologist	-11.0939
▁exemption	-11.0941
▁rental	-11.0948
▁1.5	-11.0949
▁Inuit	-11.0955
ierra	-11.0957
▁20%	-11.0958
▁Ensur	-11.0967
▁Resource	-11.0971
▁Except	-11.1003
▁File	-11.1004
▁insist	-11.1051
▁franc	-11.1068
note	-11.1081
termination	-11.114
▁Wall	-11.1161
ferred	-11.1186
▁menu	-11.1205
▁chap	-11.1206
itizenship	-11.1213
power	-11.1214
regional	-11.1215
That	-11.1215
science	-11.1219
raz	-11.1225
▁complain	-11.1233
▁associate	-11.1235
▁parliament	-11.1238
earn	-11.1257
▁radi	-11.1281
valuation	-11.1295
espite	-11.13
▁ADOPTED	-11.1307
▁Discrimination	-11.1307
▁Financing	-11.1307
▁Legislati	-11.1307
▁PWGSC	-11.1307
▁Practice	-11.1307
▁REGULATION	-11.1307
▁Refugee	-11.1307
▁appreciation	-11.1307
▁conversation	-11.1307
▁inspired	-11.1307
▁jealous	-11.1307
▁knife	-11.1307
▁migrant	-11.1307
▁privilege	-11.1307
▁reaffirm	-11.1307
▁sanctions	-11.1307
▁satisfaction	-11.1307
▁Commercial	-11.1307
▁Hungary	-11.1307
▁Monetary	-11.1307
▁Operating	-11.1307
▁Yugoslav	-11.1307
▁accumulat	-11.1307
▁alternate	-11.1307
▁cloud	-11.1307
▁deployment	-11.1307
▁deteriorat	-11.1307
▁gusts	-11.1307
▁impression	-11.1307
▁scientist	-11.1307
▁wheat	-11.1307
▁Material	-11.1307
▁fabric	-11.1307
▁Happy	-11.1307
▁Tourism	-11.1307
▁measuring	-11.1307
▁hyper	-11.1307
▁deduction	-11.1307
▁cheese	-11.1307
▁Radio	-11.1307
▁recreation	-11.1307
▁vocational	-11.1307
▁Bosnia	-11.1307
▁fibre	-11.1307
▁talent	-11.1307
▁Rachel	-11.1307
▁Medical	-11.1307
▁Indicator	-11.1307
▁silly	-11.1307
▁knee	-11.1307
▁Daniel	-11.1307
▁Cross	-11.1307
▁sustainability	-11.1307
▁boost	-11.1307
▁feedback	-11.1308
▁Multi	-11.1308
▁Title	-11.1308
▁breakdown	-11.1308
▁ruin	-11.1309
▁Consultation	-11.1309
▁alarm	-11.1309
▁confront	-11.1309
▁commence	-11.131
▁Jeff	-11.131
▁ratification	-11.131
▁grain	-11.131
▁tackl	-11.1311
▁loose	-11.1311
▁competitiveness	-11.1312
▁tension	-11.1312
▁winner	-11.1312
▁passport	-11.1313
▁hired	-11.1313
▁attractive	-11.1314
▁Stock	-11.1315
lihood	-11.1317
▁demonstration	-11.1317
▁disability	-11.1318
▁1973	-11.1319
▁native	-11.132
▁alert	-11.132
▁Roger	-11.1321
▁lord	-11.1322
▁Lady	-11.1322
▁analyses	-11.1323
▁cheat	-11.1329
▁handling	-11.133
▁labor	-11.1331
▁suddenly	-11.1331
▁render	-11.1331
▁County	-11.1332
▁GST	-11.1333
▁novel	-11.1334
▁regardless	-11.1337
▁curse	-11.1344
▁Rock	-11.1346
risk	-11.1357
▁reward	-11.1361
isco	-11.1362
▁observation	-11.1366
▁dollar	-11.1368
▁participant	-11.1368
▁Gold	-11.1387
▁prize	-11.1395
▁dumb	-11.1404
corporation	-11.1421
rious	-11.1453
IDE	-11.1485
Indicat	-11.149
name	-11.1492
▁Adam	-11.1494
▁Provide	-11.1535
▁Dai	-11.1553
who	-11.1563
▁Corr	-11.1579
▁View	-11.1592
/11/	-11.1601
what	-11.1608
certain	-11.1614
control	-11.1616
front	-11.1626
▁observe	-11.1632
New	-11.1636
▁declare	-11.1668
▁identifie	-11.1668
▁compare	-11.1668
▁frequent	-11.168
▁Corporat	-11.1694
▁comfort	-11.1702
▁transmit	-11.1705
▁Broadcasting	-11.1707
▁Jewish	-11.1707
▁Military	-11.1707
▁Monitoring	-11.1707
▁Olympic	-11.1707
▁Priorities	-11.1707
▁accompany	-11.1707
▁anticipate	-11.1707
▁capabilities	-11.1707
▁clothing	-11.1707
▁commodities	-11.1707
▁constraint	-11.1707
▁disadvantage	-11.1707
▁exclusion	-11.1707
▁furnish	-11.1707
▁mandatory	-11.1707
▁politician	-11.1707
▁sovereign	-11.1707
▁subsidies	-11.1707
▁veterinar	-11.1707
▁Croatia	-11.1707
▁Labrador	-11.1707
▁Tariff	-11.1707
▁circle	-11.1707
▁disrupt	-11.1707
▁divorce	-11.1707
▁plenary	-11.1707
▁violent	-11.1707
▁yourselves	-11.1707
▁Commander	-11.1707
▁chronic	-11.1707
▁CBSA	-11.1707
▁fifty	-11.1707
▁asylum	-11.1707
▁darling	-11.1707
▁defect	-11.1707
▁whale	-11.1707
▁exposed	-11.1707
▁Finland	-11.1707
▁vertical	-11.1707
▁elevat	-11.1707
▁Dutch	-11.1707
▁Personal	-11.1707
▁intensive	-11.1707
▁invention	-11.1707
▁cream	-11.1707
requiring	-11.1708
pdf	-11.1708
▁float	-11.1708
▁Mount	-11.1708
/62/	-11.1708
▁hiding	-11.1708
▁conversion	-11.1709
▁Irish	-11.1709
▁Uncle	-11.1709
▁(7)	-11.1709
▁authorisation	-11.1709
▁remedi	-11.171
▁corporations	-11.171
▁infant	-11.171
▁arising	-11.1711
▁migration	-11.1711
▁Kenya	-11.1712
▁hoping	-11.1712
▁punishment	-11.1713
▁investors	-11.1713
▁affordable	-11.1714
▁peak	-11.1715
▁nearby	-11.1715
▁Guard	-11.1716
▁angle	-11.1717
▁cancel	-11.1718
ITY	-11.1719
▁queen	-11.172
▁appearance	-11.172
raft	-11.172
▁transformation	-11.1721
▁branches	-11.1721
▁machinery	-11.1721
▁announcement	-11.1722
▁dozen	-11.1723
▁Music	-11.1728
▁100%	-11.1728
▁lifetime	-11.1732
▁desk	-11.1733
▁gut	-11.1734
FOR	-11.1735
▁Tony	-11.1737
▁contempora	-11.1742
▁dude	-11.1748
▁Jake	-11.1748
▁clearance	-11.1749
▁objection	-11.1753
▁spell	-11.1753
▁indicator	-11.1784
▁writer	-11.1794
▁exhaust	-11.1796
▁dust	-11.1807
ORT	-11.1867
apping	-11.1894
▁Islam	-11.1926
bble	-11.1967
▁electro	-11.1972
▁employ	-11.1988
member	-11.202
source	-11.2021
present	-11.2024
effective	-11.2031
Canadian	-11.2031
third	-11.2032
social	-11.2032
▁appoint	-11.2069
▁bound	-11.2085
▁squa	-11.2087
▁instruct	-11.2091
zen	-11.2107
▁trap	-11.2114
▁Coordinat	-11.2117
cientific	-11.212
▁Investigat	-11.2124
▁2004-2005	-11.2124
▁Ambassador	-11.2124
▁Caribbean	-11.2124
▁Consequently	-11.2124
▁Immigration	-11.2124
▁Impact	-11.2124
▁Innovation	-11.2124
▁Little	-11.2124
▁Ombudsman	-11.2124
▁Participant	-11.2124
▁Strengthen	-11.2124
▁accelerate	-11.2124
▁behavior	-11.2124
▁beneficiary	-11.2124
▁closure	-11.2124
▁collapse	-11.2124
▁compulsory	-11.2124
▁confused	-11.2124
▁genuine	-11.2124
▁hungry	-11.2124
▁incidence	-11.2124
▁institute	-11.2124
▁minimize	-11.2124
▁perceived	-11.2124
▁physician	-11.2124
▁vaccine	-11.2124
▁Enjoy	-11.2124
▁Fifty	-11.2124
▁Method	-11.2124
▁Tunisia	-11.2124
▁nevertheless	-11.2124
▁removal	-11.2124
▁unfortunate	-11.2124
▁variable	-11.2124
▁Commerce	-11.2124
▁clarify	-11.2124
▁disagree	-11.2124
▁grateful	-11.2124
▁diameter	-11.2124
▁Future	-11.2124
investigator	-11.2124
▁varied	-11.2124
▁Mountain	-11.2124
▁Place	-11.2124
▁drill	-11.2124
▁visible	-11.2124
▁devil	-11.2124
▁URL	-11.2124
▁Timor	-11.2124
▁insufficient	-11.2124
▁Chairperson	-11.2124
▁convey	-11.2124
▁inquiry	-11.2124
▁Guinea	-11.2124
▁extraordinary	-11.2124
▁Design	-11.2124
▁competence	-11.2124
▁Northwest	-11.2125
▁password	-11.2125
▁shopping	-11.2125
▁elsewhere	-11.2125
▁alien	-11.2126
▁pretend	-11.2126
▁forgotten	-11.2126
▁oversight	-11.2126
▁Space	-11.2126
▁monster	-11.2126
▁mixture	-11.2127
▁Among	-11.2127
▁hazardous	-11.2128
▁mask	-11.2128
▁expectations	-11.2131
▁friendship	-11.2133
▁outbreak	-11.2134
▁shame	-11.2135
▁1975	-11.2135
▁entirety	-11.2135
▁1981	-11.2136
▁Waste	-11.2136
scribe	-11.2139
▁sixty	-11.2143
▁acceptance	-11.2143
▁string	-11.2145
▁spare	-11.2148
▁crap	-11.2149
▁plea	-11.215
▁dating	-11.2172
▁Statistic	-11.2219
cultural	-11.2257
payment	-11.2316
▁distribut	-11.2338
100	-11.2348
arrow	-11.2353
AVE	-11.2361
▁originat	-11.2373
ficie	-11.2381
▁Chris	-11.2381
HST	-11.2391
Uni	-11.2392
election	-11.2396
language	-11.2466
country	-11.2466
through	-11.2466
health	-11.2466
▁Leader	-11.247
food	-11.2471
President	-11.2481
▁assign	-11.2507
emporary	-11.2521
sumption	-11.2526
▁integrate	-11.2527
▁sudden	-11.2531
▁violat	-11.2534
easing	-11.254
▁enforce	-11.2554
▁enlarge	-11.2554
organism	-11.2556
ndustrial	-11.2557
omestic	-11.2557
Provincial	-11.2558
▁Category	-11.2558
▁Colombia	-11.2558
▁Conclusion	-11.2558
▁Excellent	-11.2558
▁Library	-11.2558
▁Return	-11.2558
▁Swedish	-11.2558
▁accommodate	-11.2558
▁comparative	-11.2558
▁incorrect	-11.2558
▁uncertainty	-11.2558
▁utility	-11.2558
▁Joseph	-11.2558
▁Property	-11.2558
▁discount	-11.2558
▁fragment	-11.2558
▁interrupt	-11.2558
▁knock	-11.2558
▁precaution	-11.2558
▁surrounding	-11.2558
▁victory	-11.2558
▁Headquarters	-11.2558
▁Lawrence	-11.2558
▁carriage	-11.2558
▁RCMP	-11.2558
▁hypo	-11.2558
▁occurrence	-11.2558
▁2006-2007	-11.2558
▁injuries	-11.2558
▁radar	-11.2558
▁dirty	-11.2558
▁prince	-11.2558
▁Claim	-11.2558
▁premium	-11.2558
▁pleasant	-11.2558
▁WITH	-11.2558
▁inventory	-11.2558
▁venture	-11.2558
▁analyz	-11.2558
▁filter	-11.2558
▁invoice	-11.2558
▁breach	-11.2559
▁Micro	-11.2559
▁ignore	-11.2559
▁denied	-11.2559
▁density	-11.2559
▁remarks	-11.2559
▁Short	-11.2559
▁defeat	-11.256
▁automatically	-11.256
▁admission	-11.256
▁navigation	-11.256
▁verification	-11.2561
▁interface	-11.2561
▁bleed	-11.2562
▁rising	-11.2562
▁reconstruction	-11.2563
▁elder	-11.2563
▁Spring	-11.2564
▁chairman	-11.2564
▁Johnny	-11.2565
▁loud	-11.2565
▁rush	-11.2566
▁dying	-11.2566
▁Goals	-11.2567
▁bread	-11.2567
▁reception	-11.2568
▁Baby	-11.2569
▁textile	-11.2569
▁possession	-11.2569
▁1979	-11.2571
▁reverse	-11.2572
▁detection	-11.2576
▁Town	-11.2577
neath	-11.2579
▁thou	-11.2582
lysis	-11.2586
▁Recent	-11.2588
stein	-11.2589
▁pace	-11.2594
▁bull	-11.2598
▁Must	-11.2601
▁Iraqi	-11.2609
▁Carol	-11.2612
boundary	-11.2627
flow	-11.2634
▁Edit	-11.266
▁$7	-11.2664
▁tear	-11.2669
ewpoint	-11.2714
▁Serv	-11.2721
▁COU	-11.2759
1992	-11.279
eaching	-11.2808
ipped	-11.2895
United	-11.2923
version	-11.2924
▁reveal	-11.2968
▁excess	-11.3009
ndigenous	-11.3011
▁shield	-11.3013
discriminatory	-11.3013
proliferation	-11.3013
▁Cyprus	-11.3013
▁Enterprise	-11.3013
▁Manufacture	-11.3013
▁Moscow	-11.3013
▁Operational	-11.3013
▁Probably	-11.3013
▁Slovenia	-11.3013
▁Structur	-11.3013
▁UNICEF	-11.3013
▁ambulance	-11.3013
▁calendar	-11.3013
▁chamber	-11.3013
▁coincide	-11.3013
▁concluding	-11.3013
▁creature	-11.3013
▁defense	-11.3013
▁distress	-11.3013
▁elimination	-11.3013
▁impressive	-11.3013
▁influenza	-11.3013
▁ingredient	-11.3013
▁medicinal	-11.3013
▁oxygen	-11.3013
▁phrase	-11.3013
▁practitioner	-11.3013
▁supplied	-11.3013
▁suspended	-11.3013
legitimate	-11.3013
▁(2001)	-11.3013
▁Jordan	-11.3013
▁assault	-11.3013
▁stretch	-11.3013
▁optimis	-11.3013
▁reputation	-11.3013
▁Freedom	-11.3013
▁Growth	-11.3013
▁hunger	-11.3013
▁unusual	-11.3013
▁Muslim	-11.3013
▁unlikely	-11.3013
▁summarize	-11.3013
▁Kevin	-11.3013
▁idiot	-11.3013
▁Hydro	-11.3013
▁Voices	-11.3013
Exhibit	-11.3013
▁inhibit	-11.3013
▁prescription	-11.3013
▁goodbye	-11.3013
▁reiterate	-11.3013
▁Break	-11.3013
▁cousin	-11.3013
▁isolated	-11.3013
▁Sudan	-11.3013
▁Ryan	-11.3013
▁football	-11.3014
▁Turk	-11.3014
▁sweat	-11.3014
▁consistency	-11.3014
▁footnote	-11.3015
▁Valley	-11.3015
▁diverse	-11.3015
ntermediate	-11.3017
▁enlargement	-11.3017
▁Overall	-11.3017
▁shipping	-11.3018
▁Large	-11.3018
▁ministerial	-11.3018
▁turb	-11.3018
▁thick	-11.302
▁cooperative	-11.302
▁Auditors	-11.3021
▁copper	-11.3022
▁Movement	-11.3023
▁travelling	-11.3025
▁ease	-11.3026
▁somehow	-11.3027
▁mediation	-11.3027
▁moderate	-11.3028
lick	-11.3032
▁Consideration	-11.3033
▁Game	-11.3035
ibid	-11.3036
▁Simpl	-11.3038
▁Victoria	-11.3052
▁flash	-11.3058
▁Recall	-11.3059
▁attraction	-11.306
▁bike	-11.3064
▁vibra	-11.3076
issa	-11.3121
▁Ship	-11.3151
barely	-11.3152
aki	-11.319
TEN	-11.3228
anning	-11.3251
▁supervisor	-11.3257
rawl	-11.3266
proving	-11.3311
▁plac	-11.3337
evolving	-11.3384
known	-11.3393
efficient	-11.3396
rgy	-11.34
bank	-11.3401
sector	-11.3405
▁clinic	-11.3408
style	-11.3434
▁profession	-11.3458
▁Protect	-11.3483
ecutive	-11.3487
▁diploma	-11.3487
▁confident	-11.3487
▁gentle	-11.3488
sensitivity	-11.3489
▁Approach	-11.3489
▁COMMISSION	-11.3489
▁Definition	-11.3489
▁Disarmament	-11.3489
▁Embassy	-11.3489
▁Establish	-11.3489
▁External	-11.3489
▁Individual	-11.3489
▁Lithuania	-11.3489
▁Registry	-11.3489
▁Sergeant	-11.3489
▁Violence	-11.3489
▁accuracy	-11.3489
▁beneficial	-11.3489
▁circuit	-11.3489
▁contaminated	-11.3489
▁eligibility	-11.3489
▁executed	-11.3489
▁exploration	-11.3489
▁harbour	-11.3489
▁hybrid	-11.3489
▁inadequate	-11.3489
▁phenomenon	-11.3489
▁restructuring	-11.3489
▁satisfy	-11.3489
▁securities	-11.3489
▁simultaneous	-11.3489
▁suspension	-11.3489
▁theoretical	-11.3489
▁twelve	-11.3489
▁upstairs	-11.3489
▁virtue	-11.3489
▁Advance	-11.3489
▁Progress	-11.3489
▁enemies	-11.3489
▁medication	-11.3489
▁Almost	-11.3489
▁Scotland	-11.3489
▁displaced	-11.3489
▁ghost	-11.3489
▁2005-2006	-11.3489
▁Climate	-11.3489
▁Period	-11.3489
▁buried	-11.3489
▁livestock	-11.3489
▁Message	-11.3489
▁prompt	-11.3489
▁superior	-11.3489
▁courage	-11.3489
▁parallel	-11.3489
▁valley	-11.3489
▁Medicin	-11.3489
▁Regard	-11.3489
▁brown	-11.3489
▁muscle	-11.3489
▁practis	-11.3489
▁Navy	-11.3489
▁Workshop	-11.3489
▁drain	-11.3489
▁warrior	-11.3489
▁plain	-11.3489
prevalence	-11.3489
▁Algeria	-11.3489
▁healthcare	-11.3489
▁boundaries	-11.3489
▁Coast	-11.3489
▁Jews	-11.3489
▁Honor	-11.349
▁linkages	-11.349
ennial	-11.349
▁radical	-11.349
▁architecture	-11.349
▁harmonis	-11.349
▁bowl	-11.349
▁Spending	-11.3491
▁RIGHT	-11.3492
▁subscribe	-11.3492
/2015	-11.3492
Signed	-11.3493
▁methodology	-11.3493
▁logical	-11.3494
▁preferred	-11.3494
▁pride	-11.3494
▁Series	-11.3495
▁Gender	-11.3495
/09/20	-11.3495
▁Conduct	-11.3496
▁ICT	-11.3497
▁Coordination	-11.3497
▁***	-11.3497
▁baseline	-11.35
▁mood	-11.35
oriented	-11.35
▁Making	-11.35
▁leak	-11.3501
▁replacement	-11.3503
▁assignment	-11.3504
▁Hunt	-11.3507
▁1977	-11.3508
▁Dude	-11.3509
tribute	-11.3516
▁sew	-11.3517
trapped	-11.3528
▁prohibition	-11.3541
▁enhanc	-11.3547
▁fake	-11.3632
▁soldier	-11.3652
elec	-11.3684
▁slip	-11.3769
4-0	-11.3821
nnu	-11.3859
government	-11.3879
profit	-11.3896
document	-11.3896
looking	-11.3897
contract	-11.3901
spoke	-11.3902
▁verifi	-11.3907
high	-11.3915
▁legislat	-11.3979
▁obligat	-11.3982
▁architect	-11.3988
▁physi	-11.3988
▁Complaint	-11.3989
▁Compliance	-11.3989
▁Facebook	-11.3989
▁Madrid	-11.3989
▁Organisation	-11.3989
▁Participation	-11.3989
▁Purpose	-11.3989
▁Regulator	-11.3989
▁Seriously	-11.3989
▁Subsequent	-11.3989
▁battery	-11.3989
▁browser	-11.3989
▁catalogue	-11.3989
▁cigarette	-11.3989
▁cohesion	-11.3989
▁configuration	-11.3989
▁curriculum	-11.3989
▁degradation	-11.3989
▁encouraging	-11.3989
▁enzyme	-11.3989
▁evolve	-11.3989
▁juvenile	-11.3989
▁liberty	-11.3989
▁merchant	-11.3989
▁mirror	-11.3989
▁occupy	-11.3989
▁politics	-11.3989
▁prejudice	-11.3989
▁professor	-11.3989
▁scholar	-11.3989
▁wisdom	-11.3989
▁exciting	-11.3989
▁qualify	-11.3989
▁sediment	-11.3989
▁Elector	-11.3989
▁Include	-11.3989
▁NATO	-11.3989
▁centuries	-11.3989
▁workforce	-11.3989
▁Beijing	-11.3989
▁depression	-11.3989
▁empower	-11.3989
▁scandal	-11.3989
▁Pharma	-11.3989
▁fought	-11.3989
▁snake	-11.3989
▁Pursu	-11.3989
▁flesh	-11.3989
▁CIDA	-11.3989
▁Licence	-11.3989
▁deployed	-11.3989
gregation	-11.3989
▁deputy	-11.3989
▁Jerry	-11.3989
▁DFO	-11.3989
▁Client	-11.3989
▁funeral	-11.3989
▁Ladies	-11.3989
▁disabled	-11.3989
OTHER	-11.3989
▁Always	-11.399
▁await	-11.399
▁praise	-11.399
▁Text	-11.399
/05/201	-11.399
▁Deliver	-11.399
▁Libya	-11.399
▁teeth	-11.399
▁packaging	-11.3991
▁09:	-11.3991
▁reliability	-11.3991
▁Front	-11.3991
▁emit	-11.3991
▁lingu	-11.3992
▁Connect	-11.3992
▁Grace	-11.3992
▁organisms	-11.3993
▁meaningful	-11.3993
▁EEA	-11.3993
▁Hearing	-11.3993
▁adhere	-11.3993
▁Self	-11.3994
▁Increase	-11.3994
▁yard	-11.3994
▁Iranian	-11.3994
▁Rural	-11.3994
▁considerably	-11.3995
▁Squa	-11.3995
▁Airport	-11.3996
▁align	-11.3997
▁Yep	-11.3997
▁drum	-11.3998
▁spray	-11.3999
▁mining	-11.4002
DLL	-11.4006
▁toilet	-11.4009
▁crown	-11.4018
bility	-11.402
▁foresee	-11.409
/10/201	-11.416
▁Provid	-11.4209
▁slipp	-11.4227
infected	-11.4408
break	-11.441
session	-11.4424
secondary	-11.4427
▁announce	-11.4457
▁Chuck	-11.447
▁Equal	-11.4489
▁exempt	-11.4489
▁automatic	-11.4515
Terrorism	-11.4515
▁2002-2003	-11.4515
▁Chicago	-11.4515
▁Conservation	-11.4515
▁Halifax	-11.4515
▁Matthew	-11.4515
▁Mediterranean	-11.4515
▁Municipal	-11.4515
▁Portuguese	-11.4515
▁Privacy	-11.4515
▁Twenty	-11.4515
▁affiliate	-11.4515
▁aggressive	-11.4515
▁apprentice	-11.4515
▁biotechnology	-11.4515
▁circum	-11.4515
▁evaluating	-11.4515
▁mitigation	-11.4515
▁studio	-11.4515
▁substitute	-11.4515
▁sweetheart	-11.4515
▁tangible	-11.4515
▁Rwanda	-11.4515
▁benchmark	-11.4515
▁caution	-11.4515
▁cluster	-11.4515
▁conviction	-11.4515
▁credibility	-11.4515
▁Blood	-11.4515
▁analytic	-11.4515
▁assassin	-11.4515
▁champion	-11.4515
▁impressed	-11.4515
▁Objective	-11.4515
▁cereal	-11.4515
▁generous	-11.4515
▁hidden	-11.4515
▁kingdom	-11.4515
▁unfair	-11.4515
▁Traffic	-11.4515
▁tragic	-11.4515
▁width	-11.4515
▁remedy	-11.4515
▁residential	-11.4515
▁Burundi	-11.4515
▁visibility	-11.4515
▁racial	-11.4515
▁contradict	-11.4515
▁flour	-11.4515
▁Pretty	-11.4516
▁Alliance	-11.4516
hereinafter	-11.4516
▁resort	-11.4516
▁nightmare	-11.4516
▁restrain	-11.4516
▁ancient	-11.4516
▁reconciliation	-11.4516
▁Walter	-11.4516
▁cotton	-11.4516
▁jewel	-11.4516
▁LDC	-11.4516
▁Background	-11.4516
▁mercy	-11.4516
▁Pierre	-11.4516
▁grape	-11.4516
▁Gross	-11.4516
▁punch	-11.4516
▁copyright	-11.4516
▁radioactiv	-11.4517
▁plug	-11.4517
▁Explanat	-11.4517
▁petrol	-11.4517
movable	-11.4517
▁maritim	-11.4517
▁Classification	-11.4518
▁spectrum	-11.4518
▁Somebody	-11.4518
▁logistic	-11.4518
▁tongue	-11.4518
▁opposite	-11.4518
▁municipalities	-11.4518
▁Clinic	-11.4519
▁admitted	-11.4519
▁capability	-11.4519
▁cheer	-11.4519
▁brake	-11.452
▁graphic	-11.452
▁Gulf	-11.452
▁blend	-11.452
intensity	-11.4521
▁prostitution	-11.4521
ccessories	-11.4522
▁earnings	-11.4522
▁Jones	-11.4522
ENCE	-11.4523
▁varies	-11.4524
▁mineral	-11.4525
▁formulation	-11.4526
▁sword	-11.4527
▁faithful	-11.4528
▁Eliminati	-11.4529
▁wrap	-11.453
▁Vote	-11.4538
▁Associate	-11.4552
▁ambitio	-11.4555
glob	-11.4623
▁Range	-11.4629
Phone	-11.4762
▁supervis	-11.4776
change	-11.4838
▁resist	-11.4908
▁weigh	-11.4957
▁socio	-11.4975
keeping	-11.4977
establish	-11.4978
Office	-11.4978
program	-11.4978
resolution	-11.4978
current	-11.4978
process	-11.4978
index	-11.4979
school	-11.4979
Why	-11.4979
income	-11.498
▁geographic	-11.4996
▁resolv	-11.4997
scope	-11.5021
▁Victor	-11.5024
▁Albert	-11.5062
▁Promot	-11.5063
▁Belgi	-11.5068
safe	-11.507
Principle	-11.5071
dmissible	-11.5071
ntibodies	-11.5071
▁Certificate	-11.5071
▁Congress	-11.5071
▁Ethiopia	-11.5071
▁Knowledge	-11.5071
▁Procurement	-11.5071
▁Singapore	-11.5071
▁Species	-11.5071
▁Subsection	-11.5071
▁Tomorrow	-11.5071
▁abundance	-11.5071
▁biodiversity	-11.5071
▁brilliant	-11.5071
▁clarification	-11.5071
▁cooperate	-11.5071
▁elaborate	-11.5071
▁encompass	-11.5071
▁endeavour	-11.5071
▁harassment	-11.5071
▁inappropriate	-11.5071
▁incurred	-11.5071
▁irregular	-11.5071
▁kilometre	-11.5071
▁laboratories	-11.5071
▁liabilities	-11.5071
▁maturity	-11.5071
▁necessity	-11.5071
▁presidency	-11.5071
▁reimbursement	-11.5071
▁societies	-11.5071
▁Albania	-11.5071
▁Discuss	-11.5071
▁Disease	-11.5071
▁Macedonia	-11.5071
▁Screen	-11.5071
▁dramatic	-11.5071
▁solidarity	-11.5071
▁universe	-11.5071
▁yellow	-11.5071
▁League	-11.5071
▁remarkable	-11.5071
▁retention	-11.5071
▁terrace	-11.5071
▁[2]	-11.5071
▁prevail	-11.5071
▁silence	-11.5071
▁slept	-11.5071
▁activist	-11.5071
▁memories	-11.5071
▁random	-11.5071
▁OSCE	-11.5071
▁Summer	-11.5071
▁freak	-11.5071
▁Senator	-11.5071
▁1967	-11.5071
▁Girl	-11.5071
▁Smith	-11.5071
▁asleep	-11.5071
▁entail	-11.5071
▁shelter	-11.5071
▁10:00	-11.5071
comparable	-11.5071
▁Border	-11.5072
▁Clark	-11.5072
▁trunk	-11.5072
/57/	-11.5072
▁manipulat	-11.5072
▁spill	-11.5072
▁auction	-11.5072
vocation	-11.5072
▁Jimmy	-11.5073
▁thread	-11.5073
▁dropping	-11.5074
▁Otherwise	-11.5074
▁Michel	-11.5074
▁folks	-11.5074
▁fishery	-11.5074
▁Brother	-11.5074
▁ILO	-11.5075
▁grace	-11.5075
▁liar	-11.5075
▁juice	-11.5075
▁(11)	-11.5076
▁clue	-11.5077
▁ISO	-11.5079
▁Ibid	-11.508
▁Volume	-11.5088
▁Smok	-11.5105
withstand	-11.5112
ownload	-11.5119
folk	-11.5154
nterim	-11.5207
▁Eye	-11.5227
NCIL	-11.5251
▁authentic	-11.5298
▁aqua	-11.5328
dministered	-11.5333
▁visa	-11.5362
validity	-11.5371
ccessibility	-11.5452
standing	-11.547
pproximate	-11.5533
discrimination	-11.5566
treatment	-11.5567
▁Adopt	-11.5654
stakeholder	-11.5656
petitive	-11.5658
Strasbourg	-11.5659
satisfactory	-11.5659
▁Available	-11.5659
▁Bangladesh	-11.5659
▁Barcelona	-11.5659
▁Challenge	-11.5659
▁Championship	-11.5659
▁Channel	-11.5659
▁Destination	-11.5659
▁Francophone	-11.5659
▁Gazette	-11.5659
▁Herzegovina	-11.5659
▁Identification	-11.5659
▁Majesty	-11.5659
▁Meanwhile	-11.5659
▁Mexican	-11.5659
▁Occupation	-11.5659
▁Opportunities	-11.5659
▁Palestine	-11.5659
▁Registration	-11.5659
▁Significan	-11.5659
▁Territory	-11.5659
▁abilities	-11.5659
▁absorb	-11.5659
▁advocacy	-11.5659
▁aquaculture	-11.5659
▁awesome	-11.5659
▁challenging	-11.5659
▁collaborative	-11.5659
▁convenience	-11.5659
▁convenient	-11.5659
▁cooperating	-11.5659
▁deprived	-11.5659
▁embrace	-11.5659
▁epidemic	-11.5659
▁evident	-11.5659
▁examining	-11.5659
▁fantastic	-11.5659
▁fifteen	-11.5659
▁goddamn	-11.5659
▁gravity	-11.5659
▁helicopter	-11.5659
▁hockey	-11.5659
▁horrible	-11.5659
▁minimal	-11.5659
▁plasma	-11.5659
▁pursuing	-11.5659
▁referendum	-11.5659
▁testimony	-11.5659
▁unacceptable	-11.5659
▁Belarus	-11.5659
▁Deposit	-11.5659
▁Expense	-11.5659
▁Negotiat	-11.5659
▁SPECI	-11.5659
▁Together	-11.5659
▁Weapons	-11.5659
▁discretion	-11.5659
▁malaria	-11.5659
▁prominent	-11.5659
▁Bulletin	-11.5659
▁Maritime	-11.5659
▁Spirit	-11.5659
▁athlete	-11.5659
▁departure	-11.5659
▁pollutant	-11.5659
▁specify	-11.5659
▁[3]	-11.5659
▁bacteria	-11.5659
▁instalment	-11.5659
▁pursuit	-11.5659
▁surgery	-11.5659
▁warehouse	-11.5659
▁Chemical	-11.5659
▁Reduction	-11.5659
▁casual	-11.5659
▁enrich	-11.5659
▁dignity	-11.5659
▁swift	-11.5659
▁shareholder	-11.5659
▁Profile	-11.5659
▁twist	-11.5659
▁Latvia	-11.5659
▁PRODUCTS	-11.5659
▁Thomas	-11.5659
▁struck	-11.5659
▁Liberia	-11.5659
▁Avoid	-11.5659
▁Complete	-11.5659
▁Ghana	-11.5659
▁Focus	-11.5659
▁jacket	-11.5659
▁firearm	-11.5659
▁Tommy	-11.5659
▁archive	-11.5659
▁Archives	-11.5659
▁clever	-11.5659
▁castle	-11.5659
▁Strong	-11.566
ratitude	-11.566
▁merger	-11.566
▁Informal	-11.566
▁investigating	-11.566
▁Smart	-11.566
▁orphan	-11.566
▁mount	-11.566
▁cancelled	-11.5661
▁giant	-11.5661
▁VIII	-11.5661
▁Explo	-11.5661
▁Bobby	-11.5661
▁alright	-11.5661
▁Sister	-11.5662
▁Enough	-11.5662
aculty	-11.5662
▁terminate	-11.5663
▁Aunt	-11.5664
XXI	-11.5664
▁streamlin	-11.5665
▁confine	-11.5666
▁Compare	-11.5666
▁optic	-11.5667
ogenic	-11.5667
ducing	-11.5667
ummaries	-11.5671
▁assert	-11.5671
▁zoo	-11.5673
eighth	-11.5716
5.9	-11.5742
QUE	-11.5765
focal	-11.5911
Improv	-11.5917
letting	-11.5929
▁technique	-11.5943
▁expense	-11.5945
continued	-11.5982
CLA	-11.6063
cross	-11.608
quarter	-11.6191
Food	-11.6191
mentioned	-11.6206
passionate	-11.6245
pathy	-11.6257
ligible	-11.6282
bankruptcy	-11.6284
patitis	-11.6284
▁Abraham	-11.6284
▁Cabinet	-11.6284
▁Catholic	-11.6284
▁Competition	-11.6284
▁Detective	-11.6284
▁Emergency	-11.6284
▁Intellectual	-11.6284
▁Kazakhstan	-11.6284
▁Kuwait	-11.6284
▁Montenegro	-11.6284
▁Opinion	-11.6284
▁Philippines	-11.6284
▁Prosecutor	-11.6284
▁Senegal	-11.6284
▁Taylor	-11.6284
▁UNESCO	-11.6284
▁UNHCR	-11.6284
▁Vietnam	-11.6284
▁administrator	-11.6284
▁appraisal	-11.6284
▁beneficiaries	-11.6284
▁bullshit	-11.6284
▁certified	-11.6284
▁combustion	-11.6284
▁competencies	-11.6284
▁continuation	-11.6284
▁convicted	-11.6284
▁decisive	-11.6284
▁diagnostic	-11.6284
▁dismissed	-11.6284
▁envelope	-11.6284
▁festival	-11.6284
▁happiness	-11.6284
▁leisure	-11.6284
▁magnitude	-11.6284
▁nutrient	-11.6284
▁psychological	-11.6284
▁quantitative	-11.6284
▁remuneration	-11.6284
▁reproduced	-11.6284
▁rigorous	-11.6284
▁slaughter	-11.6284
▁steady	-11.6284
▁synthesis	-11.6284
▁tribunal	-11.6284
▁uranium	-11.6284
▁whatsoever	-11.6284
▁Alexander	-11.6284
▁Already	-11.6284
▁Difference	-11.6284
▁Google	-11.6284
▁Seminar	-11.6284
▁delicious	-11.6284
▁diminish	-11.6284
▁drift	-11.6284
▁equitable	-11.6284
▁fluctuat	-11.6284
▁harmonization	-11.6284
▁instantly	-11.6284
▁motherfuck	-11.6284
▁Collection	-11.6284
▁Vegas	-11.6284
▁attorney	-11.6284
▁ceiling	-11.6284
▁census	-11.6284
▁dancing	-11.6284
▁lodged	-11.6284
Jacques	-11.6284
▁commerce	-11.6284
▁imperative	-11.6284
▁Correction	-11.6284
▁Enhance	-11.6284
▁FROM	-11.6284
▁Goodbye	-11.6284
▁Licens	-11.6284
▁monument	-11.6284
▁Double	-11.6284
▁demographic	-11.6284
▁horizontal	-11.6284
TRANS	-11.6284
▁Engineering	-11.6284
▁pupil	-11.6284
▁robber	-11.6284
▁proposing	-11.6284
▁blade	-11.6284
▁cattle	-11.6284
▁interior	-11.6284
▁forthcoming	-11.6284
▁Pilot	-11.6284
ISBN	-11.6284
▁Trend	-11.6285
▁allegation	-11.6285
▁detained	-11.6285
▁Athens	-11.6285
▁jerk	-11.6285
▁strive	-11.6285
▁outreach	-11.6285
▁alliance	-11.6285
/56/	-11.6285
ritten	-11.6285
▁dishes	-11.6286
▁royal	-11.6286
▁tiny	-11.6287
▁Initial	-11.6287
CTOR	-11.629
▁batch	-11.6292
▁valve	-11.6297
__________	-11.6349
Format	-11.6359
6.9	-11.6457
4.9	-11.6472
resistant	-11.6474
▁repay	-11.6504
▁Temp	-11.6507
wastewater	-11.6585
dynamic	-11.6857
function	-11.6857
Chair	-11.6857
terrorism	-11.6858
English	-11.6858
“	-11.6858
guard	-11.6858
▁journal	-11.6879
▁sustain	-11.6899
cribed	-11.6911
▁procedur	-11.6914
▁Again	-11.6945
urveillance	-11.6948
ootnote	-11.6949
▁Absolutely	-11.6951
▁Agricultural	-11.6951
▁Database	-11.6951
▁Economy	-11.6951
▁Excellency	-11.6951
▁Florida	-11.6951
▁Hamilton	-11.6951
▁Respondent	-11.6951
▁Settlement	-11.6951
▁Slovakia	-11.6951
▁Treaties	-11.6951
▁Zimbabwe	-11.6951
▁abundant	-11.6951
▁adventure	-11.6951
▁bilingual	-11.6951
▁cabinet	-11.6951
▁celebration	-11.6951
▁chocolate	-11.6951
▁commodity	-11.6951
▁coordinating	-11.6951
▁coordinator	-11.6951
▁crochet	-11.6951
▁entertainment	-11.6951
▁entitlement	-11.6951
▁entrust	-11.6951
▁envisaged	-11.6951
▁episode	-11.6951
▁identical	-11.6951
▁imprisonment	-11.6951
▁licensing	-11.6951
▁mobilize	-11.6951
▁molecular	-11.6951
▁penalties	-11.6951
▁portfolio	-11.6951
▁premises	-11.6951
▁pronounce	-11.6951
▁purchasing	-11.6951
▁surprising	-11.6951
▁survivor	-11.6951
▁vaccination	-11.6951
▁varieties	-11.6951
▁vulnerability	-11.6951
▁Uganda	-11.6951
▁appliance	-11.6951
▁heavily	-11.6951
▁indicating	-11.6951
▁premature	-11.6951
▁suppress	-11.6951
▁surrender	-11.6951
▁tunnel	-11.6951
▁Approve	-11.6951
▁Junior	-11.6951
▁Neither	-11.6951
▁abstract	-11.6951
▁clarity	-11.6951
▁unchanged	-11.6951
▁(212)	-11.6951
▁Answer	-11.6951
▁Function	-11.6951
▁Gallery	-11.6951
▁Regular	-11.6951
▁detriment	-11.6951
▁replies	-11.6951
▁mainstreaming	-11.6951
▁silver	-11.6951
▁automated	-11.6951
▁Polish	-11.6951
▁flew	-11.6951
▁Bishop	-11.6951
▁ACOA	-11.6951
▁Urba	-11.6951
▁Animal	-11.6951
▁Lanka	-11.6951
▁Nigeria	-11.6951
Positive	-11.6951
▁Estonia	-11.6951
▁lonely	-11.6951
▁creep	-11.6951
▁overseas	-11.6951
▁sphere	-11.6951
▁Credit	-11.6951
▁garage	-11.6951
▁naked	-11.6951
▁wool	-11.6951
▁pulse	-11.6951
▁steam	-11.6951
▁Heaven	-11.6951
▁descend	-11.6951
▁Aviation	-11.6951
▁9:00	-11.6951
▁distant	-11.6951
▁intervals	-11.6951
▁Tower	-11.6951
▁Snow	-11.6952
▁Emily	-11.6952
▁interpreted	-11.6952
▁winning	-11.6952
immune	-11.6952
▁costume	-11.6952
▁minus	-11.6952
▁963-	-11.6952
▁Cancer	-11.6953
▁nerve	-11.6953
▁Receiv	-11.6953
▁intervene	-11.6964
▁Polit	-11.6965
balanc	-11.6983
▁assemble	-11.6995
▁Urge	-11.7205
▁quo	-11.7263
AKE	-11.7268
1.9	-11.744
Figure	-11.7572
conflict	-11.7572
project	-11.7572
international	-11.7573
piece	-11.7573
Where	-11.7575
keeper	-11.7633
▁inject	-11.7652
▁disseminat	-11.7659
nforcement	-11.7659
IGHT	-11.7661
PRODUCT	-11.7665
osphere	-11.7665
english	-11.7665
WHERE	-11.7665
▁Capacity	-11.7665
▁Comprehensi	-11.7665
▁Hollywood	-11.7665
▁Requirements	-11.7665
▁creativity	-11.7665
▁militia	-11.7665
ydraulic	-11.7665
▁Academy	-11.7665
▁Accommodation	-11.7665
▁Amsterdam	-11.7665
▁Attention	-11.7665
▁Beautiful	-11.7665
▁CANADA	-11.7665
▁Copyright	-11.7665
▁DECISION	-11.7665
▁Different	-11.7665
▁Edmonton	-11.7665
▁Empire	-11.7665
▁Experience	-11.7665
▁Extension	-11.7665
▁Facilities	-11.7665
▁Facility	-11.7665
▁Guatemala	-11.7665
▁Inspection	-11.7665
▁Inspector	-11.7665
▁MEDICIN	-11.7665
▁Maintenance	-11.7665
▁Observer	-11.7665
▁Pollution	-11.7665
▁Recogniz	-11.7665
▁altitude	-11.7665
▁artificial	-11.7665
▁bureau	-11.7665
▁circulation	-11.7665
▁collaborate	-11.7665
▁continuity	-11.7665
▁disappointed	-11.7665
▁discourage	-11.7665
▁dispatch	-11.7665
▁dividends	-11.7665
▁enrolled	-11.7665
▁experiencing	-11.7665
▁frustrat	-11.7665
▁gorgeous	-11.7665
▁incumbent	-11.7665
▁leaflet	-11.7665
▁maximiz	-11.7665
▁membrane	-11.7665
▁miracle	-11.7665
▁motorcycle	-11.7665
▁opponent	-11.7665
▁optimal	-11.7665
▁peripher	-11.7665
▁philosophy	-11.7665
▁proximity	-11.7665
▁stipulate	-11.7665
▁striking	-11.7665
▁terrific	-11.7665
▁tournament	-11.7665
▁unexpected	-11.7665
▁voluntarily	-11.7665
▁wheelchair	-11.7665
luminium	-11.7665
▁Counsellor	-11.7665
▁Eddie	-11.7665
▁Myanmar	-11.7665
▁Particular	-11.7665
▁Virgin	-11.7665
▁WORK	-11.7665
▁disciple	-11.7665
▁guitar	-11.7665
▁lobby	-11.7665
▁patience	-11.7665
▁romantic	-11.7665
▁widow	-11.7665
▁Graham	-11.7665
▁Poverty	-11.7665
▁Railway	-11.7665
▁Target	-11.7665
▁Zealand	-11.7665
▁awaken	-11.7665
▁expedition	-11.7665
▁genius	-11.7665
▁Oliver	-11.7665
appendix	-11.7665
▁Texas	-11.7665
▁sacred	-11.7665
▁transplant	-11.7665
▁Arthur	-11.7665
▁stroke	-11.7665
▁racism	-11.7665
▁Saudi	-11.7665
▁insolven	-11.7665
▁Speech	-11.7665
▁retreat	-11.7665
▁clown	-11.7665
▁corps	-11.7665
▁Hitler	-11.7665
educated	-11.7665
▁terminal	-11.7665
▁Strike	-11.7665
▁Outcome	-11.7665
▁blew	-11.7665
▁sentiment	-11.7665
▁Angola	-11.7666
▁True	-11.7666
▁Iceland	-11.7666
▁stairs	-11.7666
ogenous	-11.7666
▁sodium	-11.7666
▁bonus	-11.7666
▁witch	-11.7666
▁crystal	-11.7666
▁yelling	-11.7666
▁Hawk	-11.7666
▁Nathan	-11.7666
▁Moore	-11.7666
▁nominal	-11.7667
▁stitch	-11.7668
▁rude	-11.7668
▁trauma	-11.7668
ddiction	-11.7668
▁dictat	-11.7668
▁intimate	-11.7669
uzzle	-11.7672
▁Write	-11.7678
▁nominate	-11.7681
.12.200	-11.7694
▁larva	-11.7715
▁Understand	-11.774
▁Julie	-11.7767
centralized	-11.8011
▁Origin	-11.8154
▁demonstrat	-11.8285
cookie	-11.832
dimension	-11.8341
generation	-11.8342
structure	-11.8342
private	-11.8342
Agency	-11.8342
development	-11.8342
world	-11.8342
secure	-11.8343
▁Universit	-11.8411
▁terror	-11.8426
▁migrat	-11.8427
▁corrupt	-11.8428
▁Engine	-11.8434
▁aboriginal	-11.8434
PUBLIC	-11.8434
RTICLE	-11.8434
▁Announce	-11.8434
▁Believe	-11.8434
▁Calgary	-11.8434
▁Cameroon	-11.8434
▁Catalogu	-11.8434
▁Catherine	-11.8434
▁Conflict	-11.8434
▁Douglas	-11.8434
▁Honduras	-11.8434
▁Implementing	-11.8434
▁Independence	-11.8434
▁Observatory	-11.8434
▁Recovery	-11.8434
▁Taliban	-11.8434
▁Tanzania	-11.8434
▁Territories	-11.8434
▁Twitter	-11.8434
▁Ukrainian	-11.8434
▁abnormal	-11.8434
▁accreditation	-11.8434
▁altogether	-11.8434
▁ambassador	-11.8434
▁celebrating	-11.8434
▁ceramic	-11.8434
▁chemistry	-11.8434
▁continually	-11.8434
▁controversial	-11.8434
▁cuisine	-11.8434
▁cylinder	-11.8434
▁declining	-11.8434
▁deliberations	-11.8434
▁diagnosis	-11.8434
▁earthquake	-11.8434
▁eradication	-11.8434
▁excellence	-11.8434
▁explosive	-11.8434
▁garbage	-11.8434
▁illustration	-11.8434
▁neglect	-11.8434
▁occupant	-11.8434
▁qualitative	-11.8434
▁qualities	-11.8434
▁refrain	-11.8434
▁registry	-11.8434
▁sanitation	-11.8434
▁specimen	-11.8434
▁subsidiary	-11.8434
▁suspicious	-11.8434
▁syndrome	-11.8434
▁treasure	-11.8434
▁unnecessary	-11.8434
naissance	-11.8434
▁Accident	-11.8434
▁Antonio	-11.8434
▁Improvement	-11.8434
▁Jersey	-11.8434
▁Liaison	-11.8434
▁Malaysia	-11.8434
▁Statute	-11.8434
▁UNFPA	-11.8434
▁duplication	-11.8434
▁imbalance	-11.8434
▁proponent	-11.8434
▁refrigera	-11.8434
▁sampling	-11.8434
▁variance	-11.8434
▁Amount	-11.8434
▁Census	-11.8434
▁Multiple	-11.8434
▁cancellation	-11.8434
▁cultivat	-11.8434
▁ethics	-11.8434
▁sophisticat	-11.8434
▁worship	-11.8434
▁Achiev	-11.8434
▁compartment	-11.8434
▁sandwich	-11.8434
▁(2000)	-11.8434
▁Obama	-11.8434
▁UNECE	-11.8434
▁NPRI	-11.8434
▁revenge	-11.8434
▁Supply	-11.8434
▁thrill	-11.8434
▁Microsoft	-11.8434
▁capsule	-11.8434
▁babies	-11.8434
▁disguise	-11.8434
▁scream	-11.8434
▁Palace	-11.8434
▁Video	-11.8434
▁silent	-11.8434
▁Counsel	-11.8434
▁Decides	-11.8434
▁Jacob	-11.8434
▁senator	-11.8435
▁Ralph	-11.8435
▁piano	-11.8435
▁Nepal	-11.8435
▁bulk	-11.8435
▁FBI	-11.8435
EMBER	-11.8435
▁eager	-11.8435
▁Resident	-11.8435
▁worn	-11.8435
hectare	-11.8435
▁Decree	-11.8435
(2004)	-11.8435
▁modify	-11.8435
/61/	-11.8436
▁Wolf	-11.8436
ndangered	-11.8436
/58/	-11.8436
▁Friends	-11.8438
Laurent	-11.8439
▁spectr	-11.8439
▁slap	-11.844
OOK	-11.8441
FCCC	-11.8442
▁patch	-11.8442
▁sauce	-11.8443
LAND	-11.8452
▁liais	-11.8465
annual	-11.8469
▁overlap	-11.8475
▁Voi	-11.8507
rimary	-11.855
Appli	-11.8618
▁exercis	-11.8631
▁discontinu	-11.87
▁emergenc	-11.8721
Extra	-11.9112
Document	-11.9174
Africa	-11.9175
August	-11.9175
International	-11.9175
Government	-11.9175
▁preparat	-11.925
ordination	-11.9263
▁Secret	-11.9265
oluntary	-11.9266
▁horizon	-11.9268
▁AUTHOR	-11.9268
▁INTERN	-11.9268
▁Manufacturing	-11.9268
▁Responsibility	-11.9268
▁conjuncti	-11.9268
▁deliberate	-11.9268
▁expeditious	-11.9268
▁reintegrat	-11.9268
conservative	-11.9268
▁2003-2004	-11.9268
▁ABOUT	-11.9268
▁Alzheimer	-11.9268
▁Apparently	-11.9268
▁COSEWIC	-11.9268
▁Communist	-11.9268
▁Companies	-11.9268
▁Complainant	-11.9268
♪	-12.6541
