<pad>	0
<unk>	0
.	-3.25669
s	-3.3917
▁de	-3.40186
'	-3.44359
,	-3.58128
▁	-3.99505
▁la	-4.12239
▁et	-4.35621
▁l	-4.3642
▁le	-4.48602
▁à	-4.5033
▁les	-4.567
▁d	-4.57917
▁des	-4.58591
e	-4.83715
-	-4.91175
▁du	-4.94959
▁en	-4.97871
▁que	-5.07894
▁a	-5.26113
▁pour	-5.26441
▁un	-5.30729
▁-	-5.34084
r	-5.35812
▁pas	-5.36954
’	-5.38077
▁dans	-5.40165
▁est	-5.48304
▁une	-5.50482
est	-5.52147
▁?	-5.52524
▁au	-5.59702
▁sur	-5.60008
▁par	-5.67823
▁qui	-5.67904
▁(	-5.74261
es	-5.77716
▁Je	-5.78611
▁C	-5.80411
▁ne	-5.80648
a	-5.8285
▁n	-5.89756
▁ce	-5.90394
)	-5.90442
é	-5.90854
▁qu	-5.97655
▁Le	-5.98373
▁vous	-6.03275
er	-6.0483
▁plus	-6.05979
il	-6.08768
▁s	-6.10295
t	-6.11536
▁je	-6.16239
▁Il	-6.19164
▁aux	-6.20724
▁c	-6.22564
▁ou	-6.23499
▁sont	-6.23697
▁La	-6.29302
ai	-6.30667
▁avec	-6.30993
un	-6.31395
?	-6.32051
▁L	-6.32328
ment	-6.3296
▁!	-6.34607
▁se	-6.35341
▁Les	-6.36244
:	-6.36855
...	-6.3877
/	-6.41311
ant	-6.41313
en	-6.41636
y	-6.43899
▁il	-6.45855
nt	-6.46756
▁été	-6.52885
▁J	-6.53657
▁ont	-6.55079
▁nous	-6.55589
▁tu	-6.58608
▁:	-6.58982
on	-6.60487
▁être	-6.65456
▁Tu	-6.66149
▁M	-6.68006
▁fait	-6.68585
l	-6.70464
▁m	-6.72317
une	-6.72506
▁A	-6.76036
ent	-6.76223
c	-6.77419
z	-6.77809
▁S	-6.78604
C	-6.79021
▁ça	-6.81486
A	-6.83696
h	-6.8443
▁comme	-6.84802
▁cette	-6.85187
o	-6.86044
▁son	-6.87769
▁si	-6.89085
▁On	-6.89753
▁me	-6.90653
ce	-6.90818
n	-6.91254
▁bien	-6.92265
▁j	-6.92529
▁D	-6.93482
▁tout	-6.95573
▁faire	-6.96325
le	-6.96544
▁peut	-6.9703
p	-6.97618
▁y	-6.98593
;	-6.9902
▁mais	-6.99684
▁Vous	-7.0063
▁En	-7.0136
▁T	-7.014
d	-7.01735
▁sa	-7.03858
ra	-7.05467
i	-7.0583
▁on	-7.06494
▁"	-7.07331
▁leur	-7.09366
ait	-7.09464
▁1	-7.09705
▁p	-7.0988
▁ces	-7.1044
▁Et	-7.10808
re	-7.10893
▁«	-7.12758
▁suis	-7.13887
▁t	-7.1439
▁P	-7.15319
▁o	-7.15834
S	-7.17533
an	-7.17838
!	-7.18274
ation	-7.19743
ez	-7.23107
u	-7.23978
▁Canada	-7.26828
▁mon	-7.27366
f	-7.27591
in	-7.28572
la	-7.29729
▁tous	-7.30458
▁va	-7.30472
▁pays	-7.30662
b	-7.308
▁deux	-7.31586
▁F	-7.32004
it	-7.32005
▁entre	-7.32075
al	-7.32206
▁te	-7.32423
▁même	-7.34678
te	-7.34722
▁non	-7.35117
ur	-7.35621
▁B	-7.36481
▁Elle	-7.37769
▁b	-7.37843
▁votre	-7.37909
ci	-7.38114
ons	-7.38418
ée	-7.3898
▁aussi	-7.39685
▁ma	-7.39772
▁Si	-7.41225
▁lui	-7.41478
▁Nous	-7.4197
m	-7.42447
▁in	-7.44122
▁Mais	-7.44548
▁ses	-7.45262
▁2	-7.45475
▁R	-7.45702
elle	-7.45863
ou	-7.46384
és	-7.46742
▁Ce	-7.47085
g	-7.47762
).	-7.4864
P	-7.49193
▁était	-7.50611
ro	-7.51056
or	-7.51834
▁Un	-7.51863
▁G	-7.52718
▁moi	-7.52871
as	-7.53594
▁cas	-7.53761
E	-7.54223
v	-7.54303
▁elle	-7.54639
D	-7.55082
▁travail	-7.56957
▁doit	-7.5697
▁Pour	-7.57672
M	-7.57861
▁4	-7.57871
▁dit	-7.58014
▁5	-7.58498
▁rapport	-7.59596
age	-7.59813
▁De	-7.62251
▁Conseil	-7.62642
▁Commission	-7.6381
▁également	-7.64197
▁Non	-7.64444
▁3	-7.65047
"	-7.65886
être	-7.66458
T	-7.66902
mi	-7.67149
at	-7.67291
▁où	-7.68698
vous	-7.69188
▁là	-7.69844
▁temps	-7.69907
G	-7.70096
B	-7.70139
▁Dans	-7.70879
▁re	-7.71458
▁très	-7.71862
té	-7.73173
▁sous	-7.73703
▁sais	-7.74575
▁ré	-7.74625
▁sans	-7.74788
de	-7.74923
▁ainsi	-7.75056
O	-7.75139
▁19	-7.75299
x	-7.75784
▁h	-7.76078
▁veux	-7.76349
ir	-7.76409
▁N	-7.77013
▁développement	-7.7755
▁leurs	-7.7806
▁vie	-7.78122
N	-7.78339
▁services	-7.78616
ie	-7.78656
au	-7.78785
▁dire	-7.79186
us	-7.79528
▁notre	-7.79697
▁ans	-7.797
▁soit	-7.80445
ion	-7.80821
is	-7.80921
▁dé	-7.81316
ont	-7.81587
▁E	-7.81955
à	-7.82261
autres	-7.82608
▁%	-7.83178
ré	-7.83185
L	-7.83227
▁contre	-7.83783
▁Une	-7.83836
ils	-7.84014
tu	-7.84043
▁jour	-7.84519
ch	-7.8478
▁membres	-7.84852
▁ici	-7.8497
▁autres	-7.85121
ter	-7.85161
▁partie	-7.85171
▁6	-7.85328
▁Ça	-7.85431
F	-7.85534
▁sera	-7.86456
▁fois	-7.87891
ne	-7.88465
ais	-7.88658
▁Qu	-7.88815
▁cours	-7.88942
▁encore	-7.89367
▁avoir	-7.89411
ul	-7.90318
▁toi	-7.90479
▁États	-7.90919
▁point	-7.91358
▁avait	-7.91436
était	-7.91551
▁projet	-7.91568
ement	-7.91596
▁10	-7.92259
aient	-7.92682
▁sécurité	-7.93643
▁voir	-7.93655
▁dont	-7.93694
H	-7.93695
▁Oui	-7.93749
ées	-7.94085
▁À	-7.94607
▁avant	-7.94676
▁moins	-7.94729
ar	-7.94791
▁I	-7.94909
▁H	-7.95106
▁chose	-7.95137
▁demande	-7.96188
R	-7.96275
moi	-7.96445
k	-7.96498
ance	-7.97501
▁compte	-7.97533
▁peux	-7.97683
▁quoi	-7.97791
▁peu	-7.98043
2	-7.98853
article	-7.99038
li	-7.99687
▁personnes	-7.99999
▁g	-8.0043
ti	-8.00739
▁programme	-8.008
ri	-8.00855
▁après	-8.00975
▁santé	-8.01141
▁»	-8.0124
▁peuvent	-8.01446
▁droit	-8.01835
ver	-8.02102
les	-8.0247
▁toutes	-8.02646
▁faut	-8.02658
▁monde	-8.0275
©	-8.02805
▁K	-8.02817
▁7	-8.04029
el	-8.04109
▁autre	-8.04531
▁Par	-8.04778
▁rien	-8.04844
que	-8.04915
op	-8.05034
▁Re	-8.05058
eur	-8.05215
▁ta	-8.05321
▁données	-8.05331
▁droits	-8.06026
▁toujours	-8.06071
▁vais	-8.06076
▁plan	-8.06312
▁Au	-8.06559
▁besoin	-8.06771
ing	-8.06924
5	-8.06939
▁cadre	-8.07723
▁mise	-8.08319
▁Ils	-8.0861
▁bon	-8.08794
▁avez	-8.08802
eau	-8.08953
▁quand	-8.10221
▁nombre	-8.10281
▁jamais	-8.10434
▁eu	-8.10785
▁Des	-8.11035
),	-8.11228
▁ils	-8.1127
um	-8.11296
▁Cette	-8.11788
di	-8.11899
▁question	-8.11998
ac	-8.12068
▁recherche	-8.12206
▁donc	-8.12441
▁système	-8.12616
▁base	-8.1276
Ã	-8.12833
▁f	-8.13041
▁nom	-8.1318
information	-8.13233
(	-8.1353
▁dis	-8.14314
I	-8.14529
com	-8.15384
▁politique	-8.15529
▁doivent	-8.15863
▁mesures	-8.16374
▁9	-8.16443
ine	-8.16748
▁chez	-8.1749
▁avons	-8.17529
▁toute	-8.17571
▁juste	-8.17626
▁afin	-8.1792
▁activités	-8.17966
▁pré	-8.18007
▁personne	-8.18491
▁trois	-8.18685
▁é	-8.18822
▁produits	-8.18829
ique	-8.1909
able	-8.19165
4	-8.19492
▁femmes	-8.19857
▁nos	-8.20047
et	-8.20256
V	-8.20494
▁gouvernement	-8.2059
▁Comité	-8.20876
▁quelque	-8.20908
aire	-8.20979
▁cet	-8.2102
▁°	-8.21182
▁O	-8.21403
aux	-8.21981
▁8	-8.22065
th	-8.22108
▁depuis	-8.22161
▁vue	-8.22411
id	-8.23136
▁questions	-8.23404
▁enfants	-8.23419
▁niveau	-8.23425
▁part	-8.23525
ol	-8.23727
ut	-8.23728
▁ton	-8.23778
▁présent	-8.24495
▁W	-8.24688
▁premier	-8.24794
▁matière	-8.25168
co	-8.25294
▁chaque	-8.25411
▁18	-8.2557
▁général	-8.25598
▁es	-8.25674
▁V	-8.26189
▁première	-8.26332
ité	-8.2638
▁vers	-8.26654
▁façon	-8.26916
▁km	-8.27195
]	-8.275
▁place	-8.27696
▁maintenant	-8.27892
ca	-8.28403
▁groupe	-8.28563
▁fin	-8.28709
▁européenne	-8.28827
▁déjà	-8.29079
me	-8.29297
man	-8.29298
▁êtes	-8.2954
ct	-8.29604
▁20	-8.30113
che	-8.30449
▁car	-8.30704
am	-8.30715
▁Comment	-8.30867
»	-8.31013
▁gestion	-8.31285
▁jusqu	-8.31497
▁15	-8.31783
▁paragraphe	-8.3211
▁vis	-8.32213
▁concernant	-8.32323
▁as	-8.3236
1	-8.3244
3	-8.3244
accord	-8.32567
▁12	-8.32724
▁Ne	-8.32769
▁grand	-8.32876
sse	-8.33081
▁contrôle	-8.33141
▁Pourquoi	-8.33143
00	-8.3325
▁décision	-8.33396
▁processus	-8.33559
▁prendre	-8.33601
▁moment	-8.33769
▁alors	-8.33978
www	-8.34503
▁pense	-8.35075
▁résultats	-8.35086
▁situation	-8.35447
ta	-8.35605
▁[	-8.35824
▁vu	-8.35856
▁pendant	-8.35873
▁Ma	-8.36182
min	-8.36291
▁savoir	-8.36308
▁règlement	-8.36371
ad	-8.3667
▁lieu	-8.36687
▁vos	-8.36997
w	-8.37046
▁raison	-8.37572
▁fais	-8.38213
nce	-8.38401
U	-8.38735
to	-8.39555
hui	-8.39803
▁Pas	-8.40068
▁vraiment	-8.40359
dé	-8.40505
ph	-8.40908
ex	-8.40951
qu	-8.4099
▁marché	-8.41677
▁Bien	-8.4186
▁mois	-8.42046
▁co	-8.42108
mo	-8.42153
im	-8.42361
▁Alors	-8.4248
▁nouveau	-8.42513
▁années	-8.4252
▁Ces	-8.42604
▁grande	-8.43117
om	-8.43184
▁beaucoup	-8.43619
tra	-8.43659
▁secteur	-8.44039
▁service	-8.44844
if	-8.44865
▁possible	-8.4501
eux	-8.45214
ab	-8.45377
É	-8.45413
▁programmes	-8.45473
ard	-8.45938
▁période	-8.46184
▁mesure	-8.46228
ig	-8.4639
▁Ch	-8.47249
▁r	-8.47554
▁cela	-8.47558
▁mieux	-8.47655
ier	-8.47668
▁nouvelle	-8.48023
ale	-8.48038
na	-8.4823
▁générale	-8.4849
▁11	-8.48916
▁formation	-8.49214
▁tant	-8.49508
▁Président	-8.49557
ic	-8.49589
▁v	-8.49645
ho	-8.49785
▁Source	-8.4979
▁économique	-8.49877
▁14	-8.5013
.1	-8.50545
▁ceux	-8.50964
▁13	-8.51005
▁devrait	-8.51036
aide	-8.51285
6	-8.51504
▁étaient	-8.5154
▁millions	-8.51635
autre	-8.51762
▁partir	-8.518
▁Tout	-8.52024
▁Mon	-8.52041
ins	-8.52397
▁30	-8.53033
▁Merci	-8.53278
▁con	-8.53674
ag	-8.53887
▁exemple	-8.54187
▁Comme	-8.54266
ère	-8.54833
▁manière	-8.55076
▁reste	-8.55083
▁seulement	-8.5575
▁prix	-8.5611
▁ville	-8.56165
▁Oh	-8.56263
▁pourrait	-8.56376
▁ci	-8.56644
▁dois	-8.56903
▁of	-8.57057
▁pro	-8.57114
▁protection	-8.57417
▁rôle	-8.57422
▁ressources	-8.57424
homme	-8.57494
Union	-8.57685
▁important	-8.57821
▁présente	-8.5785
▁personnel	-8.57932
▁parler	-8.57954
▁no	-8.58359
▁site	-8.58404
▁comment	-8.58635
▁pu	-8.58667
▁seul	-8.5871
rait	-8.58756
▁gens	-8.58774
lé	-8.58777
▁titre	-8.59285
▁loi	-8.59362
État	-8.59654
▁politiques	-8.59803
action	-8.59847
▁crois	-8.60078
▁mettre	-8.60122
▁public	-8.60201
▁mis	-8.60247
ô	-8.6061
▁Que	-8.60785
▁DE	-8.60841
pé	-8.60877
art	-8.6095
▁mal	-8.60952
ot	-8.61045
cr	-8.61243
▁taux	-8.61616
▁seront	-8.61635
gu	-8.61705
elles	-8.62076
ront	-8.6234
go	-8.62431
son	-8.62525
://	-8.6257
▁sûr	-8.62803
▁plusieurs	-8.62846
0	-8.62938
▁passé	-8.6296
▁17	-8.62995
▁jours	-8.63097
▁qualité	-8.63239
tre	-8.63463
▁Nations	-8.63722
▁maison	-8.6378
▁aller	-8.64115
▁lors	-8.64201
par	-8.64238
éri	-8.64256
▁pourquoi	-8.64278
▁donné	-8.64299
ia	-8.64333
eurs	-8.644
▁16	-8.64433
▁projets	-8.64539
▁compris	-8.64543
▁renseignements	-8.64879
▁Ca	-8.65021
ici	-8.65035
ton	-8.65169
tte	-8.65193
▁fonction	-8.65231
­	-8.65389
ions	-8.65441
▁parce	-8.65455
▁conditions	-8.65578
▁2006	-8.65614
ve	-8.65616
▁mort	-8.65763
▁trop	-8.65983
▁traitement	-8.6602
▁suite	-8.66046
od	-8.66082
▁ex	-8.66102
▁européen	-8.66203
▁sujet	-8.66251
pa	-8.66302
vi	-8.66422
▁mes	-8.66566
7	-8.66809
ille	-8.67025
▁production	-8.67128
ants	-8.672
▁serait	-8.67226
▁région	-8.67296
▁veut	-8.67413
▁http	-8.67834
▁pris	-8.68111
▁certains	-8.68215
be	-8.68261
da	-8.68517
▁risque	-8.68851
▁famille	-8.68859
ive	-8.68989
ux	-8.69062
lon	-8.69155
▁celui	-8.69247
ba	-8.69357
▁Dieu	-8.69481
▁vrai	-8.69633
▁problème	-8.6977
▁notamment	-8.69776
20	-8.69789
ma	-8.70308
je	-8.70313
▁cause	-8.7069
environnement	-8.70947
évaluation	-8.71008
lo	-8.71093
▁Mar	-8.71286
▁domaine	-8.71332
▁nouvelles	-8.71501
▁2004	-8.71569
né	-8.7162
▁pouvoir	-8.7166
ner	-8.71875
du	-8.719
▁ch	-8.72173
▁produit	-8.72276
▁trouver	-8.72313
ê	-8.72432
▁000	-8.72512
emploi	-8.72557
ction	-8.72801
▁2005	-8.73025
▁type	-8.73092
con	-8.73139
ge	-8.73206
pl	-8.73286
CE	-8.73311
10	-8.73326
▁quelques	-8.73388
▁décembre	-8.73786
▁internationale	-8.73833
▁résolution	-8.73869
▁0	-8.73948
end	-8.74016
▁juin	-8.74052
ni	-8.7408
mp	-8.74126
▁the	-8.7429
ris	-8.74576
air	-8.74609
▁ai	-8.74633
▁forme	-8.74671
urs	-8.74791
ly	-8.7483
▁Con	-8.74909
pi	-8.75141
▁dollars	-8.75201
▁femme	-8.75253
▁nécessaire	-8.75525
ure	-8.75861
up	-8.76269
▁société	-8.76491
▁pouvez	-8.7658
▁petit	-8.76705
vo	-8.76882
▁moyen	-8.77038
▁coup	-8.77083
▁25	-8.77133
▁Ro	-8.77151
▁sommes	-8.77153
▁2007	-8.77167
▁entreprises	-8.77552
▁$	-8.77927
utilisation	-8.78043
▁document	-8.78184
tique	-8.78338
per	-8.78625
▁effet	-8.78642
▁mère	-8.78677
▁Unies	-8.78881
▁particulier	-8.79172
org	-8.79414
▁année	-8.79419
_	-8.79472
mé	-8.79679
ub	-8.79922
▁père	-8.79982
K	-8.80003
▁ni	-8.80103
rie	-8.80335
ts	-8.80805
▁Loi	-8.80917
▁sens	-8.80963
ois	-8.81065
▁É	-8.81165
ten	-8.81171
▁Qui	-8.81236
ll	-8.81274
▁aujourd	-8.82453
▁trouve	-8.82524
▁publique	-8.82626
▁Vi	-8.82829
▁reçu	-8.82851
▁Allez	-8.82869
▁heures	-8.82957
▁session	-8.82973
ue	-8.83069
do	-8.83291
▁2003	-8.83611
▁liste	-8.83721
argent	-8.83854
toi	-8.84037
▁concerne	-8.84224
ed	-8.84348
▁Y	-8.84501
▁In	-8.84532
▁2002	-8.84617
ette	-8.84723
▁date	-8.85057
▁porte	-8.85062
and	-8.85285
AN	-8.85312
▁bonne	-8.85331
▁passe	-8.85335
avoir	-8.85417
▁déc	-8.85428
tion	-8.85487
pos	-8.85604
▁Co	-8.85728
isation	-8.85817
▁ligne	-8.85994
▁donner	-8.8605
▁population	-8.86209
▁Sa	-8.86401
▁valeur	-8.86592
W	-8.86627
os	-8.86628
iste	-8.86645
▁vol	-8.86652
▁donne	-8.86939
▁21	-8.87283
▁Dé	-8.87345
▁établi	-8.87354
ateur	-8.87404
pe	-8.8754
rai	-8.87799
use	-8.87953
▁Quand	-8.88135
aires	-8.88282
▁No	-8.88469
▁aide	-8.88572
cul	-8.88763
▁nationale	-8.88787
▁seule	-8.88815
▁quelqu	-8.88837
8	-8.88876
étais	-8.88888
ire	-8.89105
▁problèmes	-8.89187
lu	-8.89319
ide	-8.89398
▁dispositions	-8.89408
agit	-8.89576
ables	-8.89583
année	-8.89618
ordre	-8.89654
▁St	-8.8985
▁bo	-8.89891
avais	-8.90027
vis	-8.90055
▁di	-8.9006
ga	-8.904
ON	-8.90572
▁puis	-8.90668
▁mars	-8.90759
▁informations	-8.9089
▁dernier	-8.91059
tes	-8.91075
application	-8.91076
IN	-8.91162
▁font	-8.91175
bi	-8.91327
▁celle	-8.91659
▁page	-8.917
int	-8.91773
▁100	-8.92078
qui	-8.9223
Unis	-8.92243
▁transport	-8.92296
▁and	-8.92324
aime	-8.92387
▁national	-8.92477
▁2000	-8.92691
▁groupes	-8.92727
▁aider	-8.92795
▁début	-8.92885
▁an	-8.92942
examen	-8.92975
même	-8.93019
▁homme	-8.93189
après	-8.93233
Assemblée	-8.93255
▁Parlement	-8.93286
▁long	-8.93778
▁tard	-8.93784
▁Mme	-8.93878
▁eux	-8.9389
ry	-8.93898
va	-8.94052
all	-8.94151
▁demandé	-8.94397
".	-8.94671
▁22	-8.94831
UE	-8.95064
▁travaux	-8.95163
▁financement	-8.95163
▁Cour	-8.95352
po	-8.95415
▁po	-8.95511
▁passer	-8.95686
▁mai	-8.95723
▁terme	-8.95747
▁parle	-8.95872
▁inter	-8.95921
▁quatre	-8.95939
abord	-8.96001
▁per	-8.96241
▁Où	-8.96327
▁laquelle	-8.96328
▁ayant	-8.96362
ienne	-8.96463
▁...	-8.96467
ES	-8.96499
▁Al	-8.96502
our	-8.96654
▁international	-8.96832
▁24	-8.97062
▁Monsieur	-8.97109
▁nouveaux	-8.97184
st	-8.97246
IS	-8.97351
iv	-8.97401
nd	-8.97446
▁texte	-8.97503
▁voie	-8.97512
▁soient	-8.97541
▁soutien	-8.9764
ha	-8.97687
lement	-8.9773
▁2008	-8.98324
▁oeuvre	-8.9864
▁montant	-8.98741
▁(1)	-8.98786
▁31	-8.98969
▁hommes	-8.99082
ap	-8.99084
▁Article	-8.99177
▁offre	-8.99274
▁ministre	-8.99296
è	-8.9947
mer	-8.99477
▁juillet	-8.99495
▁relatives	-8.99622
ché	-8.99631
ite	-8.99723
12	-8.99769
▁objectifs	-8.99823
▁devant	-8.99882
tri	-9.00017
isme	-9.0005
▁permet	-9.00169
▁aucun	-9.00189
▁coopération	-9.00315
▁cinq	-9.00468
▁directive	-9.00755
tt	-9.00866
hi	-9.00945
▁sein	-9.01
▁Cela	-9.01044
▁haut	-9.01609
ang	-9.01611
▁parties	-9.01618
ke	-9.01634
mb	-9.0177
ER	-9.01822
▁dernière	-9.01947
▁jeunes	-9.02063
▁chef	-9.02355
▁soir	-9.02495
▁lorsque	-9.02936
oc	-9.0303
▁certaines	-9.03368
entre	-9.03582
▁Groupe	-9.03602
▁septembre	-9.0362
▁documents	-9.03642
▁gr	-9.03651
ow	-9.03752
▁vertu	-9.04061
▁position	-9.04106
gi	-9.04146
▁fille	-9.04204
▁aucune	-9.04635
teur	-9.04639
ensemble	-9.04777
▁voiture	-9.04887
▁œuvre	-9.04904
ateurs	-9.05101
▁–	-9.05174
▁Bo	-9.05177
elon	-9.05217
▁près	-9.05338
ière	-9.05405
voir	-9.0559
▁respect	-9.05664
J	-9.0568
ler	-9.05694
▁police	-9.05721
▁Convention	-9.05724
▁vois	-9.05846
▁dépenses	-9.05852
▁elles	-9.05921
▁commun	-9.0601
▁semble	-9.06151
▁sociale	-9.06449
entreprise	-9.06515
19	-9.06584
no	-9.06898
près	-9.07788
▁Programme	-9.07889
activité	-9.07895
▁nombreux	-9.0793
▁but	-9.08063
11	-9.08098
▁2001	-9.08189
▁président	-9.08229
▁rapports	-9.08256
01	-9.08264
iques	-9.08397
▁sou	-9.0847
ec	-9.08516
▁vas	-9.08547
▁membre	-9.08571
▁ca	-9.08837
▁novembre	-9.09207
▁connais	-9.09237
▁choses	-9.09257
▁tête	-9.09418
▁23	-9.09434
▁outre	-9.09524
▁parti	-9.09552
▁Z	-9.09599
ger	-9.09631
▁nuit	-9.09653
ante	-9.09662
▁Bon	-9.09737
euse	-9.09765
▁semaine	-9.09931
.2	-9.09934
▁fonds	-9.10203
â	-9.10241
▁suivi	-9.10291
▁régime	-9.10295
▁Pro	-9.10435
▁Se	-9.10458
▁accord	-9.1046
▁devraient	-9.10549
ième	-9.10677
▁janvier	-9.10997
."	-9.11199
économie	-9.11449
▁Avec	-9.11449
▁paix	-9.1145
out	-9.11564
▁—	-9.11602
▁fond	-9.12107
▁Rapport	-9.1233
bo	-9.12415
▁affaires	-9.12606
▁propre	-9.1274
▁Car	-9.12791
▁éléments	-9.12816
énergie	-9.12819
▁appel	-9.12883
▁Est	-9.12922
▁note	-9.12945
▁canadien	-9.13169
▁fils	-9.13243
▁main	-9.13296
▁besoins	-9.13552
▁Du	-9.13603
ations	-9.13771
▁direction	-9.13847
▁total	-9.13868
▁to	-9.13883
em	-9.13926
mm	-9.14062
éducation	-9.14208
▁trouvé	-9.14293
▁octobre	-9.14365
▁27	-9.14523
▁propos	-9.14547
industrie	-9.14613
ord	-9.14725
▁Après	-9.14803
▁dû	-9.14827
ru	-9.15043
▁procédure	-9.15144
▁difficile	-9.15145
▁U	-9.15338
iens	-9.15411
ron	-9.15452
▁sol	-9.15479
▁grâce	-9.15616
▁participation	-9.15624
▁canadienne	-9.15672
▁création	-9.1568
▁ensemble	-9.15718
▁étant	-9.15727
éli	-9.15735
der	-9.15769
▁souvent	-9.16099
conformément	-9.16339
▁aurait	-9.16485
▁meilleure	-9.16497
▁permis	-9.16565
▁Li	-9.16615
▁milieu	-9.16627
▁environ	-9.16629
▁entendu	-9.16644
▁fer	-9.16644
▁réunion	-9.16677
▁charge	-9.16691
9	-9.16842
pro	-9.16862
▁travers	-9.17045
land	-9.17051
▁oui	-9.17152
▁avaient	-9.17166
▁al	-9.17422
15	-9.17499
°	-9.17668
onne	-9.17805
gue	-9.17976
AC	-9.17976
▁budget	-9.18009
ç	-9.18029
▁culture	-9.18162
▁revenu	-9.18193
î	-9.18371
▁50	-9.18422
▁faites	-9.18484
istes	-9.18492
▁numéro	-9.18494
▁preuve	-9.18494
▁organismes	-9.18581
avez	-9.1875
port	-9.18755
▁mari	-9.18796
igne	-9.18822
ration	-9.18949
▁plupart	-9.18983
▁déclaration	-9.19129
accès	-9.19156
ki	-9.19281
▁prêt	-9.19336
tro	-9.19392
ise	-9.19433
▁Ministère	-9.19472
▁poste	-9.19561
des	-9.19613
▁pratique	-9.19621
▁Sur	-9.19649
Europe	-9.19656
▁mission	-9.19746
▁petite	-9.19793
▁genre	-9.19967
appui	-9.19975
▁spécial	-9.20092
▁coûts	-9.20261
j	-9.20353
ative	-9.20359
▁côté	-9.2046
Y	-9.20656
▁celles	-9.20797
▁aura	-9.2082
▁>	-9.20864
▁(1	-9.20939
▁Ba	-9.21002
pri	-9.21008
▁Me	-9.21074
▁coût	-9.21168
rons	-9.2125
03	-9.21281
▁quel	-9.21336
jo	-9.21449
▁croissance	-9.2146
▁Nord	-9.21506
▁frais	-9.21518
▁Ou	-9.21533
ali	-9.2162
▁traité	-9.21632
objet	-9.21669
▁port	-9.21764
ay	-9.21831
▁for	-9.2191
▁Communauté	-9.2196
ist	-9.21971
▁débat	-9.22001
▁régions	-9.22136
ana	-9.2217
▁communication	-9.22204
▁pr	-9.22265
cu	-9.22448
Organisation	-9.22465
▁guerre	-9.22465
▁pêche	-9.22465
▁contact	-9.22465
▁technique	-9.22721
étude	-9.22801
iez	-9.22911
▁voulez	-9.22973
enseignement	-9.23001
▁lutte	-9.23018
uv	-9.23026
▁rend	-9.23088
▁organisations	-9.23257
iers	-9.23289
▁série	-9.23306
non	-9.23448
▁avril	-9.23483
▁social	-9.235
fr	-9.23619
▁mondiale	-9.23669
▁efforts	-9.24012
▁Do	-9.24043
▁terre	-9.24046
▁présenté	-9.24077
▁contrat	-9.24119
ét	-9.2419
▁assez	-9.24357
▁visite	-9.24374
▁bas	-9.24513
▁X	-9.24544
▁sait	-9.24548
res	-9.24562
▁chance	-9.24571
▁vote	-9.24576
▁systèmes	-9.24735
▁i	-9.24762
▁tenu	-9.24799
▁pi	-9.24927
▁fini	-9.25006
▁faible	-9.25035
▁comité	-9.25064
▁fort	-9.25114
nous	-9.25161
▁moyenne	-9.25206
▁communautaire	-9.25383
▁proposition	-9.25387
OM	-9.25417
lutôt	-9.2555
▁rester	-9.2569
▁sorte	-9.25755
▁communauté	-9.25922
▁fournir	-9.25999
IC	-9.26085
▁tour	-9.26131
▁Ra	-9.26423
▁1999	-9.26461
▁face	-9.26464
ate	-9.2651
▁minutes	-9.266
▁devons	-9.26613
50	-9.26695
éré	-9.26759
▁trans	-9.26823
EN	-9.26942
▁écrit	-9.27054
▁joue	-9.27077
RE	-9.27135
▁normes	-9.27275
▁différentes	-9.27334
ka	-9.27351
ong	-9.27424
▁section	-9.27437
aï	-9.27439
▁utiliser	-9.27453
ib	-9.27559
▁suivant	-9.27581
▁voyage	-9.27645
▁points	-9.2765
iff	-9.27762
▁sang	-9.2786
men	-9.27878
▁deuxième	-9.27971
▁attend	-9.27991
▁choix	-9.28196
▁Bureau	-9.2825
ui	-9.28433
image	-9.28612
▁existe	-9.28702
▁livre	-9.28738
▁durable	-9.28776
▁risques	-9.28792
▁Tous	-9.28849
US	-9.28894
▁Dr	-9.28968
eu	-9.29022
exercice	-9.29106
gin	-9.29132
▁28	-9.29209
▁réseau	-9.29235
▁manque	-9.29277
▁France	-9.29321
▁moyens	-9.29402
.3	-9.29418
▁Ex	-9.29435
val	-9.2952
▁travailler	-9.29774
hy	-9.29779
▁venir	-9.29883
▁comprendre	-9.2993
▁II	-9.29996
04	-9.30297
▁vigueur	-9.30364
▁mandat	-9.30364
origine	-9.30368
▁commerce	-9.3037
cl	-9.30395
▁1.	-9.30462
▁vient	-9.30564
▁suit	-9.30645
▁26	-9.30686
▁études	-9.30794
▁fins	-9.308
▁zone	-9.30923
▁parents	-9.3106
13	-9.31261
▁cré	-9.31264
▁centre	-9.31267
▁indiqué	-9.3139
▁autorités	-9.31501
▁laisser	-9.31566
br	-9.31666
▁avis	-9.31757
ttes	-9.31892
AR	-9.31937
▁voulais	-9.32021
▁Plus	-9.32026
assurer	-9.32069
vent	-9.32202
▁Po	-9.32211
▁utilisé	-9.32267
30	-9.32326
tin	-9.32423
ATION	-9.3252
▁réduction	-9.32596
▁règles	-9.32597
▁Dis	-9.32671
▁Ta	-9.32731
▁actuellement	-9.32735
▁rendre	-9.32774
▁Europe	-9.32936
intérêt	-9.33033
▁référence	-9.33142
▁truc	-9.33249
io	-9.33298
▁nature	-9.33377
emp	-9.33496
▁Web	-9.33708
ose	-9.33767
▁quelle	-9.33816
▁réponse	-9.33818
▁télé	-9.33967
▁marque	-9.34003
▁différents	-9.34154
nel	-9.34233
▁Secrétaire	-9.34275
▁peuple	-9.34281
▁approche	-9.34419
▁bi	-9.34441
rais	-9.345
▁fou	-9.34663
ori	-9.34671
ême	-9.34714
▁médecin	-9.34846
▁certain	-9.35023
▁;	-9.35089
enfant	-9.35376
bu	-9.35393
▁Mi	-9.35399
▁laisse	-9.35423
▁corps	-9.35424
▁Son	-9.3546
▁train	-9.35488
▁*	-9.35561
▁langue	-9.3559
▁cou	-9.35637
vé	-9.35832
▁An	-9.35919
▁vérification	-9.35999
▁Na	-9.36095
oli	-9.36119
▁participants	-9.36158
X	-9.36195
▁».	-9.36236
▁employés	-9.36259
▁Ã	-9.36275
ix	-9.36428
▁Ar	-9.36582
▁réserve	-9.36582
exploitation	-9.36597
ud	-9.36633
02	-9.36695
▁permettre	-9.36744
ien	-9.36755
▁nécessaires	-9.36762
▁capacité	-9.36787
▁changements	-9.36788
▁Mo	-9.36899
▁appelé	-9.36953
▁commune	-9.371
▁bureau	-9.37122
aine	-9.37139
▁chambre	-9.37165
▁durée	-9.37231
▁fut	-9.37383
▁pourraient	-9.3744
ven	-9.37446
nelle	-9.37467
fi	-9.37472
▁savez	-9.37555
▁prochaine	-9.37722
▁février	-9.37845
▁République	-9.37867
▁Selon	-9.37949
AT	-9.37991
aurais	-9.38008
▁ami	-9.38051
▁code	-9.38092
oire	-9.38139
▁rec	-9.38174
▁domaines	-9.38247
▁imp	-9.38247
AL	-9.38262
▁peur	-9.38315
▁The	-9.38325
administration	-9.38338
▁progrès	-9.38345
▁privé	-9.38408
ible	-9.38433
ére	-9.38513
née	-9.38786
assurance	-9.38941
▁état	-9.38952
▁New	-9.39011
▁conférence	-9.39034
▁app	-9.39216
▁simple	-9.39361
▁Man	-9.39387
▁lorsqu	-9.39411
▁matériel	-9.39539
▁message	-9.39551
gn	-9.39665
OR	-9.39684
▁Br	-9.39753
ult	-9.39846
▁déclaré	-9.39868
▁continuer	-9.3989
▁prise	-9.39942
ari	-9.39958
▁choisi	-9.39992
he	-9.39993
▁Ré	-9.40023
▁Ka	-9.40069
élaboration	-9.40142
▁tes	-9.40173
ach	-9.40332
rez	-9.40341
▁Ha	-9.40399
tant	-9.40416
▁1,	-9.40429
▁obtenir	-9.40458
▁loin	-9.40574
▁structure	-9.40636
▁Quel	-9.4064
▁gars	-9.40804
appelle	-9.40867
▁rendu	-9.40896
▁justice	-9.40931
▁six	-9.40996
▁partenaires	-9.41004
▁comprend	-9.41012
▁financière	-9.41108
▁libre	-9.41362
avis	-9.41367
▁anti	-9.41372
enquête	-9.41375
dessus	-9.41405
heure	-9.4145
ques	-9.41538
▁rep	-9.41546
CI	-9.41588
avenir	-9.41677
▁ministère	-9.41741
ade	-9.41781
état	-9.4189
▁tuer	-9.41939
▁séance	-9.42005
▁Ouais	-9.42025
nes	-9.42227
▁Centre	-9.42428
▁évaluation	-9.42527
organisation	-9.42635
▁effets	-9.42668
uel	-9.42781
▁relative	-9.42834
▁Internet	-9.42857
▁plein	-9.42858
mar	-9.43012
iser	-9.43041
ème	-9.43116
▁force	-9.43152
▁interne	-9.43194
▁liberté	-9.43209
▁allez	-9.43266
analyse	-9.4329
ole	-9.43335
ans	-9.43371
▁stratégie	-9.43664
▁application	-9.43729
pr	-9.4378
▁délégation	-9.43834
▁violence	-9.43835
▁commission	-9.43837
▁demander	-9.43843
ies	-9.4387
▁soins	-9.44051
▁sortir	-9.44206
alité	-9.44241
tal	-9.44246
▁créé	-9.4427
▁demandes	-9.44314
ages	-9.44315
▁faveur	-9.44463
▁classe	-9.4447
▁répondre	-9.44623
▁29	-9.44624
▁davantage	-9.44694
▁yeux	-9.44717
ales	-9.44753
AS	-9.44807
ame	-9.4481
▁recommandations	-9.4481
▁prises	-9.44867
▁or	-9.44939
▁mot	-9.44983
▁fichier	-9.45096
établissement	-9.45113
▁confiance	-9.45125
dition	-9.45161
ès	-9.45376
▁relations	-9.45503
▁décisions	-9.45594
▁large	-9.45619
▁analyse	-9.45651
by	-9.45685
▁réduire	-9.45733
Votre	-9.4574
▁champ	-9.45748
▁doute	-9.45885
▁perdu	-9.4605
▁déterminer	-9.46101
▁prend	-9.46157
▁/	-9.46247
▁représentant	-9.46286
venu	-9.46287
▁2010	-9.46302
▁unique	-9.46373
▁assurer	-9.46402
▁version	-9.46419
▁multi	-9.4647
▁suivants	-9.46496
cher	-9.46784
issement	-9.46813
▁fi	-9.46821
▁importante	-9.46837
▁arrivé	-9.46939
▁responsable	-9.46953
vin	-9.46996
▁plaît	-9.47019
▁délai	-9.47024
▁vite	-9.47031
▁mé	-9.47227
▁route	-9.47239
mon	-9.47345
▁ET	-9.47498
entrée	-9.47529
▁gros	-9.47545
▁fourni	-9.47546
appel	-9.47564
▁Com	-9.47615
▁principe	-9.47625
▁construction	-9.47669
▁super	-9.47686
▁matin	-9.47746
▁vont	-9.47782
▁mode	-9.47814
importance	-9.47834
▁ensuite	-9.47839
▁Sh	-9.47865
ification	-9.47889
▁su	-9.48008
▁Th	-9.48073
▁feu	-9.48095
▁juge	-9.48162
oy	-9.4822
▁Ga	-9.48297
▁modèle	-9.483
naire	-9.4831
▁stratégique	-9.48322
intention	-9.48324
▁conseil	-9.48329
avance	-9.48382
▁durant	-9.48423
ff	-9.48475
can	-9.48517
▁août	-9.48521
ind	-9.48634
▁termes	-9.4865
▁anglais	-9.48664
▁retour	-9.48766
aider	-9.48872
▁Su	-9.48883
▁contenu	-9.4898
▁2009	-9.49126
▁lit	-9.49434
▁He	-9.4947
▁Gouvernement	-9.49643
▁surveillance	-9.49651
▁grave	-9.49653
▁jouer	-9.49656
▁marche	-9.49674
▁améliorer	-9.49751
▁clients	-9.49886
▁continue	-9.50141
▁efficace	-9.50169
▁endroit	-9.50291
▁Toutefois	-9.50309
▁téléphone	-9.50313
▁_	-9.50345
▁Date	-9.50454
▁cent	-9.50505
CEE	-9.50645
▁pied	-9.51002
équipe	-9.51025
og	-9.51183
▁techniques	-9.51315
là	-9.51325
▁équipe	-9.51333
▁mondial	-9.51397
nement	-9.51569
▁Maintenant	-9.51656
▁Première	-9.51656
Agence	-9.51657
▁longtemps	-9.51658
▁Parce	-9.5168
▁Règlement	-9.51685
▁institutions	-9.51691
▁viens	-9.51704
▁sé	-9.51711
échelle	-9.51727
▁représentants	-9.51749
fa	-9.51975
ONU	-9.51988
▁arrive	-9.51993
ous	-9.5204
▁tel	-9.52065
▁pratiques	-9.52131
3)	-9.52131
▁coll	-9.52135
▁vente	-9.52197
▁cons	-9.52252
▁défense	-9.52337
don	-9.52339
▁Donc	-9.52341
▁lettre	-9.52347
16	-9.52475
ieux	-9.5263
▁bois	-9.52707
▁suivantes	-9.52767
▁futur	-9.52889
▁mer	-9.5295
▁2011	-9.52974
▁tableau	-9.53007
efficacité	-9.53021
▁chemin	-9.53023
▁ailleurs	-9.53069
ip	-9.53083
particulièrement	-9.53127
tor	-9.53178
annexe	-9.53297
ica	-9.53399
▁filles	-9.53639
tation	-9.53664
nis	-9.53702
▁40	-9.53716
▁Salut	-9.53731
▁dés	-9.53807
form	-9.5383
▁actuelle	-9.53892
égard	-9.54002
▁travaille	-9.54195
ja	-9.54223
▁exige	-9.54259
lin	-9.54305
▁adopté	-9.54394
▁Cependant	-9.54405
▁Depuis	-9.54405
▁offert	-9.54406
▁recours	-9.5441
exécution	-9.54435
▁divers	-9.54466
▁bord	-9.54506
/2	-9.54559
app	-9.54589
▁responsabilité	-9.54594
▁commence	-9.54616
▁renforcer	-9.54626
▁solution	-9.5478
▁répond	-9.54834
▁DES	-9.54938
▁publié	-9.55051
▁exigences	-9.55105
▁signe	-9.55131
▁Saint	-9.5514
▁opérations	-9.55158
▁idée	-9.55193
/1	-9.55257
▁gaz	-9.55374
ines	-9.5546
25	-9.55707
nal	-9.55724
▁conséquent	-9.55809
▁quantité	-9.55894
▁Va	-9.56041
▁condition	-9.56071
▁photo	-9.56074
▁Ve	-9.56162
▁défini	-9.56179
ng	-9.56197
yn	-9.56219
▁fil	-9.56256
enne	-9.56381
▁constitue	-9.5639
▁Canadiens	-9.56416
dire	-9.56493
▁peine	-9.56526
▁réforme	-9.56545
▁salle	-9.56625
rent	-9.56657
car	-9.56699
▁propositions	-9.5675
▁disposition	-9.56799
école	-9.56846
▁présenter	-9.56856
▁meilleur	-9.56874
▁Ho	-9.56887
ST	-9.57064
▁propriété	-9.57232
▁terrain	-9.57233
▁Bonjour	-9.57237
▁frère	-9.57252
eff	-9.57342
ern	-9.57361
met	-9.57374
ologie	-9.57389
▁enfant	-9.57497
▁civile	-9.5755
▁dès	-9.57735
▁Di	-9.57829
wa	-9.57881
▁nombreuses	-9.57955
▁conforme	-9.57967
tif	-9.57973
▁consommation	-9.57981
égalité	-9.57986
▁sub	-9.57987
▁cour	-9.58077
▁internationales	-9.5825
ak	-9.58384
cha	-9.58386
▁proposé	-9.58412
▁dernières	-9.58667
▁Quoi	-9.58691
▁crise	-9.58732
▁3.	-9.58776
▁LA	-9.58789
▁chercher	-9.58809
▁radio	-9.58849
▁figure	-9.58868
▁articles	-9.5892
▁Hé	-9.59274
▁source	-9.59378
▁principaux	-9.59406
espace	-9.59411
▁tels	-9.59418
▁examiné	-9.59419
▁tenir	-9.59435
▁journée	-9.59456
▁Quelle	-9.59492
offre	-9.59512
▁Gu	-9.59649
▁obtenu	-9.59729
▁principal	-9.59752
▁test	-9.59763
",	-9.60098
▁législation	-9.60142
ssez	-9.60144
▁trait	-9.60145
DI	-9.60223
▁directement	-9.60249
▁supérieur	-9.60255
▁Peut	-9.60272
▁telle	-9.60491
-1	-9.60527
▁possibilité	-9.60544
mes	-9.60592
▁rapide	-9.60703
▁actuel	-9.60774
▁amis	-9.60802
été	-9.60804
chi	-9.60833
▁potentiel	-9.60882
▁Fonds	-9.60883
Amérique	-9.60883
▁garde	-9.60959
▁secteurs	-9.61023
17	-9.61036
▁cor	-9.61043
▁niveaux	-9.61055
▁Hu	-9.61077
▁pression	-9.61154
▁local	-9.61303
▁égard	-9.61315
histoire	-9.6133
▁Ni	-9.61389
▁lequel	-9.61391
we	-9.61398
▁examen	-9.61435
▁»,	-9.61436
▁conclu	-9.61454
har	-9.61629
▁utile	-9.61633
▁Notre	-9.61666
▁crime	-9.61701
han	-9.61732
ives	-9.61758
▁directeur	-9.61841
tic	-9.61847
DE	-9.61941
▁Sud	-9.61999
intérieur	-9.62074
essai	-9.62081
ran	-9.62084
▁types	-9.62126
▁confi	-9.62344
intervention	-9.62505
*	-9.62512
gan	-9.62527
▁Ju	-9.62562
▁économiques	-9.62706
▁marchés	-9.62776
▁créer	-9.62786
▁ad	-9.62799
ble	-9.62855
▁technologie	-9.62869
▁crédit	-9.62878
ssent	-9.62918
voy	-9.62938
▁disponibles	-9.62941
▁changement	-9.63033
ric	-9.63084
van	-9.63094
▁seconde	-9.63098
▁partenariat	-9.63138
▁électronique	-9.63139
▁belle	-9.63246
dit	-9.63254
ano	-9.63312
ture	-9.63327
▁fr	-9.63577
dy	-9.63618
▁victimes	-9.63693
▁réussi	-9.63734
▁représente	-9.63742
nn	-9.6379
▁centrale	-9.63846
▁Conférence	-9.63901
▁réalisation	-9.63971
▁annuel	-9.63984
09	-9.64062
▁CE	-9.64097
59	-9.64106
▁autant	-9.64359
▁Or	-9.64393
ssant	-9.6443
▁Moi	-9.64493
▁fa	-9.64508
▁Personne	-9.64671
▁nationaux	-9.64672
▁1998	-9.64712
05	-9.64746
▁fonctionnement	-9.6478
Le	-9.64797
▁défi	-9.64849
▁rapidement	-9.64857
▁État	-9.64869
avait	-9.64912
▁armes	-9.64956
▁courant	-9.64987
isé	-9.65355
opération	-9.65364
▁présence	-9.65446
▁convient	-9.65448
▁ferme	-9.65461
ange	-9.6555
▁élevé	-9.65808
▁vit	-9.65906
ain	-9.65946
▁essentiel	-9.65955
xi	-9.66004
amp	-9.66031
▁contribution	-9.66061
çon	-9.66173
▁enquête	-9.66206
▁promotion	-9.66227
▁marchandises	-9.66227
▁voudrais	-9.66236
▁2012	-9.66276
▁sexe	-9.66312
▁ga	-9.66345
▁propres	-9.66363
08	-9.66486
06	-9.66496
▁intérieur	-9.66547
▁limite	-9.66578
▁(2)	-9.66614
ah	-9.66705
arme	-9.66798
▁Fais	-9.66801
▁juridique	-9.66868
▁rue	-9.6689
▁film	-9.66914
dessous	-9.66927
18	-9.66954
▁campagne	-9.67015
▁tendance	-9.67015
uis	-9.67027
▁décidé	-9.67053
▁Enfin	-9.67106
▁facteurs	-9.67205
ât	-9.67222
▁montre	-9.67228
▁quant	-9.67339
▁parc	-9.67473
aff	-9.67502
ug	-9.67528
nie	-9.67536
BAR	-9.67617
▁contexte	-9.67808
▁physique	-9.6782
▁devrais	-9.67839
▁2.	-9.67844
▁sent	-9.67874
98	-9.67878
fin	-9.6791
▁tri	-9.67977
▁atteint	-9.68011
▁Ah	-9.68033
ami	-9.68082
espère	-9.68161
▁Ad	-9.68299
ète	-9.68302
▁langues	-9.68379
ane	-9.68397
▁publication	-9.68404
ich	-9.68543
▁priorités	-9.68574
▁critères	-9.68589
urgence	-9.68608
assistance	-9.68609
antes	-9.68612
▁prévention	-9.6862
▁action	-9.68658
▁patients	-9.68665
▁So	-9.6871
ju	-9.6878
▁surtout	-9.68825
▁jeu	-9.68835
ités	-9.68986
ors	-9.69015
▁erreur	-9.6909
21	-9.69203
».	-9.69205
atif	-9.69207
▁mec	-9.69321
▁consiste	-9.6933
▁maladie	-9.69347
tage	-9.69353
▁licence	-9.69415
▁engagé	-9.69416
▁planification	-9.69454
▁tiers	-9.69561
▁venu	-9.69583
40	-9.69632
▁importants	-9.69731
ati	-9.69984
▁mou	-9.69995
éra	-9.70056
occasion	-9.70065
▁autochtones	-9.70096
Q	-9.70132
▁succès	-9.7023
▁envoyé	-9.70243
▁servir	-9.70307
▁discrimination	-9.70429
▁attention	-9.70477
ote	-9.70505
61	-9.70581
za	-9.70604
uff	-9.70633
tar	-9.70669
▁facile	-9.70869
adresse	-9.70983
tiques	-9.70986
▁met	-9.71006
▁compagnie	-9.71047
▁reconnu	-9.71047
▁Très	-9.71048
▁convention	-9.71056
▁1996	-9.71084
49	-9.71098
▁rendement	-9.71108
▁Plan	-9.71135
uc	-9.71142
asse	-9.71142
▁carte	-9.71192
▁fédéral	-9.71335
▁suivante	-9.71384
inter	-9.71598
inc	-9.71655
aille	-9.71671
expérience	-9.71739
▁dix	-9.71799
▁dirige	-9.71875
IT	-9.71882
▁méthode	-9.7189
▁devait	-9.71904
▁Fa	-9.71966
▁ferai	-9.72026
tions	-9.72164
▁devez	-9.7218
▁Jo	-9.7223
▁autour	-9.72276
▁connu	-9.72345
bas	-9.72393
▁réalisé	-9.72404
▁habit	-9.72411
▁change	-9.72432
▁présentation	-9.72466
ell	-9.7248
▁fo	-9.72488
investissement	-9.72663
▁officiel	-9.72684
▁zones	-9.72695
▁caractéristique	-9.72707
▁médias	-9.7276
▁w	-9.72798
▁troisième	-9.72981
az	-9.73145
▁comptes	-9.73211
▁compétences	-9.73224
▁grands	-9.73242
▁faisant	-9.7335
tour	-9.73501
▁phase	-9.73549
▁all	-9.73559
ath	-9.73563
▁compar	-9.73611
▁consultation	-9.73621
lle	-9.73639
14	-9.73656
▁rencontre	-9.7367
▁mariage	-9.73675
▁Ok	-9.7379
▁Be	-9.73849
▁taille	-9.7385
▁histoire	-9.73884
▁considéré	-9.7399
UR	-9.74122
pect	-9.7418
▁article	-9.74187
▁naturel	-9.7419
net	-9.74226
▁promouvoir	-9.74395
▁réglementation	-9.74395
▁garçon	-9.74395
▁Voilà	-9.74397
▁1995	-9.74432
▁catégorie	-9.74497
▁post	-9.74506
▁parlé	-9.74574
mat	-9.74675
attend	-9.74709
▁chargé	-9.74739
isée	-9.7475
▁station	-9.74797
▁bar	-9.74829
erie	-9.74847
▁dépend	-9.74857
▁sud	-9.74959
▁financiers	-9.7497
▁prêts	-9.7504
57	-9.75042
▁différent	-9.75102
bat	-9.75135
▁clair	-9.75156
▁longue	-9.75181
ancien	-9.75194
▁nationales	-9.75241
Office	-9.7525
▁enregistré	-9.7525
▁lumière	-9.7525
▁Etats	-9.75313
▁expérience	-9.75389
▁propose	-9.75425
▁statut	-9.7545
▁so	-9.75503
▁simplement	-9.75507
iti	-9.75512
▁regarde	-9.75527
▁plans	-9.75536
ène	-9.75567
▁presse	-9.7557
▁supplémentaires	-9.75607
OU	-9.75609
▁diverses	-9.75662
nant	-9.75712
▁participer	-9.75764
▁Pré	-9.75779
▁capacités	-9.75806
col	-9.7594
Ontario	-9.76045
▁cherche	-9.76065
▁prévu	-9.76072
âge	-9.76079
IL	-9.76111
▁fera	-9.76111
▁commencé	-9.76112
▁micro	-9.76113
▁progress	-9.7612
▁émissions	-9.76161
dis	-9.76307
▁valeurs	-9.76374
évolution	-9.76383
44	-9.76389
▁court	-9.76405
2)	-9.76467
adoption	-9.76537
▁sept	-9.76567
▁modifications	-9.76578
▁perte	-9.76601
▁vise	-9.76661
applique	-9.76662
CR	-9.76671
SE	-9.76852
log	-9.76867
▁utilisés	-9.76956
▁internationaux	-9.76981
▁commande	-9.76983
▁citoyens	-9.76991
▁volume	-9.76998
▁Grand	-9.77025
▁principes	-9.77042
▁initiatives	-9.77078
▁Har	-9.77105
07	-9.77154
acte	-9.77156
ifié	-9.77206
▁lignes	-9.77384
▁entreprise	-9.77424
▁regard	-9.77469
LE	-9.7749
RI	-9.77605
▁demain	-9.77608
0%	-9.77814
AM	-9.77819
▁signifie	-9.77849
▁objectif	-9.77849
▁majorité	-9.77859
▁collaboration	-9.77895
AP	-9.77917
▁sort	-9.77996
▁territoire	-9.78083
▁Rien	-9.78085
6)	-9.78085
▁portant	-9.78222
▁disponible	-9.7824
▁Go	-9.78244
omb	-9.78637
importe	-9.78729
▁menace	-9.78744
▁décrit	-9.7875
▁fête	-9.78813
ov	-9.78824
▁publics	-9.78827
▁vivre	-9.78866
▁dossier	-9.79004
▁camp	-9.79015
▁possibilités	-9.7915
▁sources	-9.79213
èrent	-9.79214
ck	-9.79288
CT	-9.79324
60	-9.7941
▁calcul	-9.79472
resse	-9.79495
▁Eh	-9.79537
ley	-9.79537
▁allé	-9.79561
▁=	-9.79613
▁méthodes	-9.79619
haque	-9.7962
);	-9.79634
▁monsieur	-9.79636
▁transfert	-9.79636
▁toutefois	-9.79636
▁importe	-9.79652
▁estime	-9.79672
améliorer	-9.79675
▁définition	-9.79695
aimerais	-9.79719
lli	-9.79764
ume	-9.79818
viendra	-9.79889
▁professionnelle	-9.79921
▁financier	-9.79929
▁semaines	-9.79973
era	-9.80086
ani	-9.80142
anne	-9.80213
▁avantages	-9.80246
gar	-9.80274
▁k	-9.80305
pu	-9.80323
▁telles	-9.80408
titude	-9.80509
absence	-9.80537
▁protéger	-9.80537
▁sociaux	-9.80537
▁cependant	-9.80537
▁presque	-9.80538
ty	-9.80538
=	-9.80546
▁approuvé	-9.80553
▁permettant	-9.80559
▁collectivités	-9.80725
avant	-9.80775
▁Ton	-9.80782
ber	-9.80892
▁relation	-9.8091
leur	-9.80922
▁Lorsque	-9.80963
▁vivant	-9.80989
▁haute	-9.81023
cho	-9.81061
▁liées	-9.81078
ave	-9.81094
▁accès	-9.8113
▁JO	-9.81131
▁prévues	-9.81143
▁sites	-9.81152
▁français	-9.81169
▁noir	-9.81195
▁étude	-9.81198
Uni	-9.81212
▁ét	-9.8127
▁particulière	-9.81306
▁Puis	-9.81331
▁60	-9.81437
▁caractère	-9.81446
▁cœur	-9.81446
▁banque	-9.81447
▁procédures	-9.81448
▁pensé	-9.8145
▁travailleurs	-9.81471
▁proche	-9.81548
ina	-9.81577
▁chacun	-9.81582
▁occasion	-9.81628
abilité	-9.81672
▁Pa	-9.81684
acc	-9.81692
▁uniquement	-9.81706
000	-9.81742
fer	-9.81779
▁Mont	-9.81804
▁financières	-9.8182
EC	-9.8182
TE	-9.81959
AD	-9.81989
▁sport	-9.82002
▁tr	-9.8206
str	-9.82082
▁beau	-9.8218
▁Wa	-9.82215
▁Note	-9.82267
▁DU	-9.82314
47	-9.82341
▁devenu	-9.82342
▁John	-9.8236
▁pensais	-9.82364
▁retard	-9.82364
gr	-9.82366
▁espèces	-9.82417
▁réalité	-9.82429
▁Viens	-9.82432
▁Sal	-9.82463
▁distribution	-9.82494
▁permanent	-9.82545
dic	-9.8255
▁Code	-9.82566
gie	-9.82673
▁relatif	-9.82758
rain	-9.8279
97	-9.82792
▁utilis	-9.82845
▁changer	-9.82995
ko	-9.83197
▁milliards	-9.83204
▁ordre	-9.83205
77	-9.83273
▁35	-9.83274
▁bébé	-9.8329
▁concurrence	-9.8329
▁scientifique	-9.8329
▁suivre	-9.83321
EX	-9.83455
▁sélection	-9.8347
▁modification	-9.83721
199	-9.84087
▁grandes	-9.84124
▁prison	-9.8421
▁maintien	-9.84216
Allemagne	-9.84224
▁Ainsi	-9.84225
▁parfois	-9.84225
▁pauvreté	-9.8424
organisme	-9.84301
▁désolé	-9.84384
gra	-9.84422
▁tellement	-9.84472
▁direct	-9.84521
▁moteur	-9.84552
▁actions	-9.84575
▁2,	-9.84598
▁présentée	-9.84599
nom	-9.84607
▁capital	-9.84851
iel	-9.84885
▁forte	-9.84897
lis	-9.84958
tine	-9.85004
ham	-9.85029
▁Inc	-9.85057
29	-9.85088
▁généralement	-9.85104
autorité	-9.85112
▁porter	-9.85142
▁Per	-9.85163
▁combien	-9.85168
▁conçu	-9.85168
▁hein	-9.85174
▁Voici	-9.85189
▁spéciale	-9.85222
▁pouvait	-9.85237
▁comportement	-9.85324
▁rappelle	-9.85337
arrêt	-9.85341
▁chien	-9.854
ï	-9.85529
▁liés	-9.85534
idée	-9.85663
▁lien	-9.85713
▁inform	-9.85714
▁nord	-9.85736
écu	-9.85777
▁tenue	-9.85814
▁dossiers	-9.85841
ures	-9.85843
▁solutions	-9.85862
amour	-9.8588
▁tué	-9.85986
▁table	-9.861
▁pouvons	-9.8612
▁provisoire	-9.8612
▁départ	-9.86127
mu	-9.86138
▁nécessité	-9.86157
▁réduit	-9.86159
▁arrêté	-9.86172
▁écoute	-9.86182
Z	-9.86232
serv	-9.86251
▁signal	-9.86364
58	-9.86384
▁Voir	-9.86405
▁technologies	-9.8646
22	-9.86493
▁payer	-9.86557
ouche	-9.86601
ige	-9.86619
ick	-9.86634
▁associé	-9.86661
▁Am	-9.86738
CC	-9.86758
gen	-9.86846
▁réponses	-9.86903
arrière	-9.86909
▁Pe	-9.86923
avi	-9.86977
Je	-9.86984
▁ra	-9.86984
tel	-9.86987
RA	-9.87004
▁Gra	-9.87011
PE	-9.87012
▁concentration	-9.87081
▁mouvement	-9.87081
▁Banque	-9.87082
part	-9.87099
▁90	-9.871
▁poisson	-9.87157
lation	-9.87166
▁devenir	-9.87167
▁revoir	-9.87187
ira	-9.87216
▁clairement	-9.87222
vir	-9.87224
▁conc	-9.8723
▁vieux	-9.8725
.7	-9.87302
▁sociétés	-9.87347
lie	-9.87418
▁Toutes	-9.87493
itaire	-9.875
▁subi	-9.87506
▁désir	-9.87638
▁fédérale	-9.87713
▁parole	-9.87732
▁paiement	-9.87741
▁atteindre	-9.87782
▁Bar	-9.87893
55	-9.87931
▁Regarde	-9.87937
▁puisse	-9.8804
43	-9.88049
intégration	-9.88052
▁dispositif	-9.88052
▁double	-9.88053
▁pourrais	-9.88056
▁Avant	-9.88157
▁ren	-9.88177
▁Désolé	-9.88249
exposition	-9.88283
▁mauvais	-9.8829
lée	-9.88387
▁prie	-9.88467
ight	-9.88625
▁militaire	-9.88668
▁échange	-9.88671
▁client	-9.88675
▁inc	-9.88691
TION	-9.88722
▁rempli	-9.88754
▁permettra	-9.88794
»,	-9.88826
oir	-9.88901
▁connaissances	-9.88925
▁3,	-9.88973
étranger	-9.89022
▁siècle	-9.89033
▁York	-9.89033
▁recevoir	-9.89037
▁2013	-9.89078
▁réseaux	-9.89114
▁effectuée	-9.89167
entretien	-9.89232
ologique	-9.893
▁augmentation	-9.89479
95	-9.89569
dio	-9.89593
gg	-9.89631
▁devoir	-9.89836
▁Services	-9.89846
▁lois	-9.8988
▁réunions	-9.89982
▁soumis	-9.89987
▁humaines	-9.89995
▁maintenir	-9.90023
▁pilote	-9.90024
▁déposé	-9.90028
▁dehors	-9.90031
▁bâtiment	-9.90072
lla	-9.90094
▁merci	-9.9013
▁Sou	-9.90142
▁200	-9.90195
objectif	-9.90227
▁effectué	-9.90229
▁Sam	-9.90238
▁petits	-9.90258
▁Paris	-9.90326
▁rat	-9.90366
▁aime	-9.90406
▁totale	-9.90459
▁américain	-9.90582
▁résultat	-9.90727
96	-9.90771
▁rac	-9.90783
roy	-9.90855
quels	-9.90855
▁servi	-9.90886
▁jou	-9.90964
auteur	-9.91029
▁brut	-9.91029
▁contribuer	-9.91031
▁couleur	-9.91033
ity	-9.91044
tandis	-9.91044
▁aspects	-9.91049
innovation	-9.91073
▁allons	-9.91108
one	-9.91126
rc	-9.91238
▁médi	-9.91254
agir	-9.91261
▁observé	-9.91262
▁Entre	-9.91367
46	-9.91403
▁médicaments	-9.91413
▁comprends	-9.9144
▁Deux	-9.91597
péri	-9.91616
1)	-9.91692
▁ouvert	-9.91702
78	-9.91808
▁transports	-9.91811
▁gouvernements	-9.91861
berg	-9.91897
▁justifi	-9.91967
▁canadiennes	-9.92018
▁statistiques	-9.92036
▁raisons	-9.92129
yl	-9.92164
42	-9.92178
▁Ben	-9.92326
▁tirer	-9.92357
EL	-9.92377
%	-9.92388
lage	-9.92432
▁LE	-9.92546
ule	-9.92787
.6	-9.92827
▁complète	-9.92875
espèce	-9.92994
▁élaboré	-9.93053
▁dialogue	-9.93053
▁croire	-9.93056
▁demeure	-9.93062
▁familles	-9.93133
▁cru	-9.93226
EM	-9.93305
expression	-9.93312
▁extérieur	-9.9335
▁forces	-9.93369
ient	-9.93582
▁heure	-9.9367
▁province	-9.93877
▁réel	-9.93888
impôt	-9.94024
gal	-9.94079
▁Tribunal	-9.94084
▁pension	-9.94084
▁préparation	-9.94084
enregistrement	-9.94092
▁laissé	-9.94099
▁1997	-9.94135
▁bande	-9.94138
sign	-9.94138
▁euro	-9.94169
▁salaire	-9.94177
▁Maman	-9.94208
▁correspond	-9.94392
imp	-9.94499
▁www	-9.94572
▁civil	-9.94669
ker	-9.94686
▁savais	-9.94918
die	-9.9493
▁jeune	-9.9503
▁manger	-9.9509
▁conseils	-9.95114
▁budgétaire	-9.95126
▁déchets	-9.95126
▁prévoit	-9.95126
▁rêve	-9.95127
▁mor	-9.95133
▁Santé	-9.9517
▁apporté	-9.95198
▁conception	-9.95201
▁commencer	-9.95324
Afrique	-9.95431
nk	-9.95492
émission	-9.95505
▁importantes	-9.95511
issant	-9.95579
▁emploi	-9.95618
▁accords	-9.95651
▁clés	-9.9568
▁vent	-9.957
▁privée	-9.9572
▁For	-9.95803
▁pat	-9.95891
▁Cet	-9.95983
exportation	-9.96144
▁récemment	-9.96179
▁vidéo	-9.96179
▁voix	-9.96179
▁locaux	-9.9618
▁désigné	-9.96181
▁souhaite	-9.96185
▁calme	-9.96191
my	-9.96193
▁ajouté	-9.9624
ld	-9.96272
▁mentionné	-9.96273
▁Force	-9.96288
rn	-9.96295
▁mett	-9.96332
▁examiner	-9.96459
▁science	-9.96504
▁réuni	-9.96524
ian	-9.96699
▁cul	-9.96699
▁précise	-9.9671
▁Québec	-9.96751
▁lesquelles	-9.96767
viennent	-9.96801
▁négociations	-9.96845
▁renforce	-9.96905
ET	-9.97058
53	-9.97099
▁blanc	-9.9723
Association	-9.97242
▁voilà	-9.97242
▁voulait	-9.97242
alcool	-9.97243
▁contient	-9.97243
▁musique	-9.97243
IE	-9.97292
PC	-9.9732
▁connaître	-9.97327
64	-9.9733
▁OK	-9.97334
NE	-9.97335
▁postes	-9.97346
▁fournisseur	-9.97358
72	-9.97414
illes	-9.97414
flu	-9.97468
▁partout	-9.97577
atrice	-9.97615
▁cible	-9.97639
54	-9.97642
2006	-9.9771
▁prestations	-9.97722
PS	-9.97751
▁mine	-9.97859
▁lancé	-9.97897
old	-9.97911
▁né	-9.98023
▁agents	-9.98108
▁éviter	-9.98168
▁continu	-9.98213
▁Ministre	-9.98318
▁gratuit	-9.98318
▁relève	-9.98318
▁village	-9.98318
▁navire	-9.98319
▁500	-9.98331
actif	-9.9834
▁chercheurs	-9.98359
La	-9.98492
▁bio	-9.98531
tribu	-9.98567
-19	-9.98574
zo	-9.98677
▁Im	-9.98705
▁recherches	-9.9871
vu	-9.98716
▁conclusions	-9.98767
press	-9.98768
33	-9.98888
▁Ri	-9.98936
▁annexe	-9.98969
pin	-9.99
▁bal	-9.99164
euses	-9.99183
▁règle	-9.99194
▁principales	-9.9923
installation	-9.99372
▁retraite	-9.99375
▁voulu	-9.99405
Université	-9.99418
▁suffisant	-9.9942
▁Papa	-9.99426
▁VIH	-9.99437
▁accepté	-9.99441
▁matières	-9.99452
▁installations	-9.99464
off	-9.99488
▁montrer	-9.99491
cor	-9.99516
▁professionnels	-9.99532
1/	-9.99582
▁Colombie	-9.99615
▁élevée	-9.99752
4)	-9.99838
▁affaire	-9.99951
▁pou	-10.0008
ack	-10.001
▁publiques	-10.0013
▁trou	-10.0034
duit	-10.0045
échantillon	-10.005
agriculture	-10.005
▁conjoint	-10.005
▁devient	-10.0053
79	-10.0053
▁sauf	-10.0057
:00	-10.0059
▁maladies	-10.006
gne	-10.006
▁responsables	-10.0062
▁80	-10.0062
▁cherch	-10.0064
CN	-10.0067
▁Chine	-10.0068
▁Nouvelle	-10.007
▁vert	-10.0089
ME	-10.009
ouverture	-10.0092
ajout	-10.0092
▁modifié	-10.0096
▁partage	-10.0114
▁sortie	-10.0116
nés	-10.012
ook	-10.0122
In	-10.0126
87	-10.0128
▁arriver	-10.013
▁situé	-10.0137
▁outils	-10.014
▁véhicules	-10.0142
envers	-10.0143
▁cap	-10.0148
événement	-10.0156
▁stock	-10.0157
▁température	-10.0161
▁véritable	-10.0161
▁officielle	-10.0162
▁guide	-10.0163
udi	-10.0163
▁détail	-10.0165
▁1990	-10.0166
▁élément	-10.0166
oublie	-10.0167
▁priorité	-10.0168
▁probablement	-10.0168
▁Laisse	-10.017
graphique	-10.0173
▁pan	-10.0175
▁merde	-10.0175
AU	-10.0176
▁réaliser	-10.0179
▁essayé	-10.018
▁passage	-10.0184
IF	-10.0186
▁vision	-10.0187
▁souhait	-10.0191
aw	-10.0201
▁Fin	-10.0207
▁assis	-10.0222
▁relatifs	-10.0226
▁petites	-10.0242
▁fondée	-10.0245
ève	-10.0253
▁revenus	-10.0253
main	-10.0254
▁Mc	-10.0255
cc	-10.0271
ium	-10.0274
mal	-10.0274
apprentissage	-10.0274
▁Certains	-10.0274
▁dépôt	-10.0274
▁formulaire	-10.0274
▁veulent	-10.0274
▁gauche	-10.0274
▁papier	-10.0274
▁exposé	-10.0274
▁poids	-10.0274
▁centres	-10.0274
▁permettent	-10.0275
▁baisse	-10.0276
▁considération	-10.0278
▁canadiens	-10.0289
▁garantie	-10.0293
▁coeur	-10.0303
▁faciliter	-10.0307
tan	-10.0311
ût	-10.0311
▁portée	-10.0311
▁fonctions	-10.0318
▁terres	-10.032
échange	-10.0326
ik	-10.0332
Al	-10.0335
ambi	-10.0338
EUR	-10.0339
ral	-10.0343
▁accompli	-10.0351
▁personnelle	-10.0363
gro	-10.037
▁coordination	-10.0387
▁fabrication	-10.0387
▁intéressant	-10.0387
▁remplacé	-10.0387
▁titulaire	-10.0387
▁terminé	-10.0387
▁clinique	-10.0388
▁machine	-10.0388
▁contraire	-10.0389
impression	-10.0389
cycl	-10.039
▁candidats	-10.0392
▁élections	-10.0393
▁fixé	-10.0395
▁établissements	-10.0398
▁connaissance	-10.0401
▁produire	-10.0401
▁difficultés	-10.0404
vie	-10.0409
▁neuf	-10.0411
▁historique	-10.0416
équipement	-10.0427
▁com	-10.0429
RS	-10.0432
▁masse	-10.0446
▁globale	-10.0447
▁Mor	-10.0452
▁CO	-10.0456
▁eaux	-10.0458
ima	-10.0461
affaire	-10.0462
▁Ab	-10.0466
établir	-10.0473
arrive	-10.0474
rique	-10.0476
▁considérée	-10.0476
▁voisin	-10.0476
▁profit	-10.0477
▁dépl	-10.0486
▁comp	-10.0487
▁tir	-10.049
▁garder	-10.0492
▁voit	-10.0498
Britannique	-10.0502
▁augmenté	-10.0502
▁découvert	-10.0502
▁complexe	-10.0502
▁dirait	-10.051
▁suffit	-10.0512
91	-10.0515
▁bénéficiaire	-10.0518
ctive	-10.0536
▁communautés	-10.0536
▁rou	-10.054
45	-10.0544
▁El	-10.0544
▁spécialisé	-10.0552
▁Aucune	-10.0581
oud	-10.0585
OP	-10.0594
approche	-10.0607
eaux	-10.0607
▁fonctionnaires	-10.0608
ock	-10.0608
taire	-10.0609
▁concept	-10.0611
Ouest	-10.0611
▁détails	-10.0614
▁brevet	-10.0619
▁vérifier	-10.0619
▁plaisir	-10.062
▁rouge	-10.0621
▁heureux	-10.0621
▁Super	-10.0622
▁occupé	-10.0622
écart	-10.0622
▁Nombre	-10.0622
▁vitesse	-10.0624
81	-10.0632
▁armé	-10.0633
▁mots	-10.0637
▁véhicule	-10.0639
▁Service	-10.0639
▁principalement	-10.064
.8	-10.065
aura	-10.0652
table	-10.0654
▁Lu	-10.066
▁Autres	-10.0664
obtenir	-10.0675
▁culturelle	-10.0676
23	-10.0676
atoire	-10.0679
raient	-10.0685
fic	-10.0689
▁EUR	-10.0689
▁etc	-10.069
26	-10.0702
▁conflits	-10.0703
▁offrir	-10.0704
▁(2	-10.0704
hu	-10.0709
II	-10.0717
-2	-10.0725
▁danger	-10.0726
ya	-10.0732
▁obligatoire	-10.0736
▁perspective	-10.0736
▁Premier	-10.0736
▁tôt	-10.0736
▁thème	-10.0736
▁moitié	-10.0736
▁Trans	-10.0737
écrire	-10.0737
▁Point	-10.0739
▁solide	-10.074
▁1994	-10.0741
▁obligations	-10.0742
▁prochain	-10.0743
▁organisé	-10.0743
▁hors	-10.0745
▁somme	-10.0747
66	-10.0749
accent	-10.0752
▁secondaire	-10.0754
▁juridiques	-10.0758
35	-10.0766
ino	-10.077
cal	-10.0771
▁tente	-10.0773
67	-10.0778
arc	-10.0779
▁ministères	-10.0781
▁Bu	-10.0788
lier	-10.0791
CA	-10.0792
▁vin	-10.0792
effet	-10.08
▁2014	-10.0819
8)	-10.082
fl	-10.0827
affi	-10.0838
bor	-10.0839
▁étape	-10.0841
shi	-10.0842
ANT	-10.0846
laire	-10.0849
cle	-10.085
lam	-10.0852
▁Seigneur	-10.0855
▁bientôt	-10.0855
▁vérité	-10.0855
▁Russie	-10.0857
▁indépendant	-10.0857
vant	-10.0859
▁observations	-10.086
IM	-10.0862
▁siège	-10.0863
exception	-10.0865
▁activité	-10.0868
▁normale	-10.0873
71	-10.0873
▁Royaume	-10.0878
▁Pre	-10.0881
▁envie	-10.0882
▁Ko	-10.0882
▁Document	-10.089
▁développer	-10.0894
▁traite	-10.0911
▁mains	-10.0913
31	-10.0914
▁Pend	-10.0915
ature	-10.0916
amélioration	-10.0917
▁option	-10.092
▁proc	-10.0926
ax	-10.0936
bre	-10.0937
▁cri	-10.094
▁suppose	-10.0942
▁accident	-10.0942
▁chi	-10.0943
▁pouvoirs	-10.0948
▁derniers	-10.0962
mont	-10.0972
90	-10.0974
▁terrorisme	-10.0976
▁monétaire	-10.0976
▁complet	-10.0977
▁conduite	-10.0979
▁pourra	-10.0992
69	-10.1003
égi	-10.1005
▁descend	-10.1005
zi	-10.1008
▁applicable	-10.101
▁conflit	-10.101
avons	-10.1012
▁Fran	-10.1014
irai	-10.1015
▁appropriée	-10.1017
affaires	-10.1021
▁active	-10.1021
):	-10.1022
ting	-10.1023
▁commercial	-10.1025
PO	-10.1026
tÃ	-10.1027
existence	-10.1036
▁indique	-10.1036
géné	-10.1037
▁entrer	-10.1044
œ	-10.1045
unité	-10.1048
ID	-10.105
SI	-10.1051
▁humain	-10.1063
▁comporte	-10.1063
▁VI	-10.1073
▁penser	-10.1075
▁viv	-10.109
▁am	-10.1096
▁soutenir	-10.1098
▁rencontré	-10.1098
▁touché	-10.1098
époque	-10.1098
▁majeur	-10.1098
▁séjour	-10.1098
▁procès	-10.1099
▁humaine	-10.1099
excuse	-10.1099
auto	-10.1099
▁immédiatement	-10.11
▁trouv	-10.1103
92	-10.1114
aviez	-10.1121
▁entend	-10.1123
▁tomber	-10.1125
▁extrême	-10.1126
▁parfait	-10.1127
▁Pri	-10.1131
▁stratégies	-10.1131
▁ira	-10.1135
.9	-10.1142
▁recommandé	-10.1146
▁devra	-10.1155
▁bout	-10.1158
assi	-10.1162
▁pensez	-10.1165
augmentation	-10.1165
▁gu	-10.1167
32	-10.1178
▁compos	-10.1178
▁foi	-10.1179
▁concerné	-10.1188
▁nations	-10.1188
99	-10.1188
▁régional	-10.1195
UN	-10.1196
riez	-10.12
▁supérieure	-10.1202
▁garantir	-10.1205
avion	-10.1212
bon	-10.1215
▁And	-10.1217
▁bateau	-10.1217
▁apporter	-10.1219
▁administrative	-10.1221
▁chapitre	-10.1221
▁constitué	-10.1221
▁contenant	-10.1221
▁mémoire	-10.1221
▁surface	-10.1221
▁secret	-10.1221
▁distance	-10.1221
▁intervenants	-10.1223
▁chaud	-10.1223
▁bouge	-10.1223
cy	-10.1228
▁nommé	-10.1233
achat	-10.1236
▁prête	-10.1242
essaie	-10.1245
▁gouvernementale	-10.1245
▁informé	-10.1248
▁ten	-10.125
gc	-10.125
RO	-10.1253
76	-10.1256
▁déclare	-10.1258
line	-10.126
▁populations	-10.1261
▁45	-10.1268
▁rejet	-10.127
▁vari	-10.1273
vit	-10.1278
tiennent	-10.1279
initiative	-10.1291
▁intérêts	-10.1291
lui	-10.1303
▁trac	-10.1303
▁saison	-10.1314
▁traiter	-10.1316
38	-10.1334
▁second	-10.1334
ommage	-10.1344
▁couvert	-10.1344
▁red	-10.1344
duc	-10.1345
▁Déclaration	-10.1346
▁susceptible	-10.1346
▁Direction	-10.1346
▁formule	-10.1346
▁volonté	-10.1346
▁consulter	-10.1347
▁consommateurs	-10.1347
TI	-10.1348
80	-10.1349
▁gentil	-10.1349
armée	-10.1351
▁régionale	-10.1352
▁final	-10.1361
Etat	-10.1363
gén	-10.1364
institution	-10.1368
▁sauver	-10.1375
▁veuille	-10.1379
ED	-10.1383
63	-10.1391
▁pleine	-10.1392
▁compétence	-10.1395
▁faisait	-10.1395
fusion	-10.1406
hôtel	-10.1419
alinéa	-10.142
▁utilisation	-10.1423
accueil	-10.143
nne	-10.1435
▁avocat	-10.1435
▁faite	-10.1439
▁importance	-10.1441
▁rang	-10.1441
isant	-10.1444
▁tiré	-10.1446
▁tombe	-10.1449
▁degré	-10.145
ling	-10.1461
▁To	-10.1464
appareil	-10.1467
▁proposée	-10.1469
▁correct	-10.1471
assembl	-10.1472
▁animaux	-10.1473
▁judiciaire	-10.1473
▁logiciel	-10.1473
▁sentiment	-10.1473
▁électrique	-10.1473
▁froid	-10.1473
▁1993	-10.1477
▁utilisateurs	-10.1479
▁événements	-10.148
▁33	-10.1481
▁critique	-10.1483
▁régionaux	-10.1485
▁usage	-10.1493
▁adresse	-10.1496
appliquent	-10.1501
▁destinée	-10.1506
▁dessus	-10.1506
▁choisir	-10.1506
tim	-10.1508
-20	-10.1519
▁récente	-10.1521
▁conséquence	-10.1526
▁Sans	-10.153
qué	-10.1531
éch	-10.1534
▁composé	-10.154
«	-10.155
▁Quelque	-10.1553
▁soi	-10.1557
▁correspondant	-10.1559
q	-10.1565
activ	-10.1574
62	-10.1583
ama	-10.1585
▁consultations	-10.159
approbation	-10.1601
intermédiaire	-10.1601
▁Secrétariat	-10.1601
▁protocole	-10.1601
▁procédé	-10.1601
▁diffusion	-10.1601
▁fruit	-10.1601
▁café	-10.1601
▁biologique	-10.1602
accroître	-10.1604
▁officielles	-10.1604
▁Terre	-10.1605
▁cycle	-10.1607
▁report	-10.1615
▁allait	-10.1615
ny	-10.1616
88	-10.1616
▁Sch	-10.1616
▁Japon	-10.1617
▁réaction	-10.1623
▁fixe	-10.1633
▁relativement	-10.1638
▁exercice	-10.1641
▁Aucun	-10.1643
matique	-10.1648
70	-10.1654
24	-10.1656
▁morts	-10.1656
▁mécanismes	-10.1659
▁recommandation	-10.1661
pression	-10.1662
▁Vas	-10.1662
esprit	-10.1681
ouvrir	-10.1682
où	-10.1683
▁Afrique	-10.1693
▁touche	-10.1693
▁is	-10.1695
▁responsabilités	-10.1696
élection	-10.1696
euro	-10.1706
agent	-10.171
94	-10.1712
los	-10.1721
▁proportion	-10.1731
▁démocratique	-10.1731
▁obstacle	-10.1731
▁Madame	-10.1731
▁révision	-10.1731
▁préalable	-10.1731
▁hausse	-10.1731
▁logement	-10.1731
▁Faites	-10.1732
▁criminel	-10.1732
▁Tableau	-10.1733
interprétation	-10.1733
▁sensible	-10.1734
▁participé	-10.1738
▁Pardon	-10.1741
▁central	-10.1746
UT	-10.1748
île	-10.1757
tura	-10.1762
lit	-10.1764
▁mises	-10.1765
▁différences	-10.1767
▁Cor	-10.1776
▁rare	-10.1783
entente	-10.1784
83	-10.1785
▁agricole	-10.1794
▁appelle	-10.1801
▁conséquences	-10.1808
▁EN	-10.1822
existe	-10.1828
▁support	-10.1831
▁culturel	-10.1834
utiliser	-10.1839
▁combat	-10.1851
obligation	-10.1857
arrête	-10.1859
▁administratif	-10.1863
▁conformité	-10.1863
▁admissible	-10.1863
▁derrière	-10.1863
▁soutenu	-10.1863
▁raisonnable	-10.1863
▁compter	-10.187
▁conf	-10.1875
▁Port	-10.1877
▁générales	-10.1891
ical	-10.1891
▁liens	-10.1895
▁clé	-10.1895
DA	-10.1898
▁maman	-10.1903
▁verre	-10.1906
entend	-10.191
▁environnemental	-10.1916
▁verr	-10.192
▁préparer	-10.192
▁Haut	-10.1922
▁Pat	-10.1929
37	-10.1929
▁agricoles	-10.1931
App	-10.1937
▁engagement	-10.1938
▁Toi	-10.1939
vol	-10.1944
27	-10.1945
▁respecter	-10.1946
▁instruments	-10.1946
MI	-10.1947
34	-10.1958
examiner	-10.1959
▁Aux	-10.1961
uillez	-10.1962
fait	-10.1962
▁organisation	-10.1968
▁producteurs	-10.1971
occuper	-10.1988
▁certificat	-10.1988
▁34	-10.1995
▁possède	-10.1996
▁pourcentage	-10.1996
▁témoin	-10.1996
▁scolaire	-10.1996
infraction	-10.1996
▁Christ	-10.1996
▁lecture	-10.1996
4/	-10.1997
identité	-10.1997
▁inclu	-10.2
▁malade	-10.2001
▁Allons	-10.2002
▁taxe	-10.2003
▁bureaux	-10.2006
▁Paul	-10.2006
▁poser	-10.2009
▁Laissez	-10.201
▁tient	-10.201
▁violation	-10.2015
▁cher	-10.2017
▁précédente	-10.2024
▁fasse	-10.2025
▁précis	-10.2026
▁inscrit	-10.2027
▁gagner	-10.2028
dans	-10.2029
▁crédits	-10.2044
▁visage	-10.2044
▁75	-10.2048
▁associés	-10.2054
▁européennes	-10.2055
▁substances	-10.2057
▁mécanisme	-10.207
▁prestation	-10.207
▁dos	-10.2075
▁intérêt	-10.2081
▁essentielle	-10.2081
uch	-10.2086
▁mini	-10.209
5%	-10.2097
3/	-10.2113
39	-10.2124
wi	-10.2125
▁procéder	-10.2131
▁Projet	-10.2131
▁blessé	-10.2131
▁trafic	-10.2131
▁mourir	-10.2131
▁figurant	-10.2135
▁perdre	-10.2146
▁char	-10.2151
▁III	-10.2152
▁capable	-10.2153
▁constituent	-10.2161
▁LES	-10.2163
▁fournit	-10.2167
▁spécifiques	-10.2169
▁française	-10.2172
êtes	-10.2174
▁employé	-10.2176
gène	-10.2192
▁Mal	-10.2207
▁invité	-10.2211
▁supplémentaire	-10.2212
▁conclusion	-10.2212
▁Che	-10.2213
audit	-10.2215
▁traités	-10.222
attention	-10.2226
▁applicables	-10.223
▁précédent	-10.2239
▁locales	-10.224
▁format	-10.2248
aise	-10.2249
▁garanti	-10.2263
74	-10.2265
▁souffr	-10.2265
IR	-10.2268
adhésion	-10.2268
▁boulot	-10.2268
▁maître	-10.2268
▁propriétaire	-10.2268
▁Jésus	-10.2268
▁International	-10.2268
▁préparé	-10.2268
▁papa	-10.2269
▁frontière	-10.2269
▁exactement	-10.227
▁exprimé	-10.2271
▁meurtre	-10.2273
▁gestionnaire	-10.2273
▁lourd	-10.2276
▁climatique	-10.2284
gre	-10.2291
▁hier	-10.2295
▁contributions	-10.2299
rom	-10.2302
▁sommet	-10.2302
▁Annexe	-10.2305
ache	-10.2305
tout	-10.2306
▁seraient	-10.2308
▁formes	-10.2314
51	-10.2321
▁adoptée	-10.2327
93	-10.2332
??	-10.2335
▁principale	-10.2339
ida	-10.2342
apport	-10.2349
IP	-10.2366
▁humains	-10.2368
▁coordonn	-10.2368
cadre	-10.2374
SS	-10.2381
▁établir	-10.2382
▁initiale	-10.2386
IQUE	-10.2386
▁catégories	-10.239
▁occupe	-10.2396
▁annuelle	-10.2397
ial	-10.2405
▁refuse	-10.2405
▁chaîne	-10.2407
▁Chambre	-10.2407
▁mélange	-10.2407
▁stade	-10.2407
▁sucre	-10.2408
▁imprim	-10.2408
▁Tel	-10.2409
▁circonstances	-10.241
▁Question	-10.241
▁colon	-10.2411
▁département	-10.2412
▁recev	-10.2414
▁2015	-10.2414
▁dose	-10.2418
valu	-10.2429
▁Nos	-10.243
▁puissent	-10.2433
▁finale	-10.2434
▁pièces	-10.2436
tru	-10.244
vre	-10.2444
▁nucléaires	-10.2446
▁mur	-10.245
▁puisque	-10.2465
▁Q	-10.247
▁bonnes	-10.2472
▁ceci	-10.2472
▁décide	-10.2477
▁serai	-10.2484
▁300	-10.2492
dge	-10.2494
SC	-10.2495
arm	-10.2498
▁meilleurs	-10.2498
extérieur	-10.2507
environ	-10.2509
84	-10.251
▁32	-10.251
▁directrices	-10.253
28	-10.2543
▁commerciale	-10.2545
▁riche	-10.2545
TM	-10.2547
▁municipal	-10.2548
▁temporaire	-10.2548
▁vacances	-10.2548
▁comprennent	-10.2548
▁externe	-10.2548
▁maritime	-10.2548
▁communiquer	-10.2548
▁détenu	-10.2548
▁commissaire	-10.2548
▁locale	-10.2549
perçu	-10.2549
▁provenant	-10.2549
▁dangereux	-10.255
▁poursuivre	-10.2553
▁utilisée	-10.2559
▁actes	-10.2559
▁essais	-10.256
▁Inter	-10.2564
▁prends	-10.2567
▁médicale	-10.2571
ivité	-10.2572
Accord	-10.2574
aurait	-10.2574
Inde	-10.2576
▁pleinement	-10.2576
adore	-10.2579
82	-10.2581
▁requis	-10.2596
▁All	-10.2601
▁constate	-10.2602
▁recueilli	-10.2603
▁Parties	-10.2607
▁Attends	-10.2609
forme	-10.2609
ase	-10.2616
usine	-10.2627
▁autorisé	-10.2628
imit	-10.2629
▁tire	-10.2635
▁repose	-10.264
89	-10.2644
▁alimentaire	-10.2646
En	-10.2647
▁facilit	-10.2649
▁mauvaise	-10.2656
▁dispose	-10.2658
▁viol	-10.2659
(1)	-10.2659
▁Chi	-10.2664
▁fur	-10.2667
delà	-10.2671
5)	-10.2677
▁ouverte	-10.2678
infrastructure	-10.2685
▁utilisées	-10.2687
▁Protocole	-10.2691
▁humanitaire	-10.2691
▁numérique	-10.2691
▁performance	-10.2691
▁éventuel	-10.2691
▁forêt	-10.2691
▁gamme	-10.2691
41	-10.2691
▁communiqué	-10.2692
▁réfugiés	-10.2692
habitude	-10.2693
▁huit	-10.2693
▁élèves	-10.2696
▁actifs	-10.2699
▁commentaires	-10.2699
▁cartes	-10.2706
8/	-10.2712
▁coin	-10.2717
▁tiens	-10.2717
▁poursuite	-10.2722
▁Bonne	-10.2729
ime	-10.2733
the	-10.2738
angle	-10.2753
▁déterminé	-10.2753
▁Arrête	-10.2757
▁vend	-10.2766
lot	-10.2767
▁priv	-10.2769
75	-10.277
▁prévue	-10.2775
élev	-10.2787
▁Post	-10.2791
▁Partie	-10.2793
▁lire	-10.2793
▁nucléaire	-10.2795
▁différence	-10.2795
▁spécifique	-10.2797
▁norme	-10.2811
▁participant	-10.2814
just	-10.2816
▁Tra	-10.2817
▁cache	-10.282
▁arme	-10.282
▁incidence	-10.2822
▁arrêter	-10.2825
exécut	-10.2829
▁droite	-10.2833
hôpital	-10.2835
▁Système	-10.2835
▁montagne	-10.2835
▁positive	-10.2835
▁requérant	-10.2835
▁similaire	-10.2835
▁résumé	-10.2835
▁assuré	-10.2836
▁quartier	-10.2836
▁recettes	-10.2836
▁transformation	-10.2836
▁payé	-10.2836
▁répartition	-10.2837
attente	-10.2837
▁traditionnelle	-10.2838
▁prévenir	-10.2838
▁conseiller	-10.2838
▁transition	-10.284
▁entier	-10.2842
▁signé	-10.2846
▁écoles	-10.2851
▁Nom	-10.2851
iller	-10.2851
▁Jack	-10.2855
▁Acc	-10.2859
▁montré	-10.2861
▁rappel	-10.2863
▁Bi	-10.2866
agence	-10.2873
▁communications	-10.2873
acteur	-10.288
▁déb	-10.2881
▁emplois	-10.2888
▁mener	-10.2888
ther	-10.2896
▁Pi	-10.2906
▁Sous	-10.2907
▁vaste	-10.2912
▁chiffres	-10.2913
huile	-10.292
▁photos	-10.2927
▁partis	-10.2929
ssement	-10.2933
▁saisi	-10.2939
Asie	-10.294
▁information	-10.2944
▁facteur	-10.2951
élé	-10.2963
GR	-10.2971
OL	-10.2971
▁autorisation	-10.2973
FR	-10.2974
rence	-10.2976
élimination	-10.2983
équilibre	-10.2983
▁allemand	-10.2983
▁dimension	-10.2983
▁secrétariat	-10.2983
▁David	-10.2983
▁présidence	-10.2983
▁changé	-10.2983
▁soldat	-10.2983
▁disparu	-10.2983
▁stabilité	-10.2983
▁transmission	-10.2983
élève	-10.2985
▁copie	-10.2985
▁chimiques	-10.2986
▁institutionnel	-10.2986
▁appris	-10.2987
bit	-10.2987
vez	-10.2988
phone	-10.2994
▁Sp	-10.2998
▁rendez	-10.3004
▁souci	-10.3004
ennemi	-10.3007
ographie	-10.3008
▁limitée	-10.3008
▁favoriser	-10.3009
▁pont	-10.3012
▁située	-10.3016
PL	-10.3017
IV	-10.3018
âme	-10.3021
▁sociales	-10.3023
ish	-10.3025
euros	-10.3029
▁communautaires	-10.303
▁recommande	-10.3031
▁naissance	-10.3035
▁rentrer	-10.304
Est	-10.3049
▁%)	-10.3055
▁intégrée	-10.3058
▁instant	-10.3067
▁ajoute	-10.3068
▁assure	-10.307
68	-10.3076
▁remercier	-10.3082
▁Membres	-10.3087
position	-10.3089
▁normal	-10.3094
▁Gro	-10.3098
▁Toute	-10.3099
▁tâche	-10.31
▁pièce	-10.31
▁collectivité	-10.3101
▁San	-10.3103
▁attendre	-10.3106
▁fla	-10.3116
▁contra	-10.3121
ky	-10.313
▁division	-10.3132
▁positif	-10.3132
▁rivière	-10.3132
▁transparence	-10.3132
▁Journal	-10.3132
▁Nouveau	-10.3132
intéresse	-10.3132
▁transmis	-10.3132
▁mérite	-10.3132
uffisamment	-10.3133
▁réception	-10.3133
▁reconnaissance	-10.3133
73	-10.3134
▁profil	-10.3134
ibér	-10.3134
▁modèles	-10.3137
▁quitter	-10.3141
▁investissements	-10.3143
▁sac	-10.3145
aller	-10.315
▁joué	-10.3155
Il	-10.3155
inf	-10.3162
$	-10.3165
CH	-10.3167
ours	-10.3173
uri	-10.3177
▁paiements	-10.3193
iqué	-10.3199
▁intégré	-10.3206
▁subventions	-10.3206
▁amélioration	-10.3216
▁Ki	-10.3223
▁dites	-10.3228
▁approprié	-10.3233
ada	-10.3246
▁pre	-10.3257
graph	-10.3257
▁Peu	-10.3262
▁avais	-10.3265
▁profond	-10.3274
▁demandeur	-10.3274
▁veiller	-10.3278
▁désormais	-10.3283
▁généraux	-10.3283
▁préliminaire	-10.3283
pprovisionnement	-10.3283
▁consultatif	-10.3283
▁primaire	-10.3283
▁volontaire	-10.3283
▁Décision	-10.3284
▁web	-10.3284
▁causé	-10.3284
▁Pays	-10.3285
▁étroite	-10.329
▁souligné	-10.33
▁tort	-10.3301
▁regarder	-10.3302
▁lieux	-10.3302
▁roul	-10.3313
▁provinces	-10.3314
iale	-10.3316
▁2001,	-10.3317
abri	-10.3319
▁Hey	-10.3321
duction	-10.3328
mus	-10.3332
▁évaluer	-10.3339
▁Tim	-10.334
vier	-10.335
VE	-10.3353
uf	-10.3379
▁posé	-10.3381
▁ordinateur	-10.3386
▁industriel	-10.3386
▁registre	-10.3401
▁Télé	-10.3402
impact	-10.3412
▁nouvel	-10.3414
▁70	-10.3415
TÉ	-10.3417
▁pose	-10.3419
▁antérieure	-10.3419
▁encourage	-10.342
2009	-10.3423
▁efficaces	-10.3428
▁étrangères	-10.3429
▁journal	-10.3429
aucun	-10.3432
9)	-10.3434
▁Bruxelles	-10.3437
▁Plusieurs	-10.3437
▁adapté	-10.3437
▁minimum	-10.3437
▁télévision	-10.3437
▁laboratoire	-10.3437
▁Ecoute	-10.3437
inquiète	-10.3437
enseigne	-10.344
LO	-10.3442
▁Section	-10.3443
▁bras	-10.3444
▁conservation	-10.3445
▁étrangers	-10.3447
▁précisé	-10.3458
▁Donne	-10.3459
▁ressemble	-10.3461
oyer	-10.3461
ande	-10.3462
▁couverture	-10.3469
▁explique	-10.347
Les	-10.3473
85	-10.3473
▁Appel	-10.3483
û	-10.3487
▁militaires	-10.3495
bur	-10.3497
▁mg	-10.3498
▁invités	-10.3502
impose	-10.3506
éta	-10.3514
▁1992	-10.3518
▁vieille	-10.3518
▁donnée	-10.3521
▁professionnel	-10.3548
DR	-10.3549
glo	-10.3549
▁déclarations	-10.3551
▁organisme	-10.3553
Qu	-10.3557
▁unités	-10.3558
ège	-10.3559
▁existant	-10.356
▁déf	-10.356
▁fier	-10.3562
▁rencontrer	-10.3573
▁discussion	-10.3576
▁million	-10.3582
▁constituer	-10.3587
arrange	-10.359
▁conduit	-10.3592
▁maximum	-10.3593
▁ministériel	-10.3593
▁technologique	-10.3593
▁boîte	-10.3593
▁croyais	-10.3593
▁signature	-10.3593
▁défaut	-10.3593
inspection	-10.3593
▁considère	-10.3593
▁séparé	-10.3594
océan	-10.3594
▁gouvernance	-10.3594
▁administration	-10.3597
SP	-10.3613
▁feuille	-10.3615
chant	-10.3618
vaient	-10.3619
▁fonctionne	-10.3622
▁couche	-10.3624
arch	-10.3626
TS	-10.3638
PI	-10.3644
ifier	-10.365
usage	-10.3651
▁piste	-10.3652
▁esprit	-10.3654
▁congé	-10.3663
▁description	-10.3671
▁sexuelle	-10.3672
▁sois	-10.3675
▁Ottawa	-10.3676
▁engagements	-10.3676
▁inclus	-10.3677
uk	-10.3681
▁retrouve	-10.3683
▁art	-10.3685
▁indiquer	-10.3688
▁conserv	-10.3711
▁Ceci	-10.3717
père	-10.3728
endre	-10.3729
▁amour	-10.3734
ouvre	-10.3737
▁cellules	-10.3738
0)	-10.374
▁patient	-10.3742
▁circulation	-10.3752
▁impossible	-10.3752
▁énergétique	-10.3752
▁Politique	-10.3752
▁docteur	-10.3752
▁pierre	-10.3752
honneur	-10.3753
▁concours	-10.3753
▁oublié	-10.3753
▁financé	-10.3754
▁adultes	-10.3754
inscription	-10.3755
▁attaque	-10.3759
▁régulièrement	-10.3761
▁réalisée	-10.3764
▁entièrement	-10.3766
▁discussions	-10.377
▁modifier	-10.377
ancienne	-10.3771
jour	-10.3771
▁mène	-10.3775
▁complètement	-10.378
▁limites	-10.3783
kin	-10.379
▁Ser	-10.3802
▁Reste	-10.3804
▁roi	-10.3805
▁destinés	-10.3805
▁initiative	-10.3805
acide	-10.3831
▁souviens	-10.3836
▁Mes	-10.3838
▁menées	-10.3838
▁Quelqu	-10.3859
IA	-10.3865
▁annonce	-10.3869
/4	-10.3869
AIRE	-10.388
▁fiscale	-10.388
ita	-10.3885
appliquer	-10.3888
▁chacune	-10.3889
▁Ru	-10.3891
uti	-10.3897
▁candidat	-10.3901
occupe	-10.3907
▁acquis	-10.3913
▁compétente	-10.3913
effectif	-10.3913
▁Aujourd	-10.3913
▁fabricant	-10.3913
▁favorable	-10.3913
▁modalités	-10.3913
▁professeur	-10.3913
▁périodique	-10.3913
▁représentation	-10.3913
▁cuisine	-10.3913
▁placé	-10.3913
▁tribunal	-10.3913
▁échéant	-10.3913
▁génération	-10.3913
▁chaleur	-10.3913
▁scène	-10.3913
▁géographique	-10.3914
▁imposé	-10.3914
▁drôle	-10.3914
▁destination	-10.3914
▁parlementaire	-10.3914
▁Juste	-10.3914
▁nettoy	-10.3914
▁plaintes	-10.3915
traduction	-10.3916
▁chasse	-10.3918
Environnement	-10.3927
olo	-10.3931
▁essayer	-10.3934
venir	-10.3934
▁essentiellement	-10.3938
▁félicite	-10.3943
hab	-10.3944
▁faux	-10.3944
alisation	-10.3945
▁représentent	-10.3947
▁élevés	-10.395
poli	-10.3951
▁remplir	-10.396
▁anniversaire	-10.3972
▁soirée	-10.3973
▁rapporteur	-10.3979
▁Aide	-10.3991
AI	-10.3992
▁pire	-10.4005
résident	-10.4008
▁commerciales	-10.4014
midi	-10.4016
CO	-10.4019
▁balle	-10.403
nier	-10.4035
▁association	-10.4038
▁idées	-10.404
▁39	-10.4041
▁étapes	-10.4044
▁volé	-10.4045
▁prévus	-10.4047
den	-10.405
expliqu	-10.4056
affect	-10.4062
œuvre	-10.4064
importation	-10.4071
▁statistique	-10.4077
engagement	-10.4077
▁fédéraux	-10.4077
▁minute	-10.4077
▁Toronto	-10.4077
▁britannique	-10.4077
▁populaire	-10.4077
▁protégé	-10.4077
▁prévision	-10.4077
▁fenêtre	-10.4077
▁développé	-10.4077
▁Droit	-10.4078
▁match	-10.4078
▁plainte	-10.4078
▁Attendez	-10.4079
▁consulté	-10.4082
▁motif	-10.4083
▁compren	-10.4083
▁âge	-10.409
▁élu	-10.4094
▁formé	-10.4094
▁restaurant	-10.4095
▁journaliste	-10.4095
▁effectuer	-10.4098
▁contribué	-10.4103
illon	-10.4112
▁facilement	-10.4114
▁porté	-10.4114
▁Page	-10.4115
▁perd	-10.4118
▁chérie	-10.4119
▁Lors	-10.412
▁habitants	-10.4126
▁sorti	-10.4128
7/	-10.4134
▁Val	-10.4142
EP	-10.4148
RES	-10.415
ÉS	-10.4161
▁éco	-10.4175
▁influence	-10.4186
▁ménage	-10.4189
liquez	-10.4196
ray	-10.4201
▁territoires	-10.4201
▁tarif	-10.4206
▁fondé	-10.4211
▁collègues	-10.4223
▁enfin	-10.4226
▁Fo	-10.4231
ailleurs	-10.4231
▁faudra	-10.4237
Re	-10.4239
université	-10.424
▁étais	-10.424
▁définir	-10.4244
▁Stratégie	-10.4244
▁minorité	-10.4244
▁stimul	-10.4244
▁Compte	-10.4244
▁vaccin	-10.4244
électricité	-10.4244
▁Affaire	-10.4244
▁animal	-10.4244
▁arabe	-10.4244
▁tombé	-10.4245
▁Deuxième	-10.4246
▁Excusez	-10.4247
▁38	-10.4248
▁étudiants	-10.4248
▁mètres	-10.425
▁commis	-10.4257
▁composante	-10.4258
▁augmenter	-10.4264
▁tâches	-10.428
▁accessible	-10.4283
▁augmente	-10.4284
ayant	-10.4293
▁directe	-10.4294
▁industrielle	-10.43
NO	-10.4303
▁préoccupations	-10.4304
EMENT	-10.4305
▁visée	-10.4306
▁(3	-10.4308
▁alinéa	-10.4315
▁Tri	-10.4331
▁pénale	-10.434
▁Ber	-10.4345
ville	-10.4354
86	-10.4354
infection	-10.4364
▁rentre	-10.4371
▁(3)	-10.4374
▁entendre	-10.4376
contr	-10.4377
alisé	-10.4379
issent	-10.4396
arrivée	-10.4397
pha	-10.4397
▁appréci	-10.4398
▁régionales	-10.4402
▁amie	-10.4403
▁traditionnel	-10.4412
▁Société	-10.4414
▁discuter	-10.4414
▁fréquent	-10.4414
▁radiodiffusion	-10.4414
▁George	-10.4414
▁bizarre	-10.4414
▁écologique	-10.4414
▁additionnel	-10.4414
▁Demande	-10.4414
▁billet	-10.4414
Alberta	-10.4414
▁puissance	-10.4414
▁concert	-10.4415
▁programmation	-10.4415
▁indicateurs	-10.4417
▁empêcher	-10.4418
étaient	-10.4419
▁naturelles	-10.4421
▁répondu	-10.4431
quel	-10.4431
▁considérable	-10.444
▁Éta	-10.4445
▁impact	-10.4445
▁auto	-10.445
▁largement	-10.4462
ung	-10.4463
▁utilise	-10.4466
▁auront	-10.4472
ador	-10.4482
▁contribu	-10.451
▁Lorsqu	-10.451
cre	-10.4516
allais	-10.4521
▁37	-10.4526
▁opérationnel	-10.453
▁adopter	-10.4537
▁opinion	-10.4564
écoute	-10.4576
mètre	-10.4581
info	-10.4582
▁reven	-10.4583
atelier	-10.4584
▁mention	-10.4585
▁Trois	-10.4585
énoncé	-10.4585
intégrité	-10.4586
▁compréhension	-10.4586
▁fréquence	-10.4586
▁reflète	-10.4586
▁confirmé	-10.4586
▁paraît	-10.4586
▁relevé	-10.4586
▁tabac	-10.4586
▁sœur	-10.4586
▁collecte	-10.4586
▁gérer	-10.4586
▁milliers	-10.4586
audience	-10.4586
▁révisé	-10.4587
▁camion	-10.4587
▁Bas	-10.4587
▁jugé	-10.4587
èvre	-10.4587
▁douce	-10.4588
▁Leur	-10.4589
▁experts	-10.4589
▁objets	-10.459
▁serais	-10.459
▁décès	-10.459
▁organes	-10.4591
▁franchi	-10.4593
▁1991	-10.4593
▁avions	-10.4595
élément	-10.4602
por	-10.4603
▁Regardez	-10.4607
hydro	-10.4607
aud	-10.4608
▁rÃ	-10.4617
▁chante	-10.4629
▁alimentaires	-10.4642
bar	-10.4643
parle	-10.4656
vée	-10.466
mettent	-10.4673
▁objet	-10.4683
bel	-10.4684
eign	-10.4689
▁chargée	-10.4691
national	-10.4703
▁apprendre	-10.4711
PP	-10.4711
UI	-10.4713
rap	-10.4717
▁limité	-10.4734
▁distinct	-10.4748
▁organisée	-10.4751
▁morte	-10.4752
empêche	-10.4757
marin	-10.4761
▁Directeur	-10.4761
▁liaison	-10.4761
▁ressort	-10.4761
▁théorie	-10.4761
▁Montréal	-10.4761
▁dirigé	-10.4761
▁moderne	-10.4762
▁mobile	-10.4762
▁introduit	-10.4762
amendement	-10.4763
▁heureuse	-10.4764
▁patrimoine	-10.4765
▁Dites	-10.4768
▁considérant	-10.477
▁diversité	-10.477
▁revenir	-10.4771
▁fourniture	-10.4774
▁institu	-10.4776
▁devenue	-10.4778
▁plage	-10.4778
▁vide	-10.478
▁claire	-10.4788
▁appliquer	-10.4788
tude	-10.4795
▁parvenir	-10.48
▁appeler	-10.4802
VI	-10.4803
▁inférieur	-10.4804
bri	-10.4812
**	-10.4813
IG	-10.4814
▁opérationnelle	-10.4819
▁certaine	-10.4823
pit	-10.4827
alimentation	-10.4828
▁repas	-10.4834
48	-10.4839
ico	-10.4842
cens	-10.4845
arg	-10.4849
▁venue	-10.4856
lou	-10.4863
▁décider	-10.4864
venant	-10.4866
▁tourne	-10.4877
▁bouton	-10.4878
mère	-10.4884
▁constaté	-10.4889
nique	-10.4902
▁drogues	-10.4904
▁permanente	-10.4905
▁âgé	-10.4906
▁issu	-10.4909
▁détaillée	-10.4914
OS	-10.4924
exclu	-10.4935
CP	-10.4936
................	-10.494
▁conduire	-10.494
▁député	-10.494
▁manifeste	-10.494
▁négatif	-10.494
▁ordinaire	-10.494
▁récupérer	-10.494
▁collective	-10.494
▁posséd	-10.494
▁Combien	-10.494
▁attribué	-10.494
▁Réunion	-10.494
appartement	-10.494
Institut	-10.494
▁style	-10.494
▁Encore	-10.494
▁génétique	-10.494
▁commandant	-10.494
important	-10.494
▁variété	-10.4941
▁putain	-10.4941
▁satisfait	-10.4942
office	-10.4944
agissant	-10.4944
▁sympa	-10.4946
vel	-10.4948
▁fiche	-10.4955
▁four	-10.496
▁pur	-10.4967
▁Sha	-10.4968
▁visées	-10.4968
habitat	-10.4981
▁savons	-10.4984
utilisateur	-10.4985
entraîne	-10.4986
▁efficacement	-10.4988
experts	-10.4989
otte	-10.499
2002	-10.4996
cell	-10.4998
▁mené	-10.4999
▁ciel	-10.5004
▁régi	-10.5006
▁vaut	-10.5008
comme	-10.5025
▁36	-10.5033
▁appliquée	-10.5047
ome	-10.5053
▁not	-10.506
▁fac	-10.5071
▁accordée	-10.5087
▁fondamentale	-10.5094
MO	-10.5094
lip	-10.5096
MB	-10.5119
employeur	-10.5121
▁Institut	-10.5122
▁annoncé	-10.5122
▁commerciaux	-10.5122
▁convaincu	-10.5122
▁détention	-10.5122
▁équitable	-10.5122
adaptation	-10.5122
▁Utilis	-10.5122
▁Vraiment	-10.5122
▁Accueil	-10.5122
▁étudié	-10.5122
interdiction	-10.5122
▁Venez	-10.5122
espoir	-10.5122
▁conscience	-10.5122
▁cancer	-10.5123
▁Robert	-10.5123
AUX	-10.5123
▁censé	-10.5129
▁Traité	-10.513
▁aérienne	-10.5134
▁complémentaire	-10.5137
▁régler	-10.5139
▁Frank	-10.5141
▁indiquent	-10.5154
▁reprise	-10.5155
▁drogue	-10.5158
▁carrière	-10.516
▁profiter	-10.5162
▁auquel	-10.5163
▁outil	-10.5165
▁pertinent	-10.517
for	-10.5181
▁Ed	-10.5186
▁retenue	-10.5198
mbo	-10.52
lib	-10.5208
▁affirme	-10.5217
▁Bell	-10.5221
▁1)	-10.5222
effectue	-10.5238
▁bénéfici	-10.5238
▁viennent	-10.524
NU	-10.5245
▁élaborer	-10.5247
▁Vers	-10.5262
▁mineur	-10.5264
▁Italie	-10.5269
oxy	-10.5273
▁noter	-10.5277
▁pourront	-10.528
▁Contr	-10.5285
▁climat	-10.5285
▁peau	-10.5293
▁noté	-10.5294
▁aliments	-10.5299
▁défend	-10.5301
emplacement	-10.5304
encontre	-10.5305
▁catastrophe	-10.5307
▁IRSC	-10.5307
▁urbain	-10.5307
▁Mission	-10.5307
▁dépasse	-10.5307
extension	-10.5307
▁acheté	-10.5307
▁branche	-10.5308
▁matériaux	-10.5308
▁démontre	-10.5308
▁souvenir	-10.5308
▁voyez	-10.5309
▁soumise	-10.5313
▁transaction	-10.5314
▁Ontario	-10.5321
indice	-10.5322
ôle	-10.5323
▁couvre	-10.5333
hiver	-10.5334
accompagne	-10.5338
▁situe	-10.5345
pouvant	-10.5347
logue	-10.5354
▁pauvres	-10.5355
▁totalement	-10.5356
onnant	-10.5376
isser	-10.5377
pol	-10.5379
loc	-10.5382
▁Mise	-10.5383
issons	-10.5389
observation	-10.5393
▁global	-10.5397
▁marqué	-10.5417
▁agent	-10.5427
gée	-10.5432
▁Isra	-10.5433
▁compt	-10.5434
sida	-10.5451
▁transit	-10.5461
▁sûre	-10.5477
▁Prends	-10.5478
ning	-10.5481
▁41	-10.5483
emballage	-10.5496
espagnol	-10.5496
▁Division	-10.5496
▁Grâce	-10.5496
▁classique	-10.5496
▁manifestation	-10.5496
▁obligé	-10.5496
▁Certaine	-10.5496
▁religion	-10.5496
identification	-10.5496
▁fallait	-10.5496
▁qualifié	-10.5496
▁goût	-10.5496
▁dîner	-10.5496
instaur	-10.5496
officier	-10.5496
▁flux	-10.5496
▁automatique	-10.5496
indication	-10.5497
▁raconte	-10.5499
▁modifiée	-10.5499
▁gouverneur	-10.5499
▁bleu	-10.5501
▁bancaire	-10.5502
▁reconnaître	-10.5503
rim	-10.5505
▁estimé	-10.5506
▁kg	-10.551
FC	-10.5533
▁fournie	-10.5534
ost	-10.5534
amine	-10.5534
/12/	-10.5539
LL	-10.554
▁entrée	-10.5541
courir	-10.5547
▁victime	-10.5548
▁Lui	-10.5549
▁sec	-10.5557
▁Air	-10.5558
▁coupable	-10.5558
▁investi	-10.5561
▁ouvrir	-10.5565
doc	-10.5577
▁attendu	-10.5579
▁axée	-10.5594
▁Site	-10.5618
▁survie	-10.563
▁150	-10.564
▁orientation	-10.5642
pour	-10.5644
▁exerce	-10.5667
▁incit	-10.5671
▁casse	-10.5673
▁aérien	-10.5676
▁retrouver	-10.5677
ary	-10.5678
effort	-10.5682
▁consomm	-10.5683
▁Trésor	-10.5688
▁démocratie	-10.5688
▁répercussions	-10.5688
▁voulons	-10.5688
▁blessure	-10.5688
▁démarche	-10.5688
▁prennent	-10.5688
▁carburant	-10.5688
▁requête	-10.5688
▁résoudre	-10.5688
▁génial	-10.5688
▁idéal	-10.5688
▁réservé	-10.5688
▁fleurs	-10.5688
▁contraint	-10.569
informatique	-10.569
éno	-10.5691
▁identifié	-10.5694
▁1989	-10.5694
▁faudrait	-10.5696
▁Peter	-10.5697
▁poly	-10.5697
▁Chef	-10.5699
autorisation	-10.5703
exprimer	-10.5705
▁auteurs	-10.5706
bilité	-10.5708
▁resté	-10.5709
aboli	-10.5709
▁pouvais	-10.571
▁interdit	-10.5716
▁Mlle	-10.572
fort	-10.5722
▁Cap	-10.5723
▁travaillent	-10.5733
▁travaillé	-10.5734
▁montrent	-10.5734
avaient	-10.574
▁(4)	-10.5744
▁vingt	-10.5747
▁Act	-10.5752
spiration	-10.5761
vention	-10.5762
▁finir	-10.5774
▁appuie	-10.5775
ji	-10.5797
▁disent	-10.5826
mais	-10.583
▁fixer	-10.5838
▁auxquel	-10.5848
utilis	-10.585
▁rural	-10.5851
▁Mac	-10.5863
organe	-10.5884
▁Communication	-10.5884
▁Résultat	-10.5884
▁capitaine	-10.5884
▁fondamentaux	-10.5884
▁livraison	-10.5884
▁législative	-10.5884
▁remboursement	-10.5884
▁restriction	-10.5884
▁standard	-10.5884
introduction	-10.5884
▁Putain	-10.5884
▁respectivement	-10.5884
▁Tempera	-10.5884
▁évalué	-10.5884
▁composition	-10.5885
▁Information	-10.5885
▁soleil	-10.5885
▁connaissez	-10.5885
mbre	-10.5885
▁Total	-10.5886
gel	-10.5887
▁faim	-10.589
▁Ver	-10.5891
attache	-10.5891
▁affecté	-10.5894
▁sert	-10.5897
incidence	-10.5903
▁85	-10.5905
way	-10.5917
Add	-10.5922
▁jeudi	-10.5932
▁réparti	-10.5936
▁barre	-10.594
▁Avis	-10.5952
▁continuent	-10.5953
bert	-10.5955
PD	-10.5959
Homme	-10.5967
▁hôtel	-10.5968
engage	-10.5973
▁fé	-10.5995
▁déterminée	-10.5996
quelles	-10.6
gress	-10.6
IB	-10.6014
uck	-10.6014
gré	-10.6021
▁collabor	-10.6023
▁nécessite	-10.6032
observer	-10.6033
▁inférieure	-10.6035
▁dieu	-10.604
▁affiche	-10.6055
▁réelle	-10.6059
▁Min	-10.606
▁consacré	-10.6064
▁entière	-10.6068
▁élargi	-10.6081
Espagne	-10.6084
équivalent	-10.6084
▁Constitution	-10.6084
▁Numéro	-10.6084
▁adjoint	-10.6084
▁linguistique	-10.6084
▁rémunération	-10.6084
▁semblable	-10.6084
▁sensibilisation	-10.6084
▁vêtements	-10.6084
accéder	-10.6084
▁formulé	-10.6084
▁moindre	-10.6084
▁manuel	-10.6084
acquisition	-10.6084
▁Gestion	-10.6084
▁italien	-10.6085
▁finances	-10.6085
▁découvrir	-10.6086
▁pollution	-10.6087
opposition	-10.6089
▁sérieux	-10.6091
▁PIB	-10.6092
▁abus	-10.6095
▁exportations	-10.6095
▁vendre	-10.6096
▁tonnes	-10.6096
▁américaine	-10.6098
occup	-10.6102
▁légèrement	-10.6102
▁publicité	-10.6106
évaluer	-10.6107
2008	-10.6113
▁West	-10.6113
36	-10.6114
▁soeur	-10.6117
▁quatrième	-10.6119
▁via	-10.6123
avec	-10.6133
▁Bull	-10.6135
▁48	-10.614
▁révélé	-10.6152
65	-10.6155
▁négociation	-10.616
▁appliqué	-10.6169
▁familiale	-10.6171
▁cesse	-10.6173
ignore	-10.6181
2011	-10.6183
din	-10.6186
▁repos	-10.6192
▁rapproch	-10.62
▁Vol	-10.6207
SR	-10.6209
mber	-10.6209
▁Art	-10.6217
▁franc	-10.623
ancé	-10.6242
▁Désolée	-10.6247
▁signalé	-10.6248
%)	-10.6248
▁félicit	-10.6251
▁instrument	-10.6251
ENT	-10.6254
arrêter	-10.626
▁légère	-10.627
▁plu	-10.6287
▁végét	-10.6288
atmosphère	-10.6288
automobile	-10.6288
▁Autochtones	-10.6288
▁Développement	-10.6288
▁diminué	-10.6288
▁magasin	-10.6288
▁vouloir	-10.6288
éliminer	-10.6288
▁comparaison	-10.6288
▁prenez	-10.6288
▁idiot	-10.6288
▁douleur	-10.6288
▁flic	-10.6288
▁russe	-10.6288
▁jury	-10.6289
▁démarr	-10.6289
▁satisfaction	-10.6289
▁amendements	-10.6295
▁prendra	-10.6295
▁Faut	-10.6297
▁plat	-10.6302
▁56	-10.6304
exclusion	-10.6305
▁Avez	-10.6306
▁Mesure	-10.631
Orient	-10.6312
bourg	-10.6313
▁comport	-10.6315
opinion	-10.6315
oeuvre	-10.6316
accept	-10.6317
informer	-10.6319
▁universel	-10.632
aurai	-10.6323
▁bénéficier	-10.6324
▁allant	-10.633
Allah	-10.6332
▁documentation	-10.6336
uer	-10.6338
▁grosse	-10.6347
▁Coll	-10.635
▁grain	-10.6356
▁remercie	-10.6357
▁remise	-10.6359
▁auraient	-10.6361
▁envoyer	-10.6363
▁connexes	-10.6363
ombre	-10.6365
ft	-10.637
▁65	-10.6376
▁épi	-10.6377
▁vendu	-10.6393
bsolument	-10.6395
▁appuyer	-10.64
▁trouvent	-10.6407
Euro	-10.6409
consult	-10.6409
▁établit	-10.6414
indre	-10.6422
▁encourager	-10.6429
▁ample	-10.6435
▁avantage	-10.6441
▁requi	-10.645
▁Mu	-10.645
▁essay	-10.6464
▁accompagné	-10.6465
▁refus	-10.6466
▁sache	-10.6467
▁connaît	-10.648
gramme	-10.6493
▁accompagn	-10.6493
Industrie	-10.6496
immigration	-10.6496
intégrer	-10.6496
ordonnance	-10.6496
▁Michael	-10.6496
▁Turquie	-10.6496
▁déplacement	-10.6496
▁fabrique	-10.6496
▁indispensable	-10.6496
déjeuner	-10.6496
▁chanson	-10.6497
▁glace	-10.6497
▁côte	-10.6497
▁devriez	-10.6497
▁déficit	-10.6497
aménagement	-10.6498
▁tissu	-10.6498
▁mani	-10.6503
▁Prix	-10.6504
▁exécuté	-10.6509
▁dangereuse	-10.6514
▁puissant	-10.6514
▁volet	-10.6515
▁triste	-10.6516
vront	-10.6529
endroit	-10.6535
EU	-10.654
▁promet	-10.6547
▁quotidienne	-10.655
▁capitale	-10.6567
étal	-10.6568
affiche	-10.6572
gli	-10.6573
▁IV	-10.6576
▁partager	-10.659
rome	-10.6593
▁modifi	-10.6593
▁Ici	-10.6594
▁individuel	-10.6595
▁participe	-10.6612
ARC	-10.6617
▁prenant	-10.6626
▁avancé	-10.6632
56	-10.6638
▁conserver	-10.6639
▁pareil	-10.6668
▁pourtant	-10.6671
▁reli	-10.6674
axe	-10.6683
▁paye	-10.6699
▁plate	-10.67
▁pair	-10.6701
imagine	-10.6709
▁marchand	-10.6709
▁Beaucoup	-10.6709
▁bénéfice	-10.6709
▁célèbre	-10.6709
▁district	-10.6709
▁ferroviaire	-10.6709
▁paramètres	-10.6709
▁secrétaire	-10.6709
▁évident	-10.6709
▁vérifié	-10.6709
accusation	-10.6709
▁Sommet	-10.6709
▁menacé	-10.6709
Hôtel	-10.6709
▁concentrer	-10.6709
▁monnaie	-10.6709
▁colère	-10.6709
▁douane	-10.6709
▁logique	-10.671
▁déteste	-10.671
▁serveur	-10.671
éthique	-10.6711
▁quitté	-10.6712
imposition	-10.6712
▁désigne	-10.6716
▁convenu	-10.6716
▁mentale	-10.672
▁paie	-10.6722
tron	-10.6726
▁croissant	-10.6732
▁illustr	-10.6737
▁contribue	-10.6739
▁Commissaire	-10.6743
▁finalement	-10.6743
▁examine	-10.6744
aujourd	-10.6746
▁Celle	-10.6747
/2008	-10.6752
▁couple	-10.6753
▁fortement	-10.6766
▁Tre	-10.6775
▁passion	-10.6776
chlor	-10.6777
PT	-10.6788
ball	-10.6792
▁you	-10.6795
▁Là	-10.6809
▁chiffre	-10.6811
▁accepter	-10.6815
▁content	-10.6817
▁ferait	-10.6822
▁file	-10.6838
▁intitulé	-10.6865
rand	-10.6865
▁400	-10.687
▁dessin	-10.687
appelant	-10.6875
environnementale	-10.6875
▁prétend	-10.6885
gh	-10.6888
▁désolée	-10.6889
▁Mot	-10.6903
▁fixée	-10.6913
Afghanistan	-10.6927
▁Représentant	-10.6927
▁cinquième	-10.6927
▁corruption	-10.6927
▁retrouvé	-10.6927
▁résistance	-10.6927
▁occidental	-10.6927
▁paquet	-10.6927
▁continent	-10.6927
▁détruit	-10.6927
▁Suisse	-10.6927
▁jambe	-10.6927
▁Mexique	-10.6927
▁affiché	-10.6927
église	-10.6927
accusé	-10.6927
▁sondage	-10.6927
▁préfère	-10.6927
ommercialisation	-10.6927
▁frappe	-10.6928
▁adopt	-10.6928
écran	-10.6928
▁bibliothèque	-10.6929
▁National	-10.6929
▁Description	-10.693
▁boule	-10.6931
valoir	-10.6932
▁fermé	-10.6935
▁renouvelable	-10.6943
▁PME	-10.6943
exercer	-10.695
3%	-10.6952
MENT	-10.6953
▁industries	-10.6955
▁discours	-10.6955
▁SUR	-10.6957
▁rappeler	-10.6965
>	-10.6968
▁variation	-10.697
▁atteinte	-10.6982
▁stable	-10.6984
▁Bill	-10.6989
▁tenant	-10.6989
arité	-10.6992
UM	-10.6993
▁(5	-10.6998
JO	-10.7008
▁savait	-10.7011
▁pénal	-10.7022
▁connue	-10.7022
▁saine	-10.7028
▁trouvera	-10.703
▁Vent	-10.7037
▁subvention	-10.7039
▁proposer	-10.7042
▁emprunt	-10.7042
▁acheter	-10.7043
▁radi	-10.7046
▁Bro	-10.705
plication	-10.7068
onique	-10.7086
2010	-10.7093
oyez	-10.7095
étudier	-10.7108
▁cité	-10.7122
envoi	-10.7126
▁constat	-10.7128
▁courte	-10.7143
▁résolu	-10.7145
▁passant	-10.7148
▁Européen	-10.7149
▁palestinien	-10.7149
indemnité	-10.7149
▁Justice	-10.7149
▁Statistique	-10.7149
▁Washington	-10.7149
▁combinaison	-10.7149
▁contrôlé	-10.7149
▁diminution	-10.7149
▁disponibilité	-10.7149
▁désarmement	-10.7149
▁liquide	-10.7149
▁prioritaire	-10.7149
▁rubrique	-10.7149
▁spectacle	-10.7149
thérapie	-10.7149
▁concrète	-10.7149
▁construit	-10.7149
Irlande	-10.7149
▁bruit	-10.7149
▁week	-10.7149
efforce	-10.7149
▁chinois	-10.7149
▁réparation	-10.7149
▁sauvage	-10.7149
▁voici	-10.7149
incendie	-10.7149
échappe	-10.7149
▁secours	-10.7149
▁nourriture	-10.7149
▁satisfaire	-10.715
▁résidence	-10.715
▁Louis	-10.7151
▁étiez	-10.7151
▁intellectuelle	-10.7152
▁passagers	-10.7152
administrateur	-10.7153
▁Guide	-10.7153
▁foyer	-10.7153
▁sûreté	-10.7155
▁visiteurs	-10.7157
html	-10.7157
▁planète	-10.7158
▁PAR	-10.7158
▁sacré	-10.7161
oeuf	-10.7162
▁prévoir	-10.7164
▁aidé	-10.7165
▁Corée	-10.7167
2.3	-10.7172
essaye	-10.7174
▁arriv	-10.7176
▁boire	-10.7181
▁précision	-10.7185
▁détaillé	-10.7186
▁gamin	-10.719
économique	-10.7197
▁réussite	-10.7199
▁Quant	-10.7206
▁hauteur	-10.7219
plan	-10.7226
▁amélioré	-10.7239
hal	-10.7245
▁varie	-10.7249
▁sale	-10.7263
▁flo	-10.7268
▁substance	-10.7271
UNI	-10.728
▁prépare	-10.7283
▁récent	-10.7291
▁remplacer	-10.7291
▁Bou	-10.7298
▁aurez	-10.7303
Bas	-10.7316
▁exact	-10.7326
apprécie	-10.734
▁liée	-10.735
▁observ	-10.7358
▁lutter	-10.7359
▁Écoute	-10.7364
▁phénomène	-10.7376
▁pétrole	-10.7376
▁remettre	-10.7376
▁satellite	-10.7376
épreuve	-10.7376
▁doigt	-10.7376
▁illégal	-10.7376
▁minimale	-10.7376
▁Euh	-10.7376
▁virus	-10.7376
échéance	-10.7376
▁Adoption	-10.7376
▁ok	-10.7377
optimis	-10.7377
▁James	-10.7378
▁craint	-10.7379
▁ronde	-10.738
▁torture	-10.7381
cine	-10.7383
▁importations	-10.7384
▁Retour	-10.7385
▁Celui	-10.7387
▁dépose	-10.7388
Iran	-10.7396
▁vivent	-10.7398
▁consacrée	-10.7399
▁plantes	-10.7401
▁poursuiv	-10.7415
Italie	-10.7427
éviter	-10.7428
[	-10.7428
ound	-10.7428
(2)	-10.7436
▁portable	-10.7445
▁Prince	-10.7459
▁avancée	-10.746
pend	-10.7462
▁Hol	-10.7468
igna	-10.747
▁impliqué	-10.7489
▁partenaire	-10.7511
ator	-10.7511
cription	-10.7518
▁impliqu	-10.7518
▁rejeté	-10.752
▁portent	-10.7537
▁accepte	-10.7545
▁souligner	-10.7555
▁refusé	-10.7564
registre	-10.757
▁mille	-10.7578
omme	-10.7583
▁PRO	-10.7593
▁adéquate	-10.7597
▁reconnaît	-10.76
▁basée	-10.7601
intéressé	-10.7602
velopp	-10.7602
incident	-10.7603
object	-10.7607
Ç	-10.7608
▁célébr	-10.7609
▁Département	-10.7609
▁Londres	-10.7609
▁William	-10.7609
▁adressée	-10.7609
▁appartient	-10.7609
▁extraordinaire	-10.7609
▁incroyable	-10.7609
▁négative	-10.7609
▁renforcé	-10.7609
▁significative	-10.7609
▁trimestre	-10.7609
▁décennie	-10.7609
▁tiendra	-10.7609
▁suicide	-10.7609
▁classé	-10.7609
▁féminin	-10.7609
▁samedi	-10.7609
▁plomb	-10.7609
▁trompe	-10.7609
▁publie	-10.7609
▁venez	-10.7609
▁Ltd	-10.761
▁plait	-10.761
▁installé	-10.7611
▁malgré	-10.7611
▁fibre	-10.7611
▁réalis	-10.7612
▁africaine	-10.7612
▁vendredi	-10.7612
▁lecteur	-10.7612
▁Jusqu	-10.7613
▁Forum	-10.7615
▁acteurs	-10.7619
!!!	-10.7619
▁rayon	-10.7619
ADN	-10.7621
▁géré	-10.7624
▁teneur	-10.7633
AV	-10.7639
grad	-10.7641
▁surveiller	-10.7643
▁éclair	-10.7644
▁savent	-10.7646
▁certainement	-10.7648
tain	-10.7651
▁bière	-10.7652
▁doté	-10.7656
▁présentent	-10.766
orientation	-10.7665
association	-10.7665
▁conclure	-10.7667
exige	-10.7677
▁condamné	-10.7685
▁serez	-10.7686
gouvernemental	-10.7693
▁toucher	-10.7699
EF	-10.7702
HA	-10.7711
abandonne	-10.7718
▁disque	-10.7737
med	-10.7738
▁Joe	-10.7739
▁obtenue	-10.7741
OMC	-10.7746
▁terminer	-10.7749
▁médicament	-10.7754
▁fri	-10.7762
entité	-10.7765
employé	-10.7766
▁Autre	-10.7781
▁puisqu	-10.7783
engager	-10.7786
▁gagne	-10.7791
▁Mark	-10.7822
INT	-10.7832
aéroport	-10.7841
instruction	-10.7841
Brunswick	-10.7847
▁Défense	-10.7847
▁Grèce	-10.7847
▁Pacifique	-10.7847
▁capitaux	-10.7847
▁législatif	-10.7847
▁prescrit	-10.7847
▁représenté	-10.7847
▁vulnérable	-10.7847
▁relevant	-10.7847
▁réglementaire	-10.7847
▁Genève	-10.7847
▁promesse	-10.7847
▁croyez	-10.7847
▁jardin	-10.7847
▁bref	-10.7847
▁cheval	-10.7847
▁transmett	-10.7848
▁vice	-10.7849
▁sépare	-10.7849
▁combattre	-10.785
▁renvoi	-10.785
▁guéri	-10.7851
▁mesuré	-10.7851
▁Aussi	-10.7852
▁prière	-10.7853
▁troupe	-10.7853
▁mortalité	-10.7853
▁visible	-10.7857
loi	-10.7857
▁révolution	-10.7857
omo	-10.7857
▁Garde	-10.7863
arbre	-10.7865
▁publiée	-10.7865
affectation	-10.7866
▁patron	-10.7867
gou	-10.7867
▁PR	-10.7868
▁serre	-10.7869
▁Parti	-10.7869
dite	-10.7888
▁réglé	-10.7888
▁dynamique	-10.7893
issue	-10.7896
major	-10.7898
▁pote	-10.7901
▁lié	-10.7912
gov	-10.7919
▁recul	-10.7919
▁visiter	-10.7926
▁comm	-10.7929
▁structur	-10.7932
communications	-10.7935
▁pourriez	-10.7951
▁autorisée	-10.7952
▁retourner	-10.7962
onformément	-10.7962
▁absolu	-10.7969
▁Wi	-10.7978
ennui	-10.799
not	-10.7996
▁évoqu	-10.7999
Tu	-10.8003
▁préoccupation	-10.8005
▁condamn	-10.8011
llo	-10.8026
▁Marie	-10.8028
trique	-10.8057
ONS	-10.8061
adre	-10.8068
▁expliquer	-10.8068
asso	-10.8073
▁extra	-10.8075
mail	-10.8083
étudiant	-10.8085
▁Ray	-10.8091
160;	-10.8091
indépendance	-10.8091
▁compatible	-10.8091
▁inconnu	-10.8091
▁israélien	-10.8091
▁symbole	-10.8091
▁victoire	-10.8091
▁Richard	-10.8091
▁discuté	-10.8091
▁destruction	-10.8091
▁Ajout	-10.8091
▁[...]	-10.8091
▁autonome	-10.8091
▁soulevé	-10.8091
octroi	-10.8091
▁Brésil	-10.8091
inspecteur	-10.8091
▁traduit	-10.8091
▁confronté	-10.8091
▁récolte	-10.8091
▁Résolution	-10.8091
▁club	-10.8091
▁Merde	-10.8091
clusion	-10.8091
▁location	-10.8092
▁partagé	-10.8093
▁achevé	-10.8093
▁chute	-10.8094
▁enseignants	-10.8095
▁instructions	-10.8097
▁Phil	-10.8097
échelon	-10.8098
▁amené	-10.8098
▁retrait	-10.8099
▁1988	-10.8099
▁questionnaire	-10.8102
▁nomination	-10.8104
horaire	-10.8105
fou	-10.8108
:30	-10.811
▁aimer	-10.8111
▁débit	-10.8112
▁réellement	-10.8116
/2007	-10.8126
obil	-10.8134
▁sentir	-10.8141
▁menée	-10.8153
annonce	-10.8159
accident	-10.8159
atteindre	-10.8159
offrir	-10.816
–	-10.816
2007	-10.8161
étendre	-10.8174
▁Parc	-10.8197
▁destiné	-10.8198
amment	-10.8198
ranch	-10.8207
fond	-10.8214
partie	-10.8216
▁respecté	-10.8217
▁disait	-10.8218
ÉT	-10.8222
/2004	-10.8223
▁Her	-10.8234
▁monter	-10.8234
▁porc	-10.8239
aspect	-10.8241
ANCE	-10.8248
attrape	-10.8249
interaction	-10.8256
▁Malgr	-10.8268
nstru	-10.8279
oeil	-10.8295
opportunité	-10.8296
▁soin	-10.8302
▁préserv	-10.8317
▁égale	-10.8323
identifi	-10.8334
orateur	-10.8334
ressource	-10.8339
▁profession	-10.8339
Univers	-10.8339
▁Kosovo	-10.8341
▁Recommandation	-10.8341
▁Ressources	-10.8341
▁cérémonie	-10.8341
▁intelligent	-10.8341
▁tranquille	-10.8341
▁téléphonique	-10.8341
▁Évaluation	-10.8341
▁électoral	-10.8341
▁envisagé	-10.8341
▁urgent	-10.8341
▁touchant	-10.8341
▁fraude	-10.8341
▁suspect	-10.8341
▁viande	-10.8341
▁dérange	-10.8341
▁financer	-10.8341
essence	-10.8341
▁charbon	-10.8341
ajustement	-10.8342
verbal	-10.8343
▁maîtrise	-10.8344
▁comble	-10.8344
élargissement	-10.8344
▁nourri	-10.8345
▁répondants	-10.8349
▁Ensuite	-10.8349
▁1987	-10.8351
innov	-10.8351
▁infrastructures	-10.8351
▁appareils	-10.8353
▁défendre	-10.8353
▁jeunesse	-10.8363
onnait	-10.8372
▁gouvernementaux	-10.8378
▁cadeau	-10.838
▁front	-10.8383
▁Press	-10.8383
▁rurales	-10.8384
▁calculé	-10.8387
▁réfléchir	-10.8395
▁figurent	-10.8402
▁retirer	-10.841
avocat	-10.8416
région	-10.8416
▁Tour	-10.8419
trans	-10.8427
▁internet	-10.8434
président	-10.844
naux	-10.8457
▁intitulée	-10.8457
vid	-10.8461
▁sexuel	-10.8469
▁constante	-10.8476
appeler	-10.8509
▁accorder	-10.8514
LES	-10.8523
expert	-10.8527
▁apparten	-10.8545
icule	-10.8547
rick	-10.8556
▁suiv	-10.8563
1999	-10.8564
▁régl	-10.8567
▁admis	-10.8586
chimique	-10.8592
▁immédiat	-10.8593
▁tradition	-10.8595
équipage	-10.8597
▁calendrier	-10.8597
▁déterminant	-10.8597
▁habituellement	-10.8597
▁régulier	-10.8597
▁stupide	-10.8597
Initiative	-10.8597
▁médicaux	-10.8597
▁protège	-10.8597
▁enceinte	-10.8597
▁touristique	-10.8597
▁Prenez	-10.8597
▁converti	-10.8597
▁déployé	-10.8597
▁exécutif	-10.8597
Autriche	-10.8597
▁consacre	-10.8597
▁croit	-10.8597
▁marge	-10.8598
▁Berlin	-10.8598
▁that	-10.8599
▁sauvé	-10.8599
▁stress	-10.86
▁Moyen	-10.8601
▁terroristes	-10.8601
▁seuil	-10.8602
▁tourisme	-10.8603
▁lancement	-10.8605
▁correctement	-10.8605
▁artistes	-10.8605
▁entités	-10.8605
▁veille	-10.8606
▁remplacement	-10.861
▁600	-10.8611
▁basé	-10.8613
▁biais	-10.8618
environnementaux	-10.862
▁Arrêtez	-10.8621
▁aimé	-10.8623
▁disposer	-10.8628
▁surprise	-10.8629
fection	-10.863
▁longueur	-10.8631
émie	-10.8639
▁versement	-10.8647
▁Tiens	-10.8649
▁entraîner	-10.8657
▁bête	-10.8661
▁sélectionné	-10.8664
▁Martin	-10.8665
▁Ham	-10.867
▁Père	-10.8678
▁relié	-10.8683
ink	-10.8704
▁cool	-10.8708
œil	-10.871
▁fondation	-10.8711
▁(5)	-10.8714
▁limiter	-10.8714
artiste	-10.8726
▁invite	-10.8732
ignor	-10.8735
ACE	-10.8748
▁fonctionner	-10.8766
▁chat	-10.8778
▁accrue	-10.8785
▁pauvre	-10.8788
▁juridiction	-10.8809
suite	-10.8821
▁surveill	-10.8821
▁retourne	-10.8835
excellent	-10.8858
▁indépendante	-10.8859
Administration	-10.886
Ukraine	-10.886
▁Capitaine	-10.886
▁Néanmoins	-10.886
▁Sécurité	-10.886
▁chaussure	-10.886
▁diplômé	-10.886
▁exemplaire	-10.886
▁magnifique	-10.886
▁maximale	-10.886
▁mercredi	-10.886
▁policier	-10.886
▁revêt	-10.886
▁soixante	-10.886
▁tribunaux	-10.886
▁caméra	-10.886
▁Recherche	-10.886
▁bataille	-10.886
▁cheveux	-10.886
▁joindre	-10.886
adapter	-10.886
▁bonheur	-10.886
▁carbone	-10.886
▁clause	-10.886
▁cerveau	-10.886
équité	-10.886
▁concret	-10.886
▁ethnique	-10.886
▁métier	-10.886
▁plaque	-10.8861
Atlantique	-10.8861
▁facture	-10.8861
expertise	-10.8861
▁jolie	-10.8862
▁salut	-10.8862
OMPI	-10.8862
▁promis	-10.8862
▁Angel	-10.8862
▁soumission	-10.8862
▁folle	-10.8863
▁musée	-10.8863
▁accueilli	-10.8864
▁inject	-10.8865
▁richesse	-10.8866
▁individus	-10.8866
▁dommages	-10.8868
ize	-10.887
▁suppos	-10.8873
▁beauté	-10.8873
enfance	-10.8875
▁coucher	-10.8883
▁courante	-10.8884
▁Rome	-10.8892
▁provinciale	-10.8902
▁Bur	-10.8916
▁souligne	-10.8926
▁Bru	-10.8929
▁disais	-10.8931
▁mange	-10.8937
▁Seul	-10.8943
ménage	-10.8947
ordinateur	-10.8949
étape	-10.8953
▁affecte	-10.8954
acier	-10.8959
▁regrette	-10.8962
▁ultérieure	-10.8976
neur	-10.8977
2014	-10.898
▁Liste	-10.8981
▁neige	-10.8982
asile	-10.8992
employ	-10.9002
attendre	-10.9031
▁marine	-10.9041
2001	-10.9055
▁vaisseau	-10.9056
▁déroule	-10.9074
▁renseignement	-10.9088
▁Voi	-10.9103
étend	-10.9106
▁suffi	-10.9109
GI	-10.9112
assujetti	-10.913
▁Fédération	-10.913
▁Luxembourg	-10.913
▁discipline	-10.913
▁détermination	-10.913
▁néanmoins	-10.913
▁parallèle	-10.913
▁proximité	-10.913
▁rythme	-10.913
▁scénario	-10.913
▁2004-2005	-10.913
▁Charlie	-10.913
▁héros	-10.913
▁courriel	-10.913
▁séminaire	-10.913
▁suggère	-10.913
wood	-10.9131
▁relever	-10.9131
▁revient	-10.9131
▁uniforme	-10.9131
acquér	-10.9131
▁compétent	-10.9131
▁isolé	-10.9131
▁tolér	-10.9131
▁identifier	-10.9131
▁lacunes	-10.9131
▁Charte	-10.9131
▁bilan	-10.9131
▁Durant	-10.9132
▁==	-10.9132
▁notification	-10.9132
inflation	-10.9132
▁émis	-10.9133
▁Proposition	-10.9133
▁fiabilité	-10.9133
âEUR	-10.9133
▁Produit	-10.9133
échec	-10.9135
▁terrestre	-10.9135
▁nulle	-10.9135
▁devais	-10.9136
implant	-10.9137
▁universités	-10.914
▁Écoutez	-10.9144
▁équipements	-10.9147
orme	-10.9151
▁Pacte	-10.9156
▁favorise	-10.9158
▁comprenant	-10.9159
▁bain	-10.9161
▁notable	-10.9166
▁diable	-10.9181
▁étudie	-10.9181
▁pertinentes	-10.9181
aliser	-10.919
▁Bel	-10.9193
▁sûrement	-10.9194
▁carré	-10.9199
▁concernées	-10.9205
▁jugement	-10.9207
▁dormir	-10.9207
▁supprimé	-10.9213
OIT	-10.9226
apprendre	-10.9226
influence	-10.9227
ampleur	-10.9231
Isra	-10.9231
point	-10.924
▁suppl	-10.9241
▁continué	-10.9246
observateur	-10.9294
épenses	-10.9305
▁pure	-10.931
▁blog	-10.9311
mond	-10.9316
▁statu	-10.935
low	-10.9373
▁Environ	-10.9385
▁ravi	-10.9391
éveil	-10.9401
individu	-10.9402
▁spécifi	-10.9404
lov	-10.9407
hypothèse	-10.9408
▁Général	-10.9408
▁Pakistan	-10.9408
▁Suède	-10.9408
▁cohérent	-10.9408
▁coopérative	-10.9408
▁disparition	-10.9408
▁délégué	-10.9408
▁fabriqué	-10.9408
▁mensonge	-10.9408
▁plénière	-10.9408
▁provenance	-10.9408
▁quelconque	-10.9408
▁syndicat	-10.9408
▁énorme	-10.9408
▁évidence	-10.9408
inscrire	-10.9408
▁traîn	-10.9408
▁prescription	-10.9408
expédition	-10.9408
Écosse	-10.9408
oblige	-10.9408
Australie	-10.9408
▁mobilité	-10.9408
autonomie	-10.9408
▁soumettr	-10.9408
▁sanitaire	-10.9408
▁Région	-10.9408
▁enjeux	-10.9408
▁crucial	-10.9409
▁référ	-10.9409
▁attire	-10.9409
▁frein	-10.9409
▁servent	-10.941
▁estimations	-10.9413
▁lâche	-10.9413
▁simplifi	-10.9415
▁désert	-10.9415
iii	-10.9415
▁1970	-10.9418
▁ateliers	-10.9418
▁thé	-10.9418
hort	-10.9419
▁profondeur	-10.9428
▁Donnez	-10.9429
▁découle	-10.9431
▁dériv	-10.9433
▁participent	-10.9436
interview	-10.9438
ku	-10.9441
▁Steve	-10.9447
▁orale	-10.9447
▁prime	-10.945
▁activement	-10.9451
▁roche	-10.9453
avantage	-10.9453
▁remis	-10.9458
▁souhaitez	-10.9458
tti	-10.9464
▁BCE	-10.9469
▁existantes	-10.9469
▁requises	-10.9477
/2005	-10.9478
▁Hor	-10.9481
▁Barb	-10.9488
▁décor	-10.9492
▁faisons	-10.9498
▁gare	-10.9508
▁prouver	-10.951
immobilier	-10.9514
▁remarquer	-10.9516
EST	-10.953
▁indiqu	-10.9535
▁entré	-10.9564
ERS	-10.9571
▁envisage	-10.9575
archi	-10.9585
TO	-10.9605
ustification	-10.9608
▁conv	-10.9614
▁difficulté	-10.9651
▁restaur	-10.9664
▁marqu	-10.9667
▁probable	-10.9676
argument	-10.9688
Angleterre	-10.9694
excellence	-10.9694
▁Malheureusement	-10.9694
▁Pologne	-10.9694
▁Princip	-10.9694
▁Roumanie	-10.9694
▁cardiaque	-10.9694
▁consolidation	-10.9694
▁contaminé	-10.9694
▁différend	-10.9694
▁diminuer	-10.9694
▁excessive	-10.9694
▁illicite	-10.9694
▁plaignant	-10.9694
▁prestataire	-10.9694
▁printemps	-10.9694
▁remarquable	-10.9694
▁revanche	-10.9694
▁spéciaux	-10.9694
▁Objet	-10.9694
▁[1]	-10.9694
▁dimanche	-10.9694
▁phrase	-10.9694
▁stricte	-10.9694
▁auparavant	-10.9694
▁télécharge	-10.9694
▁cotisation	-10.9694
▁retiré	-10.9694
▁Particip	-10.9694
▁oiseaux	-10.9694
▁tentative	-10.9694
▁revue	-10.9694
Neuve	-10.9694
▁libération	-10.9694
▁distribué	-10.9694
▁dégage	-10.9695
▁success	-10.9695
▁voté	-10.9695
▁pneu	-10.9695
▁poussé	-10.9696
assumer	-10.9696
▁intervenir	-10.9696
▁servant	-10.9697
▁synd	-10.9698
▁lundi	-10.9699
▁restant	-10.97
▁plaisante	-10.9701
▁souffrance	-10.9701
▁témoignage	-10.9702
éditeur	-10.9702
▁Travail	-10.9703
▁résidents	-10.9705
▁stockage	-10.9707
▁suivent	-10.9707
▁considérer	-10.971
interroge	-10.9712
chev	-10.9715
▁colonne	-10.9718
latéral	-10.9718
▁rose	-10.9721
▁approuve	-10.9727
estime	-10.9735
▁biennal	-10.9737
▁faune	-10.9743
anna	-10.9744
▁lancer	-10.975
▁(0)	-10.9755
▁clos	-10.9757
▁supporter	-10.9763
▁spécialement	-10.977
oubli	-10.9792
▁Vu	-10.9796
américain	-10.9802
envisager	-10.9816
appliqu	-10.982
▁mutuelle	-10.9846
▁solde	-10.9847
ij	-10.985
ayez	-10.9851
▁retenu	-10.9866
entendre	-10.989
▁puni	-10.9892
liquer	-10.9918
▁inscrite	-10.9918
▁poursuivi	-10.9928
▁You	-10.9929
univers	-10.9941
attaqu	-10.9944
▁légale	-10.9949
TER	-10.9956
▁étrange	-10.9972
excéd	-10.9988
Saskatchewan	-10.9988
disciplinaire	-10.9988
humanité	-10.9988
▁Registre	-10.9988
▁bénévole	-10.9988
▁consensus	-10.9988
▁construire	-10.9988
▁criminalité	-10.9988
▁kilomètre	-10.9988
▁navigation	-10.9988
▁pacifique	-10.9988
▁théâtre	-10.9988
▁évidemment	-10.9988
▁Directive	-10.9988
▁combiné	-10.9988
▁compléter	-10.9988
▁universitaire	-10.9988
▁Examen	-10.9988
▁Lâche	-10.9988
▁abouti	-10.9988
▁cinéma	-10.9988
▁Compris	-10.9988
▁résulte	-10.9988
▁fausse	-10.9988
▁acceptable	-10.9989
▁abandonné	-10.9989
▁valide	-10.9989
▁énoncées	-10.9989
éthyl	-10.9989
▁mangé	-10.9989
actualis	-10.999
▁forcé	-10.999
▁explication	-10.999
▁expliqué	-10.9991
▁enlevé	-10.9991
▁diplomatique	-10.9991
▁tranche	-10.9991
▁blanche	-10.9991
▁tension	-10.9993
ONT	-10.9993
prenant	-10.9993
mandant	-10.9994
▁arguments	-10.9994
▁Mike	-10.9995
▁parfaitement	-10.9997
▁1980	-10.9999
▁mardi	-11.0001
▁recouvr	-11.0006
oxyde	-11.0007
▁bouche	-11.0009
▁poche	-11.0009
▁ACP	-11.0016
▁honte	-11.0017
sanguin	-11.0018
▁tarifaire	-11.002
▁roman	-11.0031
▁vague	-11.0034
QUE	-11.0035
▁prié	-11.0038
entraînement	-11.0044
▁âgées	-11.0044
▁variable	-11.0048
▁Park	-11.0049
▁pouvai	-11.0054
électr	-11.0057
2005	-11.009
agisse	-11.0099
adopter	-11.011
penser	-11.011
IX	-11.0112
▁individuelle	-11.0121
amuse	-11.013
pel	-11.0138
▁1000	-11.0143
formation	-11.0153
▁socio	-11.0155
apporter	-11.0168
▁entrepris	-11.0184
prise	-11.02
nière	-11.0209
▁fit	-11.0215
▁fournisse	-11.0223
▁réfléchi	-11.0225
▁apporte	-11.0242
icité	-11.0243
considérablement	-11.0256
▁réclam	-11.0264
▁reviendr	-11.0273
erreur	-11.0279
7%	-11.028
▁disparaît	-11.0291
GLEMENT	-11.0291
expansion	-11.0291
▁Fondation	-11.0291
▁analysé	-11.0291
▁cabinet	-11.0291
▁cinquante	-11.0291
▁circuit	-11.0291
▁compromis	-11.0291
▁fidèle	-11.0291
▁insuffisant	-11.0291
▁intégral	-11.0291
▁provinciaux	-11.0291
▁vétérinaire	-11.0291
▁Figure	-11.0291
▁diffusé	-11.0291
▁provoque	-11.0291
emmener	-11.0291
▁Activités	-11.0291
▁Exemple	-11.0291
▁Parfois	-11.0291
▁procureur	-11.0291
▁frappé	-11.0291
▁mixte	-11.0291
▁réparer	-11.0291
▁battre	-11.0291
▁réjoui	-11.0291
▁Yukon	-11.0291
▁productivité	-11.0291
ouvrage	-11.0291
▁compliqué	-11.0291
▁complété	-11.0292
▁Musée	-11.0292
▁joie	-11.0292
▁donateurs	-11.0292
▁exigé	-11.0293
▁propag	-11.0293
obéi	-11.0293
▁handicapées	-11.0294
Irak	-11.0296
▁contiennent	-11.0296
uvre	-11.0296
▁Suite	-11.0298
▁mentionne	-11.0301
▁effectivement	-11.0303
▁témoigne	-11.0304
occupation	-11.0304
▁Maroc	-11.0305
▁Nick	-11.0309
▁débouch	-11.0312
haus	-11.0313
▁fondement	-11.0316
▁libéral	-11.032
▁rire	-11.0322
▁disposent	-11.0326
▁préserver	-11.033
▁reconnaissant	-11.0336
▁déclar	-11.0337
▁opportun	-11.0345
▁concentré	-11.0351
bell	-11.0351
Par	-11.0353
▁King	-11.0358
▁notion	-11.0363
▁chap	-11.0364
étendue	-11.0365
▁collaborer	-11.0371
2%	-11.038
wan	-11.0389
▁salon	-11.0393
▁Kim	-11.0411
▁Max	-11.0418
exemple	-11.0423
encourage	-11.0425
culture	-11.0432
indique	-11.0435
type	-11.0435
oudre	-11.044
CHE	-11.0442
▁contente	-11.0448
▁métro	-11.046
▁organisationnel	-11.047
▁axé	-11.0472
▁inquiét	-11.0501
8%	-11.0506
3.2	-11.0517
▁quotidien	-11.0523
évolu	-11.0529
▁sélectionn	-11.0532
▁transporteur	-11.0536
▁chéri	-11.0546
▁reconnaiss	-11.0554
▁boss	-11.0574
agissait	-11.0604
▁Budget	-11.0604
▁collectif	-11.0604
▁préjudice	-11.0604
▁réflexion	-11.0604
▁tchèque	-11.0604
▁territorial	-11.0604
épidémie	-11.0604
▁module	-11.0604
▁Scott	-11.0604
▁respire	-11.0604
▁distingue	-11.0604
▁définitive	-11.0604
▁piscine	-11.0604
incorpor	-11.0604
épargne	-11.0604
▁Charles	-11.0604
▁Trouve	-11.0604
▁suspend	-11.0604
insuline	-11.0604
▁maintenu	-11.0604
▁répand	-11.0604
▁routier	-11.0604
Iraq	-11.0604
▁with	-11.0604
jacent	-11.0604
▁Quatre	-11.0604
allocation	-11.0604
▁atteign	-11.0604
▁intéressées	-11.0604
pdf	-11.0605
▁Présent	-11.0605
▁bombe	-11.0606
▁adolescents	-11.0606
▁psycho	-11.0606
amitié	-11.0607
▁pleure	-11.0612
▁1985	-11.0613
oïde	-11.0615
▁migration	-11.0616
▁pomme	-11.0617
▁bloc	-11.0617
▁constitution	-11.0621
inverse	-11.0623
▁inclure	-11.0624
▁brise	-11.0626
2004	-11.0629
▁tableaux	-11.0633
TRE	-11.0636
▁Valeur	-11.0636
enlever	-11.0638
arriver	-11.0646
▁remport	-11.0648
▁contribuent	-11.0649
▁menu	-11.0652
▁Will	-11.0653
avoue	-11.0653
trouverez	-11.0659
▁exploite	-11.068
Un	-11.0684
▁saint	-11.0695
▁foule	-11.0711
inclu	-11.0717
▁démon	-11.0719
▁0,0	-11.0719
instant	-11.0756
Nous	-11.0773
▁pousse	-11.0774
▁sauve	-11.0863
ISS	-11.0867
▁Rappel	-11.0887
▁Rose	-11.09
ford	-11.0907
entrepreneur	-11.092
indicateur	-11.092
▁citoyen	-11.0923
enny	-11.0924
ambassade	-11.0926
horizon	-11.0926
▁Belgique	-11.0926
▁Pouvez	-11.0926
▁accessoire	-11.0926
▁conducteur	-11.0926
▁diplôme	-11.0926
▁domicile	-11.0926
▁fatigué	-11.0926
▁formulation	-11.0926
▁organiser	-11.0926
▁prudent	-11.0926
▁rejoindre	-11.0926
▁remarqué	-11.0926
▁restructuration	-11.0926
▁révèle	-11.0926
▁sauvegarde	-11.0926
▁terrible	-11.0926
▁transféré	-11.0926
▁PNUD	-11.0926
▁plafond	-11.0926
▁équipé	-11.0926
▁consentement	-11.0926
▁domestique	-11.0926
▁conscient	-11.0926
▁détecte	-11.0926
▁gagné	-11.0926
automne	-11.0926
▁conduis	-11.0926
▁protéine	-11.0926
▁déplacé	-11.0927
▁battu	-11.0927
▁quasi	-11.0927
▁baiser	-11.0927
▁travaillant	-11.0927
▁Syrie	-11.0928
émotion	-11.0928
▁valable	-11.0928
▁bourse	-11.0928
▁méchant	-11.0928
▁rassemble	-11.0929
▁ratification	-11.0929
▁divisé	-11.0929
▁fermeture	-11.0929
▁comparative	-11.093
▁perception	-11.093
harmoni	-11.0931
▁tournée	-11.0932
▁détach	-11.0932
▁succ	-11.0933
▁mondialisation	-11.0933
attribution	-11.0934
▁Parfait	-11.0934
▁reçoit	-11.0935
▁leader	-11.0936
▁bateaux	-11.0938
▁indienne	-11.094
▁assisté	-11.0941
▁caché	-11.0944
▁bénéficient	-11.0947
▁chère	-11.0948
immobilisation	-11.095
▁réclamation	-11.0956
attaquer	-11.0956
exprim	-11.0957
▁Rapporteur	-11.0962
▁Simon	-11.0963
▁envoie	-11.0964
▁Prêt	-11.0965
▁comptable	-11.0973
▁fondamental	-11.0976
▁étage	-11.0982
Eco	-11.1
▁accru	-11.1019
▁chair	-11.1043
tendant	-11.1052
onnais	-11.1059
▁géo	-11.1065
export	-11.1072
appuyer	-11.1077
Québec	-11.1078
1%	-11.1079
Exp	-11.11
▁entraîné	-11.1105
change	-11.1115
▁développe	-11.1134
▁QU	-11.1134
▁2.2	-11.1141
▁favori	-11.1155
▁Medi	-11.1186
▁moto	-11.121
approuv	-11.1215
▁complément	-11.1231
▁régulière	-11.1241
▁évit	-11.1244
▁poursuit	-11.1251
▁plais	-11.1253
mission	-11.1257
Agriculture	-11.126
▁Analyse	-11.126
▁Données	-11.126
▁Norvège	-11.126
▁PRÉSENT	-11.126
▁Portugal	-11.126
▁Science	-11.126
▁World	-11.126
▁brillant	-11.126
▁catalogue	-11.126
▁classification	-11.126
▁leadership	-11.126
▁reconstruction	-11.126
▁recrutement	-11.126
▁réputation	-11.126
▁diabète	-11.126
▁mécanique	-11.126
▁réchauff	-11.126
▁spirituel	-11.126
▁comprimé	-11.126
▁exercé	-11.126
▁préféré	-11.126
▁rédigé	-11.126
actualité	-11.126
▁lycée	-11.126
▁pensait	-11.126
▁satisfaisant	-11.126
▁toilettes	-11.126
▁pensons	-11.126
▁hasard	-11.126
▁collection	-11.126
▁rédaction	-11.126
Labrador	-11.126
▁superficie	-11.126
▁Bonsoir	-11.126
▁Pierre	-11.126
▁Type	-11.126
utilité	-11.126
▁excédent	-11.126
▁englobe	-11.126
Education	-11.126
▁reçoivent	-11.126
▁Commerce	-11.126
▁bienvenue	-11.126
▁renouvellement	-11.1261
▁coincé	-11.1261
▁music	-11.1261
▁Chacun	-11.1262
▁Troisième	-11.1262
▁Indicat	-11.1263
▁peinture	-11.1264
▁grossesse	-11.1264
▁Seulement	-11.1264
▁rechange	-11.1264
▁africains	-11.1265
▁Ouvre	-11.1267
utilisent	-11.1267
▁libéré	-11.1267
▁critère	-11.1268
▁faillite	-11.1268
▁intéressés	-11.1268
▁1986	-11.1268
▁voyageurs	-11.1271
▁formelle	-11.1272
/2003	-11.1274
index	-11.1275
installer	-11.1276
▁Soyez	-11.1278
▁totalité	-11.1279
▁certification	-11.1279
▁forum	-11.128
▁distinction	-11.1284
▁courage	-11.1287
▁violent	-11.1288
▁plaid	-11.129
cision	-11.1297
▁montr	-11.1308
▁initial	-11.131
▁Russ	-11.133
▁loup	-11.135
▁permettr	-11.1359
épit	-11.1363
alerte	-11.1369
exploration	-11.137
▁compl	-11.1413
emprunt	-11.1422
Ottawa	-11.1423
anglais	-11.1423
programme	-11.1425
ogène	-11.1428
▁émett	-11.1428
file	-11.1433
acheter	-11.1435
▁souhaiter	-11.1449
ardi	-11.1454
▁Maria	-11.1455
ITE	-11.1455
▁gris	-11.1456
▁remarque	-11.1472
▁Flor	-11.1485
▁aliment	-11.1489
abilit	-11.1519
▁assassin	-11.1527
2,5	-11.1548
2.4	-11.1562
▁écriv	-11.1573
▁apprend	-11.1583
option	-11.1584
htm	-11.1593
enseignant	-11.1599
▁exclusive	-11.1604
Ambassade	-11.1604
accélérer	-11.1604
▁Amendement	-11.1604
▁Bulgarie	-11.1604
▁Lisbonne	-11.1604
▁Messieurs	-11.1604
▁délinquant	-11.1604
▁islamique	-11.1604
▁japonais	-11.1604
▁magazine	-11.1604
▁pharmaceutique	-11.1604
▁religieuse	-11.1604
▁remédier	-11.1604
▁revendication	-11.1604
▁synthèse	-11.1604
▁éloigné	-11.1604
▁Continue	-11.1604
▁Health	-11.1604
▁costume	-11.1604
▁ramener	-11.1604
▁serpent	-11.1604
(192,2	-11.1604
▁zéro	-11.1604
arrestation	-11.1604
▁blague	-11.1604
▁2005-2006	-11.1604
▁Finlande	-11.1604
▁importé	-11.1604
esclave	-11.1604
▁précoce	-11.1604
▁BEI	-11.1604
▁Bienvenue	-11.1604
▁copain	-11.1604
Équipe	-11.1604
éloigne	-11.1604
▁transformé	-11.1604
▁découlant	-11.1604
▁courrier	-11.1605
▁North	-11.1605
▁vallée	-11.1605
▁Central	-11.1605
▁incombe	-11.1605
inspire	-11.1605
▁Club	-11.1605
▁gosse	-11.1605
▁trente	-11.1605
invitation	-11.1605
▁venait	-11.1605
▁migrants	-11.1606
demoiselle	-11.1606
▁suspension	-11.1607
▁puits	-11.1607
▁excellente	-11.1608
▁étoiles	-11.1608
herbe	-11.1608
▁handicapés	-11.161
▁Matt	-11.1611
estimation	-11.1611
agression	-11.1611
▁reprendre	-11.1611
▁Fred	-11.1611
▁sacrifice	-11.1612
▁supprimer	-11.1613
▁morceau	-11.1613
▁flotte	-11.1614
▁1984	-11.1616
▁balance	-11.1616
▁bassin	-11.1619
▁imposer	-11.1619
▁River	-11.162
▁Trop	-11.1621
▁Réseau	-11.1621
▁étrangère	-11.1624
examin	-11.1626
▁Report	-11.1628
▁obtien	-11.1629
▁Pourtant	-11.1633
▁Frais	-11.1649
▁consist	-11.1657
▁dépense	-11.1657
book	-11.1663
oreille	-11.1664
mettant	-11.1665
▁nationalité	-11.1667
Tech	-11.1672
9%	-11.1677
▁réaffirm	-11.1693
▁fiable	-11.1701
▁Soi	-11.1727
▁basse	-11.1728
FM	-11.1732
version	-11.1732
▁mensuelle	-11.1741
▁fric	-11.1745
▁canal	-11.1754
▁rive	-11.1758
▁amélior	-11.176
▁constant	-11.1775
ministre	-11.1776
atteinte	-11.178
système	-11.178
▁Carte	-11.1808
exploit	-11.1856
remise	-11.1866
4%	-11.1884
▁abond	-11.19
invention	-11.1941
▁Bern	-11.1948
prolifération	-11.1961
▁2002-2003	-11.1961
▁Félicitations	-11.1961
▁Introduction	-11.1961
▁attribuable	-11.1961
▁combustible	-11.1961
▁corriger	-11.1961
▁déclenche	-11.1961
▁explicite	-11.1961
▁mobilisation	-11.1961
▁restreint	-11.1961
▁ridicule	-11.1961
▁fiducie	-11.1961
▁plastique	-11.1961
▁transparent	-11.1962
▁détection	-11.1962
▁tempête	-11.1962
▁Docteur	-11.1962
▁chronique	-11.1962
▁exploitants	-11.1962
▁diamètre	-11.1962
▁château	-11.1962
incertitude	-11.1962
▁madame	-11.1962
héritage	-11.1962
▁innocent	-11.1962
▁Sarah	-11.1962
▁sollicit	-11.1962
▁Jamais	-11.1962
▁PDF	-11.1962
▁royale	-11.1962
▁densité	-11.1962
ozone	-11.1963
▁vélo	-11.1963
▁caisse	-11.1963
▁langage	-11.1963
▁Petit	-11.1964
Courriel	-11.1964
intervalle	-11.1964
▁Adresse	-11.1964
inquiétude	-11.1965
▁Sauf	-11.1965
▁monstre	-11.1966
▁Okay	-11.1966
▁Sénat	-11.1966
escence	-11.1966
acheteur	-11.1969
▁Niveau	-11.1971
▁Cuba	-11.1973
▁foutre	-11.1973
▁bâti	-11.1973
aventure	-11.1973
▁correspondance	-11.1973
▁masque	-11.1974
▁color	-11.1977
▁pluie	-11.1978
▁adéquat	-11.198
Laurent	-11.1985
▁choc	-11.1991
▁cellule	-11.1994
▁Vos	-11.1996
▁milliard	-11.1997
ctorat	-11.2004
▁fonctionnaire	-11.2004
omie	-11.2013
▁time	-11.2023
▁Prend	-11.2038
INS	-11.211
source	-11.2149
sept	-11.2166
uillé	-11.2166
▁regret	-11.2189
▁rétabli	-11.2232
0.000	-11.2267
▁médical	-11.2274
étroit	-11.2319
▁voudra	-11.2322
aéronef	-11.2326
Eurostat	-11.2332
▁Danemark	-11.2332
▁Millénaire	-11.2332
▁Objectif	-11.2332
▁Référence	-11.2332
▁Stephen	-11.2332
▁bulletin	-11.2332
▁chauffage	-11.2332
▁cohérence	-11.2332
▁gravité	-11.2332
▁investisseurs	-11.2332
▁légitime	-11.2332
▁polluants	-11.2332
▁procède	-11.2332
▁promoteur	-11.2332
▁représentai	-11.2332
▁réservoir	-11.2332
▁Voyons	-11.2332
▁Windows	-11.2332
▁libellé	-11.2332
▁câble	-11.2332
▁prononce	-11.2332
▁réputé	-11.2332
▁2006-2007	-11.2332
▁mondiaux	-11.2332
▁trésor	-11.2332
insertion	-11.2332
▁Bravo	-11.2332
▁trembl	-11.2332
▁wagon	-11.2332
▁bouteille	-11.2332
Observat	-11.2332
▁Mettez	-11.2332
▁préoccupé	-11.2332
harmonisation	-11.2332
/11/201	-11.2332
▁apparu	-11.2332
▁surmonter	-11.2332
▁copine	-11.2332
▁reflét	-11.2333
▁Message	-11.2333
▁dingue	-11.2333
▁Visite	-11.2333
▁Daniel	-11.2334
▁béni	-11.2334
▁administré	-11.2334
▁pardonne	-11.2334
▁Exactement	-11.2335
▁malheur	-11.2335
asseoir	-11.2335
▁Livre	-11.2336
▁définitif	-11.2336
▁approfondie	-11.2336
▁grève	-11.2336
associe	-11.2336
▁couteau	-11.2337
▁produisent	-11.2339
▁penche	-11.234
▁dégradation	-11.234
▁aéroports	-11.2341
▁datée	-11.2343
aptitude	-11.2345
intimé	-11.235
▁annulé	-11.2351
▁impôts	-11.2354
▁salue	-11.2356
▁passif	-11.2358
▁coton	-11.2362
▁Vienne	-11.2365
▁Cinq	-11.2368
1992	-11.2374
▁collègue	-11.2379
▁directrice	-11.2379
▁Canadien	-11.2386
▁déclin	-11.2405
élan	-11.2441
▁présid	-11.2454
concurrentiel	-11.2467
▁rentré	-11.2483
oordonnées	-11.2508
▁renouvel	-11.251
Canada	-11.2536
spÃ	-11.255
habite	-11.2619
6%	-11.2663
▁repris	-11.2665
emporte	-11.2667
Photo	-11.2668
▁constitutionnel	-11.2695
hèse	-11.2702
terroriste	-11.271
________________	-11.2715
▁Public	-11.2715
▁dégrad	-11.2716
▁responsabilis	-11.2716
Divulgation	-11.2716
embrasse	-11.2716
incapacité	-11.2716
▁CRTC	-11.2716
▁Cabinet	-11.2716
▁Maître	-11.2716
▁Sommaire	-11.2716
▁appuyé	-11.2716
▁compensation	-11.2716
▁complexité	-11.2716
▁compétition	-11.2716
▁diagnostic	-11.2716
▁détruire	-11.2716
▁empreintes	-11.2716
▁fréquemment	-11.2716
▁logistique	-11.2716
▁modernisation	-11.2716
▁orientale	-11.2716
▁personnage	-11.2716
▁provoqué	-11.2716
▁rigoureuse	-11.2716
▁scrutin	-11.2716
▁Protection	-11.2716
▁conversation	-11.2716
▁ramène	-11.2716
▁simultané	-11.2716
▁artistique	-11.2716
▁interrogé	-11.2716
▁opposé	-11.2717
▁douze	-11.2717
▁Dernière	-11.2717
▁chevaux	-11.2717
▁inutile	-11.2717
▁gueule	-11.2717
▁femelle	-11.2717
▁fumée	-11.2717
▁manqué	-11.2717
▁fardeau	-11.2717
▁fumer	-11.2717
▁prolonge	-11.2717
▁génie	-11.2717
▁ciblé	-11.2717
Autorité	-11.2717
enzyme	-11.2717
▁Réponse	-11.2717
▁cloche	-11.2717
vocation	-11.2718
▁Agent	-11.2718
▁disposé	-11.2718
▁modér	-11.2718
▁raciale	-11.2718
▁pompe	-11.2718
▁Ferme	-11.2718
AINC	-11.2719
▁résume	-11.2719
OSCE	-11.272
▁intérimaire	-11.2721
▁optique	-11.2721
▁viable	-11.2722
▁couronne	-11.2722
▁journaux	-11.2723
▁vécu	-11.2725
avère	-11.2728
▁1973	-11.2728
▁Champ	-11.2729
▁employeurs	-11.2729
▁musicale	-11.273
acceptation	-11.2731
▁Outre	-11.2731
ough	-11.2734
▁comté	-11.2734
▁îles	-11.2735
▁rétablissement	-11.2736
▁achats	-11.2736
▁State	-11.2738
▁boutique	-11.2747
exportateur	-11.2748
écoul	-11.2753
still	-11.2763
▁autochtone	-11.278
▁exceptionnelle	-11.2802
parcours	-11.2809
▁Product	-11.285
habitation	-11.2852
▁systématique	-11.2883
PPE	-11.2929
instrument	-11.2934
http	-11.295
morph	-11.2956
▁électro	-11.3022
tensi	-11.3028
▁chapeau	-11.3054
africain	-11.3105
atrimoine	-11.3108
opérateur	-11.311
▁supplément	-11.3112
Indonésie	-11.3116
UNICEF	-11.3116
immeuble	-11.3116
▁Asseyez	-11.3116
▁CONSEIL	-11.3116
▁Canadian	-11.3116
▁Dépêche	-11.3116
▁Hongrie	-11.3116
▁TPSGC	-11.3116
▁agriculteurs	-11.3116
▁certifié	-11.3116
▁circonscription	-11.3116
▁cohésion	-11.3116
▁compétitivité	-11.3116
▁convaincre	-11.3116
▁horrible	-11.3116
▁immigrant	-11.3116
▁merveilleux	-11.3116
▁négocie	-11.3116
▁personnalité	-11.3116
▁portefeuille	-11.3116
▁regroupe	-11.3116
▁salariale	-11.3116
▁solidarité	-11.3116
▁symptômes	-11.3116
Bretagne	-11.3116
honorable	-11.3116
perfectionnement	-11.3116
▁Consultation	-11.3116
▁attaché	-11.3116
▁contractante	-11.3116
▁crochet	-11.3116
▁infecté	-11.3116
enlèvement	-11.3116
Éternel	-11.3116
▁délicat	-11.3116
▁chèque	-11.3117
▁démontré	-11.3117
▁souffle	-11.3117
▁faculté	-11.3117
▁répéter	-11.3117
▁prolongé	-11.3117
▁Secteur	-11.3117
▁chauffe	-11.3117
▁marginal	-11.3117
▁agréable	-11.3117
▁toxique	-11.3117
▁profondément	-11.3117
▁Guerre	-11.3117
▁mobilise	-11.3117
▁dispute	-11.3117
▁charmant	-11.3117
TVH	-11.3117
▁limitation	-11.3117
▁réduis	-11.3117
▁Durée	-11.3117
▁sauter	-11.3118
Enquête	-11.3118
▁robe	-11.3118
▁multipli	-11.3119
▁gardé	-11.3119
▁abordable	-11.3119
▁léger	-11.312
▁découvre	-11.312
▁Étude	-11.312
▁troubles	-11.3121
▁marre	-11.3121
▁remonte	-11.3121
▁potable	-11.3121
▁pourrions	-11.3121
▁amoureux	-11.3122
▁voudrait	-11.3124
▁composants	-11.3124
▁passeport	-11.3129
▁1982	-11.3129
▁candidature	-11.3133
introduire	-11.314
tendent	-11.3143
▁ressembl	-11.3147
stein	-11.3153
▁légal	-11.3154
ION	-11.3156
▁réaliste	-11.3162
▁extrait	-11.3175
▁producteur	-11.3199
ponse	-11.321
assistant	-11.327
/2015	-11.3281
▁détermine	-11.3292
1,3	-11.3315
roulement	-11.3316
abandon	-11.3339
feux	-11.3345
essentiel	-11.3351
Internet	-11.3352
deuxième	-11.3352
000$	-11.3361
▁mensuel	-11.337
semblait	-11.3437
espérons	-11.3479
▁Règle	-11.3515
substitut	-11.3533
▁Renforce	-11.3533
admissibilité	-11.3533
obscur	-11.3533
▁Research	-11.3533
▁Résumé	-11.3533
▁Toujours	-11.3533
▁délivrance	-11.3533
▁dépassé	-11.3533
▁nutrition	-11.3533
▁originaire	-11.3533
▁prospérité	-11.3533
▁préférence	-11.3533
▁pétition	-11.3533
▁reproduction	-11.3533
▁aquatique	-11.3533
▁contingent	-11.3533
▁contractuel	-11.3533
▁néglige	-11.3533
▁prélèvement	-11.3533
▁réveiller	-11.3533
▁sectoriel	-11.3533
▁séparation	-11.3533
▁théorique	-11.3533
▁soupçon	-11.3533
▁Danny	-11.3533
▁gagnant	-11.3533
▁identique	-11.3533
▁prisonniers	-11.3533
▁résister	-11.3533
▁spécification	-11.3533
Église	-11.3533
▁Oublie	-11.3533
▁Police	-11.3533
▁virtuel	-11.3533
▁rentabilité	-11.3533
▁sourire	-11.3533
▁particules	-11.3533
▁réglementé	-11.3533
▁souverain	-11.3533
▁Invest	-11.3533
Arctique	-11.3534
▁Sûr	-11.3534
▁massive	-11.3534
▁Calme	-11.3534
▁GRC	-11.3534
▁===	-11.3534
/62/	-11.3534
▁ressenti	-11.3534
▁ralenti	-11.3534
▁rayonnement	-11.3535
▁manche	-11.3535
ASFC	-11.3535
▁Rachel	-11.3535
▁conversion	-11.3536
▁amène	-11.3536
▁dotation	-11.3536
▁debout	-11.3536
▁talent	-11.3536
▁Définition	-11.3539
▁opérateurs	-11.3539
▁aborder	-11.354
Femme	-11.354
▁entrepreneurs	-11.3541
▁chaise	-11.3541
▁arbres	-11.3544
▁Condition	-11.3544
▁incidents	-11.3544
▁exploité	-11.3544
town	-11.3544
▁allié	-11.3545
accuse	-11.3545
▁confortable	-11.3549
▁espér	-11.3552
▁Victoria	-11.356
amende	-11.3564
▁antérieur	-11.3583
▁exempt	-11.3591
0,00	-11.3604
ception	-11.3613
intensifi	-11.3649
▁brun	-11.3669
▁cousin	-11.3692
▁termine	-11.3708
nombr	-11.3719
▁grille	-11.3739
view	-11.3759
temps	-11.3769
assure	-11.3771
humain	-11.3787
▁concurrent	-11.3811
▁explor	-11.3828
3.4	-11.386
exemption	-11.3908
nouveauté	-11.3928
▁confort	-11.3956
▁handicap	-11.3957
▁product	-11.3959
▁reprend	-11.3959
▁meurt	-11.3962
adulte	-11.3965
acquitter	-11.3968
aluminium	-11.3968
assainissement	-11.3968
ingénieur	-11.3968
▁Allemand	-11.3968
▁Caraïbes	-11.3968
▁Company	-11.3968
▁Moscou	-11.3968
▁apparaître	-11.3968
▁attentive	-11.3968
▁bienfaisance	-11.3968
▁contemporain	-11.3968
▁contraignant	-11.3968
▁dignité	-11.3968
▁divulgation	-11.3968
▁douanière	-11.3968
▁démographique	-11.3968
▁encouragé	-11.3968
▁expressément	-11.3968
▁grippe	-11.3968
▁hockey	-11.3968
▁inspiré	-11.3968
▁messieurs	-11.3968
▁ouvriers	-11.3968
▁philosoph	-11.3968
▁primordial	-11.3968
▁privilège	-11.3968
▁restitution	-11.3968
▁royaume	-11.3968
▁suggéré	-11.3968
▁thermique	-11.3968
▁bactérie	-11.3968
▁navigateur	-11.3968
▁substantiel	-11.3968
▁séquence	-11.3968
▁écosystèmes	-11.3968
▁déroulé	-11.3968
▁photographie	-11.3968
▁sévère	-11.3968
▁reviens	-11.3968
▁connard	-11.3968
▁forestière	-11.3968
▁Black	-11.3968
▁précieux	-11.3968
▁possession	-11.3968
▁Crédit	-11.3968
▁récompense	-11.3968
sensibilité	-11.3968
▁Fonction	-11.3968
▁proactive	-11.3968
▁achète	-11.3968
▁partiellement	-11.3968
▁centaines	-11.3968
▁signaux	-11.3968
▁Communiqué	-11.3968
▁dumping	-11.3968
▁ceinture	-11.3968
▁Voul	-11.3968
▁rotation	-11.3969
frontalier	-11.3969
éprouve	-11.3969
▁Titre	-11.3969
atherine	-11.3969
album	-11.3969
▁dispers	-11.3969
▁Lettre	-11.3969
▁cercle	-11.3969
▁poulet	-11.397
▁clef	-11.397
work	-11.397
▁radical	-11.397
hésite	-11.397
▁renvoyer	-11.3971
▁capture	-11.3971
▁piège	-11.3971
▁stop	-11.3971
inventaire	-11.3971
achève	-11.3972
▁Indiens	-11.3972
United	-11.3974
entreprendr	-11.3974
▁aéronefs	-11.3975
▁Hill	-11.3976
/09/20	-11.3977
▁House	-11.3977
▁Coupe	-11.3982
vrion	-11.3983
accroissement	-11.3984
field	-11.3984
▁exclue	-11.4007
▁noyau	-11.4029
ifiant	-11.403
étonne	-11.4083
▁Puisqu	-11.4083
ECU	-11.4171
▁considér	-11.4206
résolution	-11.4245
architecture	-11.4283
investir	-11.4324
éclairage	-11.4353
actuel	-11.4391
▁effective	-11.4404
▁indien	-11.4405
autoriser	-11.4407
appropri	-11.442
TRANS	-11.4422
atténuation	-11.4422
hygiène	-11.4422
hélicoptère	-11.4422
▁Attention	-11.4422
▁Californie	-11.4422
▁Facebook	-11.4422
▁Procureur	-11.4422
▁bilatéraux	-11.4422
▁brûle	-11.4422
▁camarade	-11.4422
▁cauchemar	-11.4422
▁chirurgie	-11.4422
▁cigarette	-11.4422
▁confidentialité	-11.4422
▁consolidé	-11.4422
▁constamment	-11.4422
▁côtière	-11.4422
▁destinataire	-11.4422
▁divorce	-11.4422
▁débarrasse	-11.4422
▁facultatif	-11.4422
▁festival	-11.4422
▁football	-11.4422
▁harcèlement	-11.4422
▁indirecte	-11.4422
▁ingrédient	-11.4422
▁intégrante	-11.4422
▁néerlandais	-11.4422
▁permanence	-11.4422
▁prononcé	-11.4422
▁redevance	-11.4422
▁respiratoire	-11.4422
▁résidus	-11.4422
▁résultant	-11.4422
▁sensibiliser	-11.4422
▁susmentionné	-11.4422
▁textiles	-11.4422
▁typique	-11.4422
▁vérificateur	-11.4422
▁éducatif	-11.4422
▁énuméré	-11.4422
▁clientèle	-11.4422
▁céréales	-11.4422
▁recensement	-11.4422
▁Financement	-11.4423
▁déplacer	-11.4423
adjudicat	-11.4423
emmène	-11.4423
▁confirmer	-11.4423
▁offrant	-11.4423
apparition	-11.4423
▁White	-11.4423
▁commandé	-11.4423
Éducation	-11.4423
▁lieutenant	-11.4423
▁métaux	-11.4423
▁repérer	-11.4423
▁transformer	-11.4423
▁quiconque	-11.4423
OCDE	-11.4423
▁Kevin	-11.4423
▁POUR	-11.4423
▁seigneur	-11.4423
▁(2001)	-11.4423
▁procurer	-11.4423
▁décret	-11.4423
▁motivé	-11.4423
assurant	-11.4423
▁corporel	-11.4423
▁ARR	-11.4423
▁péché	-11.4423
▁Tenez	-11.4424
ébauche	-11.4424
▁monument	-11.4424
▁Island	-11.4424
▁Jake	-11.4424
aiguille	-11.4424
▁Sierra	-11.4424
▁Publications	-11.4424
▁alloué	-11.4424
▁imaginer	-11.4424
▁Johnny	-11.4425
▁électeurs	-11.4425
▁certes	-11.4425
▁décharge	-11.4425
rugia	-11.4426
▁sexy	-11.4427
annulation	-11.4427
▁permission	-11.4428
accise	-11.4428
▁Régime	-11.4432
▁récit	-11.4434
▁diffère	-11.4439
▁baie	-11.4448
enjeu	-11.4462
admission	-11.4467
▁intensif	-11.4498
▁soupe	-11.4522
▁rectifi	-11.4528
▁évolue	-11.4536
▁commença	-11.4543
cinq	-11.4549
▁Membre	-11.4563
/2000	-11.4613
▁évalue	-11.4669
▁familial	-11.4691
volution	-11.473
▁retire	-11.477
▁entraîn	-11.4795
▁accro	-11.481
▁infirm	-11.4848
▁failli	-11.4886
▁milli	-11.4888
▁sacrifi	-11.489
▁Exact	-11.4898
llocution	-11.4899
▁CNRC	-11.4899
▁Catégorie	-11.4899
▁Excellent	-11.4899
▁Géorgie	-11.4899
▁Madrid	-11.4899
▁Slovénie	-11.4899
▁Vérification	-11.4899
▁batterie	-11.4899
▁discriminatoire	-11.4899
▁dégâts	-11.4899
▁dépistage	-11.4899
▁détérior	-11.4899
▁fantôme	-11.4899
▁impératif	-11.4899
▁lendemain	-11.4899
▁légende	-11.4899
▁légumes	-11.4899
▁malheureusement	-11.4899
▁manifesté	-11.4899
▁prostitution	-11.4899
▁précède	-11.4899
▁préparatoire	-11.4899
▁rupture	-11.4899
▁rémunéré	-11.4899
▁souterrain	-11.4899
▁soviétique	-11.4899
▁suédois	-11.4899
▁vouliez	-11.4899
▁vulnérabilité	-11.4899
affichage	-11.4899
édifice	-11.4899
▁Limited	-11.4899
▁Travaux	-11.4899
▁cuivre	-11.4899
▁soulève	-11.4899
▁terrasse	-11.4899
▁visibilité	-11.4899
étiquetage	-11.4899
▁Journée	-11.4899
▁ordonné	-11.4899
▁sincère	-11.4899
vènement	-11.4899
▁Clark	-11.4899
arbitre	-11.4899
▁asiatique	-11.4899
▁America	-11.4899
autoroute	-11.4899
horreur	-11.4899
▁provision	-11.4899
▁Henry	-11.4899
▁galerie	-11.4899
▁décédé	-11.4899
▁éclat	-11.4899
rompre	-11.4899
▁Culture	-11.4899
▁détresse	-11.4899
▁Smith	-11.4899
▁survécu	-11.4899
▁verticale	-11.4899
▁payable	-11.4899
inaugur	-11.4899
Algérie	-11.4899
▁craign	-11.4899
▁silence	-11.4899
explose	-11.4899
▁consigné	-11.4899
▁hyper	-11.4899
apparence	-11.4899
▁soudain	-11.4899
▁Place	-11.4899
▁viabilité	-11.4899
▁vapeur	-11.49
[2]	-11.49
▁sauvetage	-11.49
▁pause	-11.49
▁multilatéral	-11.49
▁comptabilité	-11.49
▁segment	-11.49
vasculaire	-11.4901
▁durabilité	-11.4901
▁ratifié	-11.4901
▁Content	-11.4902
▁consenti	-11.4902
▁creuse	-11.4903
▁Essay	-11.4903
alliance	-11.4903
▁brisé	-11.4908
▁tapis	-11.4909
▁Pense	-11.4913
▁autorise	-11.4917
essayais	-11.4925
▁Costa	-11.493
▁Bouge	-11.4932
▁administre	-11.4932
ombattants	-11.4939
infirmière	-11.4949
▁dollar	-11.5063
mari	-11.5144
▁plain	-11.5165
▁particip	-11.5176
.4.1	-11.5207
envoyer	-11.5214
élaborer	-11.5217
anniversaire	-11.5217
naissance	-11.5218
service	-11.5218
augmenter	-11.5218
millions	-11.5218
▁dormi	-11.5259
▁exceptionnel	-11.5289
▁effectu	-11.5348
install	-11.5359
oncernant	-11.5379
interprét	-11.5382
▁réfugi	-11.5392
project	-11.5399
Commissariat	-11.5399
insuffisance	-11.5399
obtention	-11.5399
▁COMMISSION	-11.5399
▁Cinquième	-11.5399
▁Columbia	-11.5399
▁Compagnie	-11.5399
▁Corporation	-11.5399
▁Doucement	-11.5399
▁Français	-11.5399
▁Heureusement	-11.5399
▁Paragraphe	-11.5399
▁Vendredi	-11.5399
▁analytique	-11.5399
▁assorti	-11.5399
▁biodiversité	-11.5399
▁confidentiel	-11.5399
▁constructeur	-11.5399
▁crédibilité	-11.5399
▁délibérations	-11.5399
▁emmené	-11.5399
▁flexible	-11.5399
▁nerveux	-11.5399
▁persistant	-11.5399
▁réconciliation	-11.5399
▁semblant	-11.5399
▁suprême	-11.5399
▁télécopie	-11.5399
▁équilibré	-11.5399
▁Andrew	-11.5399
▁conviction	-11.5399
▁détenteur	-11.5399
exactitude	-11.5399
▁Application	-11.5399
▁demandons	-11.5399
▁désignation	-11.5399
expiration	-11.5399
▁imputable	-11.5399
▁convenable	-11.5399
▁résidant	-11.5399
▁croient	-11.5399
▁studio	-11.5399
▁intense	-11.5399
▁analogue	-11.5399
▁nôtre	-11.5399
▁salope	-11.5399
▁fuite	-11.5399
▁pitié	-11.5399
▁Bosnie	-11.5399
▁prélevé	-11.5399
arrondi	-11.5399
▁ramené	-11.5399
▁gêne	-11.5399
▁Social	-11.5399
interface	-11.5399
/05/201	-11.5399
▁sagesse	-11.5399
existait	-11.5399
▁Royal	-11.5399
▁temple	-11.5399
▁forestier	-11.5399
▁thématique	-11.5399
▁diverg	-11.54
▁loisirs	-11.54
▁Blanc	-11.54
▁Pauvre	-11.54
▁crème	-11.54
▁hâte	-11.54
▁amusant	-11.54
▁intime	-11.5401
▁Jason	-11.5401
▁cochon	-11.5401
▁Green	-11.5402
étiquette	-11.5402
▁structurels	-11.5402
agrément	-11.5403
▁drapeau	-11.5406
▁interprété	-11.5406
scope	-11.5407
excè	-11.5408
▁enveloppe	-11.5409
▁attaqué	-11.541
▁arranger	-11.541
▁doter	-11.5419
▁Class	-11.5421
écriture	-11.5471
intervenant	-11.5491
▁réside	-11.5496
▁figur	-11.5641
ELLE	-11.5702
Prince	-11.5743
défini	-11.5743
public	-11.5744
—	-11.5744
octobre	-11.5744
Commission	-11.5744
institut	-11.5746
▁révél	-11.5748
▁élabore	-11.5754
▁Commun	-11.5798
quoi	-11.5863
prenons	-11.5865
▁0,5	-11.5904
▁Tarif	-11.5904
▁provincial	-11.5915
▁migr	-11.5918
▁Cinquante	-11.5925
RTICLE	-11.5925
Winnipeg	-11.5925
accessibilité	-11.5925
affirmation	-11.5925
homologation	-11.5925
ynthétique	-11.5925
▁Chypre	-11.5925
▁Considér	-11.5925
▁Edward	-11.5925
▁Espèce	-11.5925
▁Position	-11.5925
▁Supplément	-11.5925
▁Territoire	-11.5925
▁créancier	-11.5925
▁démonstration	-11.5925
▁explicative	-11.5925
▁fatigue	-11.5925
▁francophones	-11.5925
▁hybride	-11.5925
▁hôpitaux	-11.5925
▁interprète	-11.5925
▁irlandais	-11.5925
▁lucratif	-11.5925
▁manipulation	-11.5925
▁multilatéraux	-11.5925
▁métallique	-11.5925
▁météorologique	-11.5925
▁qualifications	-11.5925
▁représentatif	-11.5925
▁récupération	-11.5925
▁sommaire	-11.5925
▁supervision	-11.5925
▁sécuritaire	-11.5925
▁technicien	-11.5925
▁vieillissement	-11.5925
▁échappé	-11.5925
envergure	-11.5925
▁incapable	-11.5925
appendice	-11.5925
▁2003-2004	-11.5925
▁Tommy	-11.5925
▁réveillé	-11.5925
échantillonnage	-11.5925
▁couloir	-11.5925
▁retenir	-11.5925
▁Changement	-11.5925
▁Effect	-11.5925
Emploi	-11.5925
▁masculin	-11.5925
▁dominant	-11.5925
importateur	-11.5925
▁exerça	-11.5925
▁Street	-11.5925
intensité	-11.5925
▁Inuit	-11.5925
▁connerie	-11.5925
▁renvoyé	-11.5925
▁salaud	-11.5925
▁Situation	-11.5925
▁XVII	-11.5925
Opération	-11.5925
▁absent	-11.5925
▁prouvé	-11.5925
anormal	-11.5925
épisode	-11.5925
▁barrage	-11.5925
▁rabais	-11.5926
▁baleine	-11.5926
▁(1999)	-11.5926
▁harmonisé	-11.5926
▁Ryan	-11.5926
▁respectifs	-11.5926
▁ISO	-11.5926
animation	-11.5926
escalier	-11.5927
▁Certes	-11.5927
▁Essai	-11.5927
▁inséré	-11.5927
▁fusil	-11.5928
▁pâte	-11.5928
Texte	-11.5933
▁écoulé	-11.5935
▁Tunisie	-11.5941
▁cuir	-11.5954
▁Michel	-11.5955
▁entrave	-11.5971
▁strat	-11.5973
omination	-11.601
obst	-11.6027
accomplir	-11.6075
▁suscite	-11.6084
▁remplace	-11.6109
droit	-11.6255
▁prouve	-11.6281
session	-11.6307
Form	-11.6378
▁annu	-11.6418
▁banc	-11.6461
pathie	-11.647
▁recueil	-11.6472
approfondi	-11.6475
▁organisa	-11.6479
contamination	-11.6481
efficience	-11.6481
précédemment	-11.6481
▁Américains	-11.6481
▁Croatie	-11.6481
▁Ensemble	-11.6481
▁Impossible	-11.6481
▁Mesdames	-11.6481
▁Mouvement	-11.6481
▁accumulé	-11.6481
▁audiovisuel	-11.6481
▁bilingue	-11.6481
▁biotechnologie	-11.6481
▁brûlé	-11.6481
▁bénéfique	-11.6481
▁circulaire	-11.6481
▁coefficient	-11.6481
▁combustion	-11.6481
▁constituai	-11.6481
▁fiscaux	-11.6481
▁guerrier	-11.6481
▁hebdomadaire	-11.6481
▁kidnapp	-11.6481
▁massacre	-11.6481
▁moléculaire	-11.6481
▁méthodologie	-11.6481
▁paludisme	-11.6481
▁pilotage	-11.6481
▁psychologique	-11.6481
▁pénitentiaire	-11.6481
▁religieux	-11.6481
▁régulation	-11.6481
▁scandale	-11.6481
▁soigneuse	-11.6481
Argentine	-11.6481
hectare	-11.6481
▁Google	-11.6481
▁Maurice	-11.6481
▁Promotion	-11.6481
▁Sortez	-11.6481
▁connecté	-11.6481
▁indigène	-11.6481
▁poussière	-11.6481
▁traducteur	-11.6481
▁épuisé	-11.6481
orphelin	-11.6481
▁Chicago	-11.6481
▁Lituanie	-11.6481
▁maternelle	-11.6481
▁fragment	-11.6481
couvrant	-11.6481
▁Suivez	-11.6481
▁intervient	-11.6481
▁prévoyant	-11.6481
▁Observations	-11.6481
▁quinze	-11.6481
▁réservation	-11.6481
▁semestre	-11.6481
▁attiré	-11.6481
▁impressionnant	-11.6481
▁souscrit	-11.6481
▁Indique	-11.6481
▁Soudan	-11.6481
▁signification	-11.6481
Claude	-11.6481
▁Formation	-11.6481
▁Session	-11.6481
▁fauteuil	-11.6481
▁brève	-11.6481
▁détient	-11.6481
▁tunnel	-11.6481
▁notice	-11.6481
▁magique	-11.6481
▁Assure	-11.6481
Signé	-11.6481
▁travaillait	-11.6481
▁chantier	-11.6482
▁plasma	-11.6482
▁Sept	-11.6483
▁occupant	-11.6484
Ordre	-11.6484
▁nuage	-11.6484
▁agréé	-11.6485
humeur	-11.6489
énerve	-11.6491
▁ajusté	-11.6492
égaux	-11.6493
oppose	-11.6494
▁favorisé	-11.6499
métho	-11.65
riorité	-11.6525
annuler	-11.6527
▁Collèg	-11.659
appartenance	-11.6596
▁fiscal	-11.66
OTAN	-11.6628
▁régissa	-11.6641
▁honnête	-11.6662
innoc	-11.6686
stabilisation	-11.6717
▁étendu	-11.6728
▁immobili	-11.6801
systématiquement	-11.6816
tête	-11.6838
science	-11.6883
document	-11.6887
vingt	-11.6888
projet	-11.6888
août	-11.6888
justice	-11.6888
sécurité	-11.6888
oordonnateur	-11.6959
isponible	-11.6965
▁0,3	-11.6966
impliquer	-11.7046
▁produis	-11.7057
opulation	-11.7061
▁percep	-11.7064
▁peint	-11.7064
étoile	-11.7066
affaibli	-11.7069
atténuer	-11.7069
emprisonnement	-11.7069
humidité	-11.7069
indemnisation	-11.7069
interrogatoire	-11.7069
occurrence	-11.7069
prévalence	-11.7069
▁EUROPÉENNE	-11.7069
▁Majesté	-11.7069
▁Partenariat	-11.7069
▁Rwanda	-11.7069
▁atlantique	-11.7069
▁aveugle	-11.7069
▁chemise	-11.7069
▁citoyenneté	-11.7069
▁flexibilité	-11.7069
▁immense	-11.7069
▁instamment	-11.7069
▁invoqué	-11.7069
▁millénaire	-11.7069
▁minoritaire	-11.7069
▁prévoient	-11.7069
▁retombées	-11.7069
▁récepteur	-11.7069
▁scolaris	-11.7069
▁simulation	-11.7069
▁toxicité	-11.7069
▁trimestriel	-11.7069
Anglais	-11.7069
analyste	-11.7069
manufactur	-11.7069
▁Palestine	-11.7069
▁Thomas	-11.7069
▁artificiel	-11.7069
▁disciple	-11.7069
▁inchangé	-11.7069
▁scolarité	-11.7069
▁vôtre	-11.7069
Strasbourg	-11.7069
▁Statut	-11.7069
▁ponctu	-11.7069
▁sergent	-11.7069
▁tragique	-11.7069
▁Microsoft	-11.7069
▁Reviens	-11.7069
▁Voyage	-11.7069
▁inquiet	-11.7069
▁répète	-11.7069
▁Histor	-11.7069
▁générique	-11.7069
▁propice	-11.7069
▁Dégage	-11.7069
▁Finalement	-11.7069
▁Serbie	-11.7069
Esprit	-11.7069
▁marrant	-11.7069
▁mignon	-11.7069
▁Traitement	-11.7069
▁précieuse	-11.7069
Histoire	-11.7069
▁ventilation	-11.7069
▁quarante	-11.7069
▁belge	-11.7069
▁gloire	-11.7069
▁excité	-11.7069
▁Liban	-11.7069
▁voile	-11.7069
▁Vingt	-11.7069
▁abonné	-11.7069
▁thermo	-11.7069
entreposage	-11.7069
▁rumeur	-11.7069
▁juif	-11.7069
▁Augment	-11.7069
▁Juifs	-11.7069
▁béton	-11.7069
▁envahi	-11.7069
▁visuelle	-11.7069
▁fâch	-11.707
▁prospect	-11.707
▁gâteau	-11.707
▁accueille	-11.707
Gazette	-11.707
▁missile	-11.707
▁renferme	-11.707
absten	-11.7071
▁domine	-11.7071
▁réfère	-11.7071
▁consultant	-11.7072
▁saumon	-11.7072
▁braqu	-11.7072
allégation	-11.7074
▁autorisa	-11.7078
▁baign	-11.7079
▁East	-11.7079
anagement	-11.7136
nouvelle	-11.7167
obtiendr	-11.7185
arpent	-11.7187
▁comptabilis	-11.7223
▁rattrap	-11.7297
▁Arrêt	-11.7342
▁jouiss	-11.7458
Document	-11.7511
femme	-11.7513
▁produir	-11.7616
▁témoign	-11.7651
▁satisf	-11.768
▁physi	-11.7685
rocessus	-11.7685
ibliothèque	-11.7687
▁enrichi	-11.7692
Herzégovine	-11.7694
Yougoslavie	-11.7694
aquaculture	-11.7694
extrémité	-11.7694
Égypte	-11.7694
▁Actuellement	-11.7694
▁Appuye	-11.7694
▁Beijing	-11.7694
▁British	-11.7694
▁Congrès	-11.7694
▁Excellence	-11.7694
▁Kazakhstan	-11.7694
▁Méditerranée	-11.7694
▁Méthode	-11.7694
▁Nunavut	-11.7694
▁Professeur	-11.7694
▁Promouvoir	-11.7694
▁Singapour	-11.7694
▁Taylor	-11.7694
▁Technology	-11.7694
▁accéléré	-11.7694
▁anticorps	-11.7694
▁brochure	-11.7694
▁bénédiction	-11.7694
▁cadavre	-11.7694
▁chocolat	-11.7694
▁chômeurs	-11.7694
▁confirmation	-11.7694
▁créativité	-11.7694
▁célibataire	-11.7694
▁douzaine	-11.7694
▁débrouille	-11.7694
▁dérogation	-11.7694
▁flingue	-11.7694
▁flèche	-11.7694
▁formidable	-11.7694
▁genoux	-11.7694
▁mathématiques	-11.7694
▁merveilleuse	-11.7694
▁miracle	-11.7694
▁occidentaux	-11.7694
▁officieuse	-11.7694
▁pharmacien	-11.7694
▁pluriannuel	-11.7694
▁poitrine	-11.7694
▁promenade	-11.7694
▁préférable	-11.7694
▁périphérique	-11.7694
▁rembourser	-11.7694
▁référendum	-11.7694
▁significatif	-11.7694
▁spectaculaire	-11.7694
▁spontané	-11.7694
▁suscité	-11.7694
▁tragédie	-11.7694
▁validité	-11.7694
▁éducative	-11.7694
APECA	-11.7694
▁Burundi	-11.7694
▁Effet	-11.7694
▁calibre	-11.7694
▁coïncide	-11.7694
▁impatient	-11.7694
▁persuad	-11.7694
▁probabilité	-11.7694
▁Remarque	-11.7694
▁inacceptable	-11.7694
▁hétéro	-11.7694
▁mobilier	-11.7694
▁motivation	-11.7694
attentat	-11.7694
▁Suivant	-11.7694
▁bétail	-11.7694
Abraham	-11.7694
▁enfermé	-11.7694
▁estimatif	-11.7694
emmerde	-11.7694
▁Walter	-11.7694
▁gardien	-11.7694
▁écouté	-11.7694
▁soufre	-11.7694
▁poumons	-11.7694
▁relax	-11.7694
▁cumul	-11.7694
▁pilule	-11.7694
▁963-	-11.7694
Arménie	-11.7694
▁plonge	-11.7694
▁vierge	-11.7694
▁généré	-11.7695
▁projection	-11.7695
énomination	-11.7695
/56/	-11.7695
▁fallu	-11.7695
▁trahi	-11.7696
▁impressionné	-11.7696
▁animé	-11.7696
▁Ancien	-11.7697
/01/201	-11.7697
intestin	-11.77
▁will	-11.7702
▁déchir	-11.7703
Rouge	-11.7705
▁heurt	-11.7707
▁signifi	-11.7711
▁sourd	-11.7715
Traduction	-11.7732
Entreprise	-11.7736
iculaire	-11.7743
▁souvien	-11.779
ologiste	-11.782
appréciation	-11.7853
obine	-11.8006
▁High	-11.801
solution	-11.8155
nouveau	-11.8177
habitants	-11.8179
Annexe	-11.8179
troisième	-11.8179
ommunity	-11.8219
écembre	-11.8264
élécommunication	-11.8286
▁Victor	-11.8318
introdui	-11.8318
eptembre	-11.8332
ollution	-11.8352
adolescent	-11.8354
moyennant	-11.8355
▁matériau	-11.8356
Amsterdam	-11.836
Azerbaïdjan	-11.836
UNESCO	-11.836
hépatite	-11.836
ingénierie	-11.836
intelligence	-11.836
thérapeutique	-11.836
▁Construction	-11.836
▁PRODUIT	-11.836
▁Palestiniens	-11.836
▁RAPPORT	-11.836
▁System	-11.836
▁Technologie	-11.836
▁Twitter	-11.836
▁acquitté	-11.836
▁cannabis	-11.836
▁catholique	-11.836
▁consécutive	-11.836
▁céramique	-11.836
▁doublé	-11.836
▁empêché	-11.836
▁endommagé	-11.836
▁expérimental	-11.836
▁expérimenté	-11.836
▁fantastique	-11.836
▁fracture	-11.836
▁imbécile	-11.836
▁littéraire	-11.836
▁littérature	-11.836
▁minuit	-11.836
▁municipaux	-11.836
▁musulmans	-11.836
▁négocié	-11.836
▁olympique	-11.836
▁pandémie	-11.836
▁pesticides	-11.836
▁potassium	-11.836
▁problématique	-11.836
▁précurseur	-11.836
▁prévisible	-11.836
▁pédagogique	-11.836
▁pénétrer	-11.836
▁raccourci	-11.836
▁recouvert	-11.836
▁regroupé	-11.836
▁stupéfiants	-11.836
▁subsistance	-11.836
▁synergie	-11.836
▁éligible	-11.836
Intérieur	-11.836
▁Capacité	-11.836
▁Contribution	-11.836
▁Global	-11.836
▁Hydro	-11.836
▁PUBLIC	-11.836
▁déduire	-11.836
▁exclusif	-11.836
▁robot	-11.836
▁sécurisé	-11.836
▁terminant	-11.836
▁épousé	-11.836
▁Jimmy	-11.836
▁Lieutenant	-11.836
▁concession	-11.836
▁croît	-11.836
▁enchères	-11.836
▁médaille	-11.836
▁portugais	-11.836
▁recruté	-11.836
▁remorqu	-11.836
▁souvenez	-11.836
▁tangible	-11.836
Organisme	-11.836
honorer	-11.836
▁Modification	-11.836
▁franchement	-11.836
▁grecque	-11.836
▁littoral	-11.836
▁2000-2001	-11.836
▁2008-2009	-11.836
▁Bordel	-11.836
▁fonctionnalité	-11.836
▁générer	-11.836
▁School	-11.836
▁polonais	-11.836
▁business	-11.836
congrès	-11.8361
▁Entrée	-11.8361
▁délivre	-11.8361
▁Mauvais	-11.8361
▁gonfl	-11.8361
▁Envoyez	-11.8361
▁diagramme	-11.8361
▁muscle	-11.8361
▁soigner	-11.8361
Espace	-11.8361
▁Kenya	-11.8361
▁transnationale	-11.8361
additif	-11.8361
anomalie	-11.8361
▁boucle	-11.8361
▁chlorure	-11.8361
▁meurtrier	-11.8361
▁Famille	-11.8361
Eglise	-11.8361
▁dominé	-11.8361
▁énonce	-11.8361
▁London	-11.8361
▁Location	-11.8361
▁brouill	-11.8361
▁attribue	-11.8361
▁permettez	-11.8361
▁présidentielle	-11.8361
isolement	-11.8361
▁Langue	-11.8361
lauréat	-11.8361
▁nuire	-11.8361
écrase	-11.8361
▁Indian	-11.8362
▁blind	-11.8362
▁Enchanté	-11.8362
▁assigné	-11.8362
▁poison	-11.8362
▁Work	-11.8362
▁Fabric	-11.8362
▁Offr	-11.8362
▁habitué	-11.8363
▁pirate	-11.8363
▁imparti	-11.8364
▁rétroacti	-11.8366
▁expose	-11.8368
École	-11.8372
Habitat	-11.8399
Indien	-11.8401
accroche	-11.8462
▁approch	-11.8557
engrais	-11.8581
Haiti	-11.8593
▁mutuel	-11.8697
▁ultérieur	-11.8759
conservateur	-11.876
susciter	-11.8851
historique	-11.8893
discrimination	-11.8894
istribution	-11.8972
uverture	-11.8988
méliorer	-11.8992
▁gouvern	-11.9053
attribut	-11.9058
▁Excuse	-11.9063
explorer	-11.9069
transfrontalière	-11.9075
▁Barcelone	-11.9075
▁différenci	-11.9075
▁fraîche	-11.9075
▁refroidi	-11.9075
absorption	-11.9075
démocrate	-11.9075
hydrocarbures	-11.9075
▁CANADA	-11.9075
▁CNUCED	-11.9075
▁Calgary	-11.9075
▁DEMANDE	-11.9075
▁Development	-11.9075
▁Inutile	-11.9075
▁Jacob	-11.9075
▁Matthew	-11.9075
▁Mercredi	-11.9075
▁Philippines	-11.9075
▁Procédure	-11.9075
▁Responsabilité	-11.9075
▁Stockholm	-11.9075
▁afghan	-11.9075
▁amorcé	-11.9075
▁arbitraire	-11.9075
▁atomique	-11.9075
▁champignons	-11.9075
▁corrigée	-11.9075
▁crâne	-11.9075
▁culpabilité	-11.9075
▁distributeur	-11.9075
▁détecté	-11.9075
▁emporté	-11.9075
▁excessif	-11.9075
▁fluctuation	-11.9075
▁humides	-11.9075
▁hydraulique	-11.9075
▁immigré	-11.9075
▁infectieuse	-11.9075
▁infligé	-11.9075
▁intensive	-11.9075
▁interrompu	-11.9075
▁propuls	-11.9075
▁prorogation	-11.9075
▁préférentiel	-11.9075
▁quinquennal	-11.9075
▁règne	-11.9075
▁sandwich	-11.9075
▁stipule	-11.9075
▁succursale	-11.9075
▁territoriaux	-11.9075
▁transfrontière	-11.9075
▁transférer	-11.9075
▁tuberculose	-11.9075
▁épaule	-11.9075
Philippe	-11.9075
▁Christophe	-11.9075
▁DIREC	-11.9075
▁Network	-11.9075
▁bloqué	-11.9075
▁manquant	-11.9075
connecter	-11.9075
▁Brown	-11.9075
▁Instrument	-11.9075
▁rapidit	-11.9075
▁échoué	-11.9075
▁pantalon	-11.9075
▁suppression	-11.9075
▁Élection	-11.9075
▁2007-2008	-11.9075
▁aînés	-11.9075
▁désastre	-11.9075
▁géométri	-11.9075
▁secrète	-11.9075
▁sodium	-11.9075
▁survivant	-11.9075
admettre	-11.9075
▁College	-11.9075
horloge	-11.9075
uranium	-11.9075
▁complications	-11.9075
À	-12.2406
ù	-12.3677
́	-14.0876
